{"type": "standard", "pattern": "gpt2", "alphabet": ["\t", "\n", " ", "!", "\"", "#", "$", "%", "&", "'", "(", ")", "*", "+", ",", "-", ".", "/", "0", "1", "2", "3", "4", "5", "6", "7", "8", "9", ":", ";", "<", "=", ">", "?", "@", "A", "B", "C", "D", "E", "F", "G", "H", "I", "J", "K", "L", "M", "N", "O", "P", "Q", "R", "S", "T", "U", "V", "W", "X", "Y", "Z", "[", "\\", "]", "^", "_", "`", "a", "b", "c", "d", "e", "f", "g", "h", "i", "j", "k", "l", "m", "n", "o", "p", "q", "r", "s", "t", "u", "v", "w", "x", "y", "z", "{", "|", "}", "~", "\u0081", "\u0082", "\u0083", "\u0088", "\u0089", "\u008a", "\u008b", "\u008c", "\u008d", "\u008e", "\u008f", "\u0090", "\u0091", "\u0092", "\u0093", "\u0094", "\u0095", "\u0097", "\u009d", "\u00a0", "\u00a1", "\u00a2", "\u00a3", "\u00a4", "\u00a5", "\u00a6", "\u00a7", "\u00a8", "\u00a9", "\u00aa", "\u00ab", "\u00ac", "\u00ad", "\u00ae", "\u00af", "\u00b0", "\u00b1", "\u00b2", "\u00b3", "\u00b4", "\u00b5", "\u00b6", "\u00b7", "\u00b8", "\u00b9", "\u00ba", "\u00bb", "\u00bc", "\u00bd", "\u00be", "\u00bf", "\u00c0", "\u00c1", "\u00c2", "\u00c3", "\u00c4", "\u00c5", "\u00c6", "\u00c7", "\u00c8", "\u00c9", "\u00ca", "\u00cb", "\u00cc", "\u00cd", "\u00ce", "\u00cf", "\u00d0", "\u00d1", "\u00d2", "\u00d3", "\u00d4", "\u00d5", "\u00d6", "\u00d7", "\u00d8", "\u00da", "\u00dc", "\u00df", "\u00e0", "\u00e1", "\u00e2", "\u00e3", "\u00e4", "\u00e5", "\u00e6", "\u00e7", "\u00e8", "\u00e9", "\u00ea", "\u00eb", "\u00ec", "\u00ed", "\u00ee", "\u00ef", "\u00f0", "\u00f1", "\u00f2", "\u00f3", "\u00f4", "\u00f5", "\u00f6", "\u00f7", "\u00f8", "\u00f9", "\u00fa", "\u00fb", "\u00fc", "\u00fd", "\u00fe", "\u0100", "\u0101", "\u0102", "\u0103", "\u0105", "\u0107", "\u010c", "\u010d", "\u0110", "\u0111", "\u0113", "\u011b", "\u011f", "\u012b", "\u0130", "\u0131", "\u0139", "\u0141", "\u0142", "\u0144", "\u014b", "\u014c", "\u014d", "\u0151", "\u0152", "\u0153", "\u0159", "\u015a", "\u015b", "\u015e", "\u015f", "\u0160", "\u0161", "\u016b", "\u017a", "\u017e", "\u01b0", "\u0219", "\u021b", "\u0254", "\u0259", "\u025b", "\u0294", "\u02b0", "\u02bb", "\u02bc", "\u02be", "\u02bf", "\u02d0", "\u02e7", "\u0301", "\u0391", "\u0394", "\u0396", "\u0399", "\u039a", "\u039c", "\u03a0", "\u03a3", "\u03a4", "\u03a9", "\u03ac", "\u03ad", "\u03ae", "\u03af", "\u03b1", "\u03b2", "\u03b3", "\u03b4", "\u03b5", "\u03b6", "\u03b7", "\u03b8", "\u03b9", "\u03ba", "\u03bb", "\u03bc", "\u03bd", "\u03be", "\u03bf", "\u03c0", "\u03c1", "\u03c2", "\u03c3", "\u03c4", "\u03c5", "\u03c6", "\u03c7", "\u03c9", "\u03cc", "\u03cd", "\u03ce", "\u0401", "\u0406", "\u0410", "\u0411", "\u0412", "\u0413", "\u0414", "\u0415", "\u0416", "\u0417", "\u0418", "\u0419", "\u041a", "\u041b", "\u041c", "\u041d", "\u041e", "\u041f", "\u0420", "\u0421", "\u0422", "\u0423", "\u0424", "\u0425", "\u0426", "\u0427", "\u0428", "\u0429", "\u042b", "\u042c", "\u042d", "\u042e", "\u042f", "\u0430", "\u0431", "\u0432", "\u0433", "\u0434", "\u0435", "\u0436", "\u0437", "\u0438", "\u0439", "\u043a", "\u043b", "\u043c", "\u043d", "\u043e", "\u043f", "\u0440", "\u0441", "\u0442", "\u0443", "\u0444", "\u0445", "\u0446", "\u0447", "\u0448", "\u0449", "\u044a", "\u044b", "\u044c", "\u044d", "\u044e", "\u044f", "\u0451", "\u0456", "\u0457", "\u0463", "\u05d0", "\u05d1", "\u05d4", "\u05d5", "\u05d9", "\u05dc", "\u05dd", "\u05de", "\u05e8", "\u05e9", "\u05ea", "\u0623", "\u0627", "\u0628", "\u0629", "\u062a", "\u062b", "\u062c", "\u062d", "\u062e", "\u062f", "\u0631", "\u0633", "\u0634", "\u0635", "\u0637", "\u0639", "\u0641", "\u0642", "\u0643", "\u0644", "\u0645", "\u0646", "\u0647", "\u0648", "\u064a", "\u06a9", "\u06cc", "\u0924", "\u094d", "\u0e01", "\u0e07", "\u0e15", "\u0e17", "\u0e19", "\u0e21", "\u0e22", "\u0e23", "\u0e25", "\u0e27", "\u0e2b", "\u0e2d", "\u0e31", "\u0e32", "\u0e34", "\u0e35", "\u0e40", "\u0e48", "\u1e25", "\u1e43", "\u1e45", "\u1e47", "\u1e5b", "\u1e63", "\u1e6d", "\u1ea1", "\u1ea3", "\u1ea5", "\u1ec7", "\u2009", "\u200b", "\u2010", "\u2013", "\u2014", "\u2015", "\u2018", "\u2019", "\u201a", "\u201c", "\u201d", "\u201e", "\u2020", "\u2022", "\u2026", "\u2027", "\u202f", "\u2030", "\u2032", "\u2033", "\u203b", "\u2044", "\u207b", "\u2082", "\u20ac", "\u2103", "\u2116", "\u2160", "\u2161", "\u2162", "\u2190", "\u2192", "\u21d2", "\u2212", "\u221e", "\u2248", "\u2252", "\u2260", "\u2264", "\u22c5", "\u2460", "\u2461", "\u2462", "\u2500", "\u2588", "\u2591", "\u2592", "\u2593", "\u25b3", "\u25cb", "\u25cf", "\u2605", "\u2606", "\u2661", "\u2665", "\u266a", "\u266d", "\u2881", "\u28f4", "\u28ff", "\u3000", "\u3001", "\u3002", "\u3005", "\u3007", "\u3008", "\u3009", "\u300a", "\u300b", "\u300c", "\u300d", "\u300e", "\u300f", "\u3010", "\u3011", "\u3014", "\u3015", "\u301c", "\u3041", "\u3042", "\u3043", "\u3044", "\u3046", "\u3047", "\u3048", "\u304a", "\u304b", "\u304c", "\u304d", "\u304e", "\u304f", "\u3050", "\u3051", "\u3052", "\u3053", "\u3054", "\u3055", "\u3056", "\u3057", "\u3058", "\u3059", "\u305a", "\u305b", "\u305c", "\u305d", "\u305e", "\u305f", "\u3060", "\u3061", "\u3063", "\u3064", "\u3065", "\u3066", "\u3067", "\u3068", "\u3069", "\u306a", "\u306b", "\u306c", "\u306d", "\u306e", "\u306f", "\u3070", "\u3071", "\u3072", "\u3073", "\u3074", "\u3075", "\u3076", "\u3077", "\u3078", "\u3079", "\u307a", "\u307b", "\u307c", "\u307d", "\u307e", "\u307f", "\u3080", "\u3081", "\u3082", "\u3083", "\u3084", "\u3085", "\u3086", "\u3087", "\u3088", "\u3089", "\u308a", "\u308b", "\u308c", "\u308d", "\u308f", "\u3092", "\u3093", "\u30a1", "\u30a2", "\u30a3", "\u30a4", "\u30a5", "\u30a6", "\u30a7", "\u30a8", "\u30a9", "\u30aa", "\u30ab", "\u30ac", "\u30ad", "\u30ae", "\u30af", "\u30b0", "\u30b1", "\u30b2", "\u30b3", "\u30b4", "\u30b5", "\u30b6", "\u30b7", "\u30b8", "\u30b9", "\u30ba", "\u30bb", "\u30bc", "\u30bd", "\u30be", "\u30bf", "\u30c0", "\u30c1", "\u30c2", "\u30c3", "\u30c4", "\u30c5", "\u30c6", "\u30c7", "\u30c8", "\u30c9", "\u30ca", "\u30cb", "\u30cc", "\u30cd", "\u30ce", "\u30cf", "\u30d0", "\u30d1", "\u30d2", "\u30d3", "\u30d4", "\u30d5", "\u30d6", "\u30d7", "\u30d8", "\u30d9", "\u30da", "\u30db", "\u30dc", "\u30dd", "\u30de", "\u30df", "\u30e0", "\u30e1", "\u30e2", "\u30e3", "\u30e4", "\u30e5", "\u30e6", "\u30e7", "\u30e8", "\u30e9", "\u30ea", "\u30eb", "\u30ec", "\u30ed", "\u30ef", "\u30f2", "\u30f3", "\u30f4", "\u30f5", "\u30f6", "\u30fb", "\u30fc", "\u4e00", "\u4e01", "\u4e03", "\u4e07", "\u4e08", "\u4e09", "\u4e0a", "\u4e0b", "\u4e0d", "\u4e0e", "\u4e10", "\u4e11", "\u4e13", "\u4e14", "\u4e15", "\u4e16", "\u4e18", "\u4e19", "\u4e1a", "\u4e1b", "\u4e1c", "\u4e1d", "\u4e1e", "\u4e1f", "\u4e21", "\u4e22", "\u4e24", "\u4e25", "\u4e26", "\u4e27", "\u4e2a", "\u4e2b", "\u4e2d", "\u4e30", "\u4e32", "\u4e34", "\u4e38", "\u4e39", "\u4e3a", "\u4e3b", "\u4e3d", "\u4e3e", "\u4e42", "\u4e43", "\u4e45", "\u4e48", "\u4e49", "\u4e4b", "\u4e4c", "\u4e4d", "\u4e4e", "\u4e4f", "\u4e50", "\u4e52", "\u4e53", "\u4e54", "\u4e56", "\u4e57", "\u4e58", "\u4e59", "\u4e5d", "\u4e5e", "\u4e5f", "\u4e60", "\u4e61", "\u4e66", "\u4e70", "\u4e71", "\u4e73", "\u4e7e", "\u4e80", "\u4e82", "\u4e86", "\u4e88", "\u4e89", "\u4e8b", "\u4e8c", "\u4e8e", "\u4e8f", "\u4e91", "\u4e92", "\u4e94", "\u4e95", "\u4e98", "\u4e9a", "\u4e9b", "\u4e9c", "\u4e9e", "\u4ea1", "\u4ea2", "\u4ea4", "\u4ea5", "\u4ea6", "\u4ea7", "\u4ea8", "\u4ea9", "\u4eab", "\u4eac", "\u4ead", "\u4eae", "\u4eb2", "\u4eb3", "\u4eba", "\u4ebf", "\u4ec0", "\u4ec1", "\u4ec5", "\u4ec6", "\u4ec7", "\u4eca", "\u4ecb", "\u4ecd", "\u4ece", "\u4ecf", "\u4ed1", "\u4ed3", "\u4ed4", "\u4ed5", "\u4ed6", "\u4ed7", "\u4ed8", "\u4ed9", "\u4ee3", "\u4ee4", "\u4ee5", "\u4eea", "\u4eec", "\u4eee", "\u4ef0", "\u4ef2", "\u4ef6", "\u4ef7", "\u4efb", "\u4efd", "\u4eff", "\u4f01", "\u4f0a", "\u4f0d", "\u4f0e", "\u4f0f", "\u4f10", "\u4f11", "\u4f17", "\u4f18", "\u4f19", "\u4f1a", "\u4f1d", "\u4f1e", "\u4f1f", "\u4f20", "\u4f24", "\u4f26", "\u4f2a", "\u4f2f", "\u4f30", "\u4f34", "\u4f36", "\u4f38", "\u4f3a", "\u4f3c", "\u4f3d", "\u4f43", "\u4f46", "\u4f47", "\u4f48", "\u4f4d", "\u4f4e", "\u4f4f", "\u4f50", "\u4f51", "\u4f53", "\u4f54", "\u4f55", "\u4f57", "\u4f59", "\u4f5a", "\u4f5b", "\u4f5c", "\u4f5f", "\u4f60", "\u4f63", "\u4f69", "\u4f6c", "\u4f73", "\u4f75", "\u4f7f", "\u4f83", "\u4f84", "\u4f86", "\u4f88", "\u4f8b", "\u4f8d", "\u4f8f", "\u4f91", "\u4f96", "\u4f97", "\u4f9b", "\u4f9d", "\u4fa0", "\u4fa1", "\u4fa3", "\u4fa6", "\u4fa7", "\u4fa8", "\u4fae", "\u4faf", "\u4fb5", "\u4fb6", "\u4fbf", "\u4fc2", "\u4fc3", "\u4fc4", "\u4fca", "\u4fd7", "\u4fd8", "\u4fda", "\u4fdd", "\u4fde", "\u4fdf", "\u4fe0", "\u4fe1", "\u4fe3", "\u4fed", "\u4fee", "\u4fef", "\u4ff1", "\u4ff3", "\u4ff8", "\u4ffa", "\u4ffe", "\u5006", "\u5009", "\u500b", "\u500d", "\u5011", "\u5012", "\u5016", "\u5018", "\u5019", "\u501a", "\u501f", "\u5021", "\u5023", "\u5024", "\u5026", "\u5029", "\u502a", "\u502b", "\u502d", "\u5036", "\u503a", "\u503c", "\u503e", "\u5043", "\u5047", "\u5049", "\u504f", "\u5055", "\u505a", "\u505c", "\u5065", "\u5074", "\u5075", "\u5076", "\u5077", "\u507d", "\u507f", "\u5080", "\u5085", "\u508d", "\u5091", "\u5098", "\u5099", "\u50a3", "\u50a8", "\u50a9", "\u50ac", "\u50ad", "\u50b2", "\u50b3", "\u50b5", "\u50b7", "\u50bb", "\u50be", "\u50c5", "\u50cd", "\u50cf", "\u50d1", "\u50d5", "\u50d6", "\u50da", "\u50e7", "\u50ed", "\u50f1", "\u50f5", "\u50f9", "\u50fb", "\u5100", "\u5102", "\u5104", "\u5109", "\u5112", "\u5118", "\u511f", "\u5121", "\u512a", "\u5132", "\u513f", "\u5140", "\u5141", "\u5143", "\u5144", "\u5145", "\u5146", "\u5147", "\u5148", "\u5149", "\u514b", "\u514c", "\u514d", "\u514e", "\u5150", "\u5151", "\u5152", "\u5154", "\u5156", "\u515a", "\u515c", "\u5165", "\u5167", "\u5168", "\u5169", "\u516b", "\u516c", "\u516d", "\u5170", "\u5171", "\u5173", "\u5174", "\u5175", "\u5176", "\u5177", "\u5178", "\u5179", "\u517b", "\u517c", "\u517d", "\u5180", "\u5185", "\u5186", "\u5188", "\u5189", "\u518a", "\u518c", "\u518d", "\u5192", "\u5195", "\u5197", "\u5199", "\u519b", "\u519c", "\u51a0", "\u51a2", "\u51a4", "\u51a5", "\u51a8", "\u51ac", "\u51af", "\u51b0", "\u51b2", "\u51b3", "\u51b4", "\u51b5", "\u51b6", "\u51b7", "\u51bb", "\u51c0", "\u51c4", "\u51c6", "\u51c9", "\u51cb", "\u51cc", "\u51cd", "\u51cf", "\u51dd", "\u51e0", "\u51e1", "\u51e4", "\u51e6", "\u51ed", "\u51ef", "\u51f0", "\u51f1", "\u51f6", "\u51f8", "\u51f9", "\u51fa", "\u51fb", "\u51fd", "\u51ff", "\u5200", "\u5203", "\u5206", "\u5207", "\u5208", "\u520a", "\u520e", "\u5211", "\u5212", "\u5217", "\u5218", "\u5219", "\u521a", "\u521b", "\u521d", "\u5220", "\u5224", "\u5225", "\u5229", "\u522a", "\u522b", "\u522e", "\u5230", "\u5236", "\u5237", "\u5238", "\u5239", "\u523a", "\u523b", "\u5242", "\u5243", "\u5247", "\u524a", "\u524c", "\u524d", "\u5251", "\u5256", "\u525b", "\u525d", "\u5263", "\u5264", "\u5265", "\u5267", "\u5269", "\u526a", "\u526f", "\u5270", "\u5272", "\u5275", "\u527f", "\u5283", "\u5287", "\u5289", "\u528d", "\u5291", "\u529b", "\u529d", "\u529e", "\u529f", "\u52a0", "\u52a1", "\u52a3", "\u52a8", "\u52a9", "\u52aa", "\u52ab", "\u52ad", "\u52b1", "\u52b2", "\u52b3", "\u52b4", "\u52b9", "\u52be", "\u52bf", "\u52c1", "\u52c3", "\u52c5", "\u52c7", "\u52c9", "\u52cb", "\u52d0", "\u52d2", "\u52d5", "\u52d8", "\u52d9", "\u52db", "\u52dd", "\u52de", "\u52df", "\u52e2", "\u52e3", "\u52e4", "\u52e7", "\u52f2", "\u52f3", "\u52f5", "\u52f8", "\u52fb", "\u52fe", "\u52ff", "\u5300", "\u5302", "\u5305", "\u5306", "\u5308", "\u5316", "\u5317", "\u5319", "\u5320", "\u5321", "\u532a", "\u532e", "\u532f", "\u5331", "\u5339", "\u533a", "\u533b", "\u533e", "\u533f", "\u5340", "\u5341", "\u5343", "\u5347", "\u5348", "\u5349", "\u534a", "\u534e", "\u534f", "\u5350", "\u5351", "\u5352", "\u5353", "\u5354", "\u5355", "\u5356", "\u5357", "\u5358", "\u535a", "\u535c", "\u5360", "\u5361", "\u5362", "\u5364", "\u5366", "\u5367", "\u536b", "\u536f", "\u5370", "\u5371", "\u5373", "\u5374", "\u5375", "\u5377", "\u5378", "\u537b", "\u537f", "\u5382", "\u5384", "\u5385", "\u5386", "\u5389", "\u538b", "\u538c", "\u5398", "\u539a", "\u539f", "\u53a2", "\u53a5", "\u53a6", "\u53a8", "\u53ad", "\u53b2", "\u53b3", "\u53bb", "\u53bf", "\u53c2", "\u53c3", "\u53c8", "\u53c9", "\u53ca", "\u53cb", "\u53cc", "\u53cd", "\u53ce", "\u53d1", "\u53d4", "\u53d6", "\u53d7", "\u53d8", "\u53d9", "\u53db", "\u53df", "\u53e0", "\u53e1", "\u53e2", "\u53e3", "\u53e4", "\u53e5", "\u53e6", "\u53e9", "\u53ea", "\u53eb", "\u53ec", "\u53ed", "\u53ef", "\u53f0", "\u53f1", "\u53f2", "\u53f3", "\u53f6", "\u53f7", "\u53f8", "\u53f9", "\u53fb", "\u5401", "\u5403", "\u5404", "\u5408", "\u5409", "\u540a", "\u540b", "\u540c", "\u540d", "\u540e", "\u540f", "\u5410", "\u5411", "\u5413", "\u5415", "\u5417", "\u541b", "\u541e", "\u541f", "\u5420", "\u5426", "\u5427", "\u5428", "\u542b", "\u542c", "\u542f", "\u5433", "\u5434", "\u5435", "\u5438", "\u5439", "\u543b", "\u543e", "\u5442", "\u5446", "\u5448", "\u5449", "\u544a", "\u544e", "\u5458", "\u5462", "\u5468", "\u546a", "\u5473", "\u547c", "\u547d", "\u5480", "\u5484", "\u548c", "\u548e", "\u548f", "\u5490", "\u5492", "\u5496", "\u54a4", "\u54a8", "\u54aa", "\u54ac", "\u54b2", "\u54b8", "\u54bd", "\u54c0", "\u54c1", "\u54c7", "\u54c8", "\u54c9", "\u54cd", "\u54e1", "\u54e5", "\u54e8", "\u54e9", "\u54ea", "\u54ed", "\u54f2", "\u54fa", "\u5504", "\u5506", "\u5507", "\u5510", "\u5524", "\u552e", "\u552f", "\u5531", "\u5538", "\u5546", "\u554a", "\u554f", "\u5553", "\u555f", "\u5561", "\u5564", "\u5566", "\u5580", "\u5583", "\u5584", "\u5587", "\u5589", "\u558a", "\u558b", "\u5598", "\u559a", "\u559c", "\u559d", "\u55a7", "\u55a9", "\u55aa", "\u55ab", "\u55ac", "\u55ae", "\u55b0", "\u55b6", "\u55b7", "\u55bb", "\u55c5", "\u55ce", "\u55dc", "\u55e3", "\u5606", "\u5609", "\u560e", "\u5617", "\u5618", "\u561b", "\u5629", "\u562f", "\u5631", "\u5632", "\u5634", "\u563b", "\u5642", "\u565b", "\u5668", "\u566a", "\u566c", "\u5674", "\u5676", "\u5678", "\u567a", "\u5687", "\u56b4", "\u56c2", "\u56ca", "\u56d1", "\u56da", "\u56db", "\u56de", "\u56e0", "\u56e2", "\u56e3", "\u56ed", "\u56f0", "\u56f2", "\u56f3", "\u56f4", "\u56fa", "\u56fd", "\u56fe", "\u5703", "\u5706", "\u5708", "\u570b", "\u570d", "\u570f", "\u5712", "\u5713", "\u5716", "\u5718", "\u571c", "\u571f", "\u5723", "\u5727", "\u5728", "\u572d", "\u5730", "\u5733", "\u573a", "\u573e", "\u5740", "\u5742", "\u5747", "\u574a", "\u574d", "\u574e", "\u574f", "\u5750", "\u5751", "\u5757", "\u575a", "\u575b", "\u575d", "\u575e", "\u575f", "\u5760", "\u5761", "\u5764", "\u5766", "\u576a", "\u5782", "\u5783", "\u5784", "\u578b", "\u5792", "\u579b", "\u57a3", "\u57a6", "\u57ae", "\u57c3", "\u57cb", "\u57ce", "\u57d4", "\u57d5", "\u57df", "\u57e0", "\u57f4", "\u57f7", "\u57f9", "\u57fa", "\u57fc", "\u5800", "\u5802", "\u5805", "\u5806", "\u5815", "\u5821", "\u5824", "\u582a", "\u582f", "\u5830", "\u5831", "\u5834", "\u5835", "\u583a", "\u5841", "\u584a", "\u584c", "\u5851", "\u5854", "\u5857", "\u5858", "\u585a", "\u585e", "\u5862", "\u5869", "\u586b", "\u5875", "\u587e", "\u5883", "\u5885", "\u5893", "\u5897", "\u5899", "\u589c", "\u589e", "\u589f", "\u58a8", "\u58a9", "\u58ae", "\u58b3", "\u58be", "\u58c1", "\u58c7", "\u58ca", "\u58cc", "\u58d3", "\u58d5", "\u58d8", "\u58de", "\u58df", "\u58e4", "\u58e9", "\u58eb", "\u58ec", "\u58ee", "\u58ef", "\u58f0", "\u58f1", "\u58f2", "\u58f3", "\u58f6", "\u58f9", "\u58fa", "\u58fd", "\u5904", "\u5907", "\u5909", "\u590d", "\u590f", "\u5915", "\u5916", "\u591a", "\u591c", "\u591f", "\u5920", "\u5922", "\u5925", "\u5927", "\u5929", "\u592a", "\u592b", "\u592d", "\u592e", "\u592f", "\u5931", "\u5934", "\u5937", "\u5938", "\u5939", "\u593a", "\u593e", "\u5944", "\u5947", "\u5948", "\u5949", "\u594b", "\u594e", "\u594f", "\u5951", "\u5954", "\u5955", "\u5956", "\u5957", "\u5958", "\u595a", "\u5960", "\u5962", "\u5965", "\u5967", "\u5968", "\u596a", "\u596d", "\u596e", "\u5973", "\u5974", "\u5976", "\u5978", "\u5979", "\u597d", "\u5982", "\u5983", "\u5984", "\u5986", "\u5987", "\u5988", "\u598a", "\u598d", "\u5992", "\u5993", "\u5996", "\u5999", "\u599d", "\u59a5", "\u59a8", "\u59ae", "\u59b9", "\u59bb", "\u59be", "\u59c6", "\u59c9", "\u59ca", "\u59cb", "\u59d0", "\u59d1", "\u59d3", "\u59d4", "\u59da", "\u59dc", "\u59e5", "\u59e6", "\u59e8", "\u59ea", "\u59eb", "\u59ec", "\u59fb", "\u59ff", "\u5a01", "\u5a03", "\u5a04", "\u5a05", "\u5a11", "\u5a18", "\u5a1b", "\u5a1c", "\u5a20", "\u5a25", "\u5a2f", "\u5a31", "\u5a36", "\u5a3c", "\u5a41", "\u5a46", "\u5a49", "\u5a55", "\u5a5a", "\u5a62", "\u5a66", "\u5a6d", "\u5a74", "\u5a77", "\u5a7f", "\u5a92", "\u5a9a", "\u5a9b", "\u5ab3", "\u5abd", "\u5ac1", "\u5ac2", "\u5ac9", "\u5acc", "\u5ad4", "\u5ae1", "\u5ae9", "\u5b09", "\u5b0c", "\u5b22", "\u5b2a", "\u5b30", "\u5b34", "\u5b40", "\u5b50", "\u5b54", "\u5b55", "\u5b57", "\u5b58", "\u5b59", "\u5b5a", "\u5b5b", "\u5b5c", "\u5b5d", "\u5b5f", "\u5b62", "\u5b63", "\u5b64", "\u5b66", "\u5b69", "\u5b6b", "\u5b78", "\u5b7a", "\u5b7d", "\u5b81", "\u5b83", "\u5b85", "\u5b87", "\u5b88", "\u5b89", "\u5b8b", "\u5b8c", "\u5b8f", "\u5b97", "\u5b98", "\u5b99", "\u5b9a", "\u5b9b", "\u5b9c", "\u5b9d", "\u5b9e", "\u5b9f", "\u5ba0", "\u5ba1", "\u5ba2", "\u5ba3", "\u5ba4", "\u5ba6", "\u5baa", "\u5bab", "\u5bae", "\u5bb0", "\u5bb3", "\u5bb4", "\u5bb5", "\u5bb6", "\u5bb8", "\u5bb9", "\u5bbd", "\u5bbe", "\u5bbf", "\u5bc2", "\u5bc4", "\u5bc5", "\u5bc6", "\u5bc7", "\u5bcc", "\u5bd2", "\u5bd3", "\u5bdb", "\u5bdd", "\u5bde", "\u5bdf", "\u5be1", "\u5be6", "\u5be7", "\u5be8", "\u5be9", "\u5beb", "\u5bec", "\u5bee", "\u5bf0", "\u5bf5", "\u5bf6", "\u5bf8", "\u5bf9", "\u5bfa", "\u5bfb", "\u5bfc", "\u5bfe", "\u5bff", "\u5c01", "\u5c02", "\u5c04", "\u5c06", "\u5c07", "\u5c08", "\u5c09", "\u5c0a", "\u5c0b", "\u5c0d", "\u5c0e", "\u5c0f", "\u5c11", "\u5c14", "\u5c16", "\u5c18", "\u5c1a", "\u5c1d", "\u5c24", "\u5c27", "\u5c31", "\u5c38", "\u5c39", "\u5c3a", "\u5c3b", "\u5c3c", "\u5c3d", "\u5c3e", "\u5c3f", "\u5c40", "\u5c41", "\u5c42", "\u5c45", "\u5c46", "\u5c48", "\u5c4a", "\u5c4b", "\u5c4d", "\u5c4f", "\u5c51", "\u5c55", "\u5c5e", "\u5c60", "\u5c61", "\u5c62", "\u5c64", "\u5c65", "\u5c6c", "\u5c6f", "\u5c71", "\u5c7f", "\u5c81", "\u5c82", "\u5c8c", "\u5c90", "\u5c91", "\u5c97", "\u5c9a", "\u5c9b", "\u5ca1", "\u5ca9", "\u5cac", "\u5cad", "\u5cb1", "\u5cb3", "\u5cb7", "\u5cb8", "\u5cd9", "\u5ce0", "\u5ce1", "\u5ce8", "\u5cea", "\u5ced", "\u5cef", "\u5cf0", "\u5cf6", "\u5cfb", "\u5cfd", "\u5d07", "\u5d0e", "\u5d11", "\u5d14", "\u5d16", "\u5d17", "\u5d19", "\u5d1b", "\u5d29", "\u5d4c", "\u5d50", "\u5d69", "\u5d6f", "\u5d8b", "\u5dba", "\u5dbc", "\u5dbd", "\u5dd6", "\u5ddd", "\u5dde", "\u5de1", "\u5de2", "\u5de3", "\u5de5", "\u5de6", "\u5de7", "\u5de8", "\u5de9", "\u5deb", "\u5dee", "\u5df1", "\u5df2", "\u5df3", "\u5df4", "\u5df7", "\u5dfb", "\u5dfd", "\u5dfe", "\u5e01", "\u5e02", "\u5e03", "\u5e05", "\u5e06", "\u5e08", "\u5e0c", "\u5e10", "\u5e15", "\u5e16", "\u5e1b", "\u5e1c", "\u5e1d", "\u5e25", "\u5e26", "\u5e2b", "\u5e2d", "\u5e2e", "\u5e2f", "\u5e30", "\u5e33", "\u5e36", "\u5e38", "\u5e3d", "\u5e42", "\u5e45", "\u5e4c", "\u5e55", "\u5e5f", "\u5e61", "\u5e62", "\u5e63", "\u5e6b", "\u5e72", "\u5e73", "\u5e74", "\u5e76", "\u5e78", "\u5e79", "\u5e7a", "\u5e7b", "\u5e7c", "\u5e7d", "\u5e7e", "\u5e7f", "\u5e81", "\u5e83", "\u5e84", "\u5e86", "\u5e87", "\u5e8a", "\u5e8f", "\u5e90", "\u5e93", "\u5e94", "\u5e95", "\u5e97", "\u5e99", "\u5e9a", "\u5e9c", "\u5e9e", "\u5e9f", "\u5ea6", "\u5ea7", "\u5eab", "\u5ead", "\u5eb5", "\u5eb6", "\u5eb7", "\u5eb8", "\u5ec2", "\u5ec3", "\u5ec8", "\u5ec9", "\u5eca", "\u5ed3", "\u5ed6", "\u5eda", "\u5edf", "\u5ee0", "\u5ee2", "\u5ee3", "\u5eec", "\u5ef3", "\u5ef6", "\u5ef7", "\u5efa", "\u5efb", "\u5eff", "\u5f00", "\u5f01", "\u5f02", "\u5f03", "\u5f04", "\u5f08", "\u5f0a", "\u5f0f", "\u5f12", "\u5f13", "\u5f14", "\u5f15", "\u5f17", "\u5f18", "\u5f1b", "\u5f1f", "\u5f20", "\u5f25", "\u5f26", "\u5f27", "\u5f29", "\u5f2f", "\u5f31", "\u5f35", "\u5f37", "\u5f39", "\u5f3a", "\u5f3c", "\u5f3e", "\u5f48", "\u5f4c", "\u5f4e", "\u5f52", "\u5f53", "\u5f55", "\u5f57", "\u5f59", "\u5f5d", "\u5f62", "\u5f64", "\u5f65", "\u5f66", "\u5f67", "\u5f69", "\u5f6a", "\u5f6b", "\u5f6c", "\u5f6d", "\u5f70", "\u5f71", "\u5f77", "\u5f79", "\u5f7b", "\u5f7c", "\u5f80", "\u5f81", "\u5f84", "\u5f85", "\u5f88", "\u5f8b", "\u5f8c", "\u5f90", "\u5f91", "\u5f92", "\u5f93", "\u5f97", "\u5f99", "\u5f9e", "\u5fa1", "\u5fa9", "\u5faa", "\u5fae", "\u5fb3", "\u5fb4", "\u5fb5", "\u5fb7", "\u5fb9", "\u5fbd", "\u5fc3", "\u5fc5", "\u5fc6", "\u5fcc", "\u5fcd", "\u5fd2", "\u5fd7", "\u5fd8", "\u5fd9", "\u5fdc", "\u5fe0", "\u5fe7", "\u5feb", "\u5ff5", "\u5ffb", "\u5ffd", "\u6000", "\u6001", "\u600e", "\u6012", "\u6015", "\u6016", "\u601c", "\u601d", "\u6020", "\u6021", "\u6025", "\u6027", "\u6028", "\u602a", "\u602f", "\u603b", "\u6043", "\u6046", "\u604b", "\u6050", "\u6052", "\u6055", "\u6062", "\u6064", "\u6065", "\u6068", "\u6069", "\u606a", "\u606c", "\u606d", "\u606f", "\u6070", "\u6075", "\u6076", "\u6084", "\u6085", "\u6089", "\u608c", "\u608d", "\u6094", "\u6096", "\u609f", "\u60a0", "\u60a3", "\u60a6", "\u60a8", "\u60a9", "\u60aa", "\u60ac", "\u60b2", "\u60b6", "\u60bc", "\u60c5", "\u60c7", "\u60ca", "\u60d1", "\u60d5", "\u60dc", "\u60df", "\u60e0", "\u60e1", "\u60e3", "\u60e7", "\u60e8", "\u60e9", "\u60ef", "\u60f0", "\u60f1", "\u60f3", "\u60f9", "\u6101", "\u6108", "\u6109", "\u610d", "\u610f", "\u611a", "\u611b", "\u611f", "\u6124", "\u6127", "\u613f", "\u6148", "\u614b", "\u614c", "\u614e", "\u6155", "\u6158", "\u6162", "\u6163", "\u6167", "\u6168", "\u616e", "\u6170", "\u6176", "\u617e", "\u6182", "\u618e", "\u6190", "\u6191", "\u61a4", "\u61a7", "\u61a9", "\u61b2", "\u61b6", "\u61be", "\u61c2", "\u61c7", "\u61c8", "\u61c9", "\u61cb", "\u61d0", "\u61f2", "\u61f7", "\u61f8", "\u61fc", "\u61ff", "\u6200", "\u6208", "\u620a", "\u620c", "\u620d", "\u620e", "\u620f", "\u6210", "\u6211", "\u6212", "\u6216", "\u6218", "\u621a", "\u621b", "\u6221", "\u6226", "\u622a", "\u622e", "\u622f", "\u6230", "\u6232", "\u6234", "\u6236", "\u6237", "\u6238", "\u623b", "\u623f", "\u6240", "\u6241", "\u6247", "\u6248", "\u6249", "\u624b", "\u624d", "\u624e", "\u6251", "\u6253", "\u6254", "\u6255", "\u6258", "\u6263", "\u6267", "\u6269", "\u626b", "\u626c", "\u626d", "\u626e", "\u626f", "\u6270", "\u6271", "\u6276", "\u6279", "\u627c", "\u627e", "\u627f", "\u6280", "\u6284", "\u6289", "\u628a", "\u6291", "\u6292", "\u6293", "\u6295", "\u6296", "\u6297", "\u6298", "\u629a", "\u629b", "\u629c", "\u629e", "\u62a2", "\u62a4", "\u62a5", "\u62a8", "\u62ab", "\u62ac", "\u62b1", "\u62b5", "\u62b9", "\u62bc", "\u62bd", "\u62c2", "\u62c5", "\u62c6", "\u62c9", "\u62cb", "\u62cc", "\u62cd", "\u62d0", "\u62d2", "\u62d3", "\u62d4", "\u62d6", "\u62d8", "\u62d9", "\u62db", "\u62dc", "\u62dd", "\u62df", "\u62e0", "\u62e1", "\u62e2", "\u62e5", "\u62e6", "\u62e8", "\u62e9", "\u62ec", "\u62ee", "\u62ef", "\u62f1", "\u62f3", "\u62f6", "\u62f7", "\u62fc", "\u62fd", "\u62fe", "\u62ff", "\u6301", "\u6302", "\u6307", "\u6309", "\u6311", "\u6316", "\u6319", "\u631d", "\u631f", "\u6321", "\u6324", "\u6325", "\u6328", "\u632a", "\u632b", "\u632f", "\u633a", "\u633d", "\u633e", "\u633f", "\u6346", "\u6349", "\u634d", "\u634f", "\u6350", "\u6355", "\u635c", "\u635e", "\u635f", "\u6362", "\u6367", "\u6368", "\u636e", "\u6372", "\u6377", "\u637b", "\u6380", "\u6383", "\u6388", "\u6389", "\u638c", "\u6392", "\u6398", "\u639b", "\u639f", "\u63a0", "\u63a1", "\u63a2", "\u63a5", "\u63a7", "\u63a8", "\u63a9", "\u63aa", "\u63b2", "\u63b4", "\u63b7", "\u63c3", "\u63c4", "\u63c6", "\u63c9", "\u63cf", "\u63d0", "\u63d2", "\u63da", "\u63db", "\u63e1", "\u63ed", "\u63ee", "\u63f4", "\u63f6", "\u63fa", "\u63fd", "\u6401", "\u640d", "\u640f", "\u6416", "\u641c", "\u641e", "\u642c", "\u642d", "\u6436", "\u643a", "\u643e", "\u6442", "\u6444", "\u6446", "\u6447", "\u644a", "\u6454", "\u6458", "\u6467", "\u6469", "\u646f", "\u6478", "\u647a", "\u647b", "\u6483", "\u6490", "\u6491", "\u6492", "\u6495", "\u649e", "\u64a4", "\u64a5", "\u64ab", "\u64ad", "\u64ae", "\u64b0", "\u64b2", "\u64bc", "\u64c1", "\u64c4", "\u64c5", "\u64c7", "\u64ca", "\u64cb", "\u64cd", "\u64ce", "\u64d2", "\u64d4", "\u64da", "\u64e0", "\u64e2", "\u64e6", "\u64ec", "\u64f2", "\u64f4", "\u64fa", "\u64fe", "\u6500", "\u650f", "\u6514", "\u6518", "\u651c", "\u651d", "\u6523", "\u652a", "\u652c", "\u652f", "\u6536", "\u6538", "\u6539", "\u653b", "\u653e", "\u653f", "\u6545", "\u6548", "\u654c", "\u654f", "\u6551", "\u6555", "\u6556", "\u6557", "\u6558", "\u6559", "\u655b", "\u6562", "\u6563", "\u6566", "\u656c", "\u6570", "\u6572", "\u6574", "\u6575", "\u6577", "\u6578", "\u6583", "\u6587", "\u6589", "\u658b", "\u658c", "\u658e", "\u6590", "\u6591", "\u6597", "\u6599", "\u659c", "\u65a1", "\u65a4", "\u65a5", "\u65a7", "\u65a9", "\u65ac", "\u65ad", "\u65af", "\u65b0", "\u65b7", "\u65b9", "\u65bc", "\u65bd", "\u65c1", "\u65c5", "\u65cb", "\u65cf", "\u65d7", "\u65e0", "\u65e2", "\u65e5", "\u65e6", "\u65e7", "\u65e8", "\u65e9", "\u65ec", "\u65ed", "\u65f1", "\u65f6", "\u65fa", "\u65fb", "\u6600", "\u6602", "\u6606", "\u6607", "\u660a", "\u660c", "\u660e", "\u660f", "\u6613", "\u6614", "\u6615", "\u661f", "\u6620", "\u6625", "\u6627", "\u6628", "\u662d", "\u662f", "\u6630", "\u6631", "\u6636", "\u663c", "\u663e", "\u6642", "\u6643", "\u6649", "\u664b", "\u664f", "\u6652", "\u6653", "\u6656", "\u665a", "\u665d", "\u665f", "\u6664", "\u6666", "\u6668", "\u6669", "\u666e", "\u666f", "\u6670", "\u6674", "\u6676", "\u667a", "\u6681", "\u6682", "\u6687", "\u6688", "\u6689", "\u6691", "\u6696", "\u6697", "\u66a2", "\u66a6", "\u66a8", "\u66ab", "\u66ae", "\u66b4", "\u66b9", "\u66c6", "\u66c7", "\u66c9", "\u66d6", "\u66d9", "\u66dc", "\u66dd", "\u66e6", "\u66f0", "\u66f2", "\u66f3", "\u66f4", "\u66f8", "\u66f9", "\u66fc", "\u66fd", "\u66fe", "\u66ff", "\u6700", "\u6703", "\u6708", "\u6709", "\u670b", "\u670d", "\u6714", "\u6715", "\u6717", "\u671b", "\u671d", "\u671f", "\u6728", "\u672a", "\u672b", "\u672c", "\u672d", "\u672e", "\u672f", "\u6731", "\u6734", "\u6735", "\u673a", "\u673d", "\u6740", "\u6742", "\u6743", "\u6746", "\u6749", "\u674e", "\u674f", "\u6750", "\u6751", "\u6756", "\u675c", "\u675e", "\u675f", "\u6761", "\u6765", "\u6768", "\u676d", "\u676f", "\u6770", "\u6771", "\u6772", "\u6775", "\u677e", "\u677f", "\u6781", "\u6784", "\u6790", "\u6795", "\u6797", "\u679a", "\u679c", "\u679d", "\u67a0", "\u67a2", "\u67a3", "\u67aa", "\u67ab", "\u67af", "\u67b6", "\u67c4", "\u67cf", "\u67d0", "\u67d1", "\u67d3", "\u67d4", "\u67da", "\u67e5", "\u67e9", "\u67ec", "\u67ef", "\u67f1", "\u67f3", "\u67f4", "\u67f5", "\u67fb", "\u67ff", "\u6803", "\u6804", "\u6807", "\u6808", "\u680b", "\u680f", "\u6811", "\u6813", "\u6816", "\u6817", "\u681e", "\u6821", "\u682a", "\u6837", "\u6838", "\u6839", "\u683c", "\u683d", "\u6840", "\u6841", "\u6842", "\u6843", "\u6845", "\u6846", "\u6848", "\u684c", "\u6850", "\u6851", "\u6853", "\u685c", "\u6863", "\u6865", "\u6876", "\u687f", "\u6881", "\u6885", "\u6886", "\u6893", "\u6897", "\u689d", "\u68a6", "\u68a7", "\u68a8", "\u68ad", "\u68af", "\u68b0", "\u68b1", "\u68b5", "\u68b6", "\u68c0", "\u68c4", "\u68c9", "\u68cb", "\u68cd", "\u68d2", "\u68d5", "\u68d7", "\u68d8", "\u68da", "\u68df", "\u68e0", "\u68e3", "\u68ee", "\u68f1", "\u68f2", "\u68f5", "\u68fa", "\u6905", "\u690d", "\u690e", "\u6912", "\u691c", "\u692d", "\u6930", "\u693f", "\u694a", "\u6953", "\u6954", "\u695a", "\u695e", "\u6960", "\u6968", "\u696d", "\u6973", "\u6975", "\u6977", "\u697c", "\u697d", "\u6982", "\u6984", "\u6986", "\u698a", "\u698e", "\u6994", "\u6995", "\u699b", "\u699c", "\u69ae", "\u69b4", "\u69c3", "\u69cb", "\u69cc", "\u69cd", "\u69d0", "\u69d8", "\u69df", "\u69fb", "\u69fd", "\u6a02", "\u6a0a", "\u6a0b", "\u6a11", "\u6a13", "\u6a19", "\u6a1e", "\u6a1f", "\u6a21", "\u6a23", "\u6a29", "\u6a2a", "\u6a2b", "\u6a31", "\u6a35", "\u6a38", "\u6a39", "\u6a3a", "\u6a3d", "\u6a44", "\u6a4b", "\u6a58", "\u6a59", "\u6a5f", "\u6a61", "\u6a62", "\u6a6b", "\u6a80", "\u6a8e", "\u6a90", "\u6a94", "\u6a9c", "\u6aa2", "\u6ab3", "\u6abb", "\u6ac3", "\u6afb", "\u6b04", "\u6b0a", "\u6b16", "\u6b20", "\u6b21", "\u6b22", "\u6b23", "\u6b27", "\u6b32", "\u6b3a", "\u6b3d", "\u6b3e", "\u6b46", "\u6b47", "\u6b49", "\u6b4c", "\u6b50", "\u6b53", "\u6b61", "\u6b62", "\u6b63", "\u6b64", "\u6b65", "\u6b66", "\u6b67", "\u6b69", "\u6b6a", "\u6b6f", "\u6b72", "\u6b73", "\u6b74", "\u6b77", "\u6b78", "\u6b7b", "\u6b7c", "\u6b86", "\u6b87", "\u6b89", "\u6b8a", "\u6b8b", "\u6b96", "\u6b98", "\u6bb2", "\u6bb4", "\u6bb5", "\u6bb7", "\u6bba", "\u6bbb", "\u6bbc", "\u6bbf", "\u6bc0", "\u6bc1", "\u6bc5", "\u6bc6", "\u6bcb", "\u6bcd", "\u6bce", "\u6bcf", "\u6bd2", "\u6bd3", "\u6bd4", "\u6bd5", "\u6bd7", "\u6bd8", "\u6bd9", "\u6bdb", "\u6beb", "\u6bef", "\u6c0f", "\u6c11", "\u6c13", "\u6c14", "\u6c16", "\u6c17", "\u6c19", "\u6c1b", "\u6c1f", "\u6c21", "\u6c22", "\u6c23", "\u6c26", "\u6c27", "\u6c28", "\u6c29", "\u6c2a", "\u6c2b", "\u6c2e", "\u6c2f", "\u6c30", "\u6c34", "\u6c37", "\u6c38", "\u6c3e", "\u6c40", "\u6c41", "\u6c42", "\u6c47", "\u6c49", "\u6c4e", "\u6c50", "\u6c55", "\u6c57", "\u6c59", "\u6c5a", "\u6c5b", "\u6c5d", "\u6c5e", "\u6c5f", "\u6c60", "\u6c61", "\u6c64", "\u6c68", "\u6c6a", "\u6c70", "\u6c72", "\u6c74", "\u6c76", "\u6c7a", "\u6c7d", "\u6c7e", "\u6c81", "\u6c82", "\u6c83", "\u6c85", "\u6c88", "\u6c89", "\u6c8c", "\u6c90", "\u6c92", "\u6c96", "\u6c99", "\u6c9b", "\u6c9f", "\u6ca1", "\u6ca2", "\u6ca6", "\u6ca7", "\u6caa", "\u6cab", "\u6cae", "\u6cb1", "\u6cb3", "\u6cb8", "\u6cb9", "\u6cbb", "\u6cbc", "\u6cbd", "\u6cbe", "\u6cbf", "\u6cc1", "\u6cc4", "\u6cc9", "\u6cca", "\u6ccc", "\u6cd5", "\u6cd7", "\u6cdb", "\u6ce1", "\u6ce2", "\u6ce3", "\u6ce5", "\u6ce8", "\u6cea", "\u6cf0", "\u6cf3", "\u6cf8", "\u6cfb", "\u6cfc", "\u6cfd", "\u6d01", "\u6d0b", "\u6d17", "\u6d19", "\u6d1b", "\u6d1e", "\u6d25", "\u6d29", "\u6d2a", "\u6d2e", "\u6d31", "\u6d32", "\u6d35", "\u6d3b", "\u6d3c", "\u6d3d", "\u6d3e", "\u6d41", "\u6d44", "\u6d45", "\u6d46", "\u6d4a", "\u6d4b", "\u6d4e", "\u6d4f", "\u6d51", "\u6d52", "\u6d53", "\u6d59", "\u6d5a", "\u6d5c", "\u6d66", "\u6d69", "\u6d6a", "\u6d6e", "\u6d74", "\u6d77", "\u6d78", "\u6d82", "\u6d85", "\u6d87", "\u6d88", "\u6d89", "\u6d8c", "\u6d99", "\u6d9b", "\u6d9d", "\u6da1", "\u6da6", "\u6da8", "\u6daf", "\u6db2", "\u6db5", "\u6dbc", "\u6dbf", "\u6dc0", "\u6dc6", "\u6dc7", "\u6dcb", "\u6dd1", "\u6dd8", "\u6dda", "\u6dde", "\u6de1", "\u6de4", "\u6de6", "\u6de8", "\u6dea", "\u6deb", "\u6dee", "\u6df1", "\u6df3", "\u6df5", "\u6df7", "\u6df9", "\u6dfa", "\u6dfb", "\u6e05", "\u6e07", "\u6e08", "\u6e09", "\u6e0a", "\u6e0b", "\u6e10", "\u6e13", "\u6e14", "\u6e15", "\u6e17", "\u6e1a", "\u6e1b", "\u6e1d", "\u6e20", "\u6e21", "\u6e23", "\u6e24", "\u6e25", "\u6e26", "\u6e29", "\u6e2c", "\u6e2d", "\u6e2f", "\u6e32", "\u6e34", "\u6e38", "\u6e3e", "\u6e4a", "\u6e56", "\u6e58", "\u6e5b", "\u6e67", "\u6e6f", "\u6e7e", "\u6e7f", "\u6e80", "\u6e83", "\u6e89", "\u6e90", "\u6e96", "\u6e9c", "\u6e9d", "\u6ea2", "\u6ea5", "\u6eaa", "\u6eab", "\u6eaf", "\u6eb4", "\u6eb6", "\u6eba", "\u6ec1", "\u6ec4", "\u6ec5", "\u6ec7", "\u6ecb", "\u6ed1", "\u6ed4", "\u6ed5", "\u6eda", "\u6edd", "\u6ede", "\u6ee1", "\u6ee4", "\u6ee5", "\u6ee6", "\u6ee8", "\u6ee9", "\u6eec", "\u6eef", "\u6ef2", "\u6ef4", "\u6ef8", "\u6efe", "\u6eff", "\u6f01", "\u6f02", "\u6f06", "\u6f0f", "\u6f14", "\u6f15", "\u6f20", "\u6f22", "\u6f2b", "\u6f2c", "\u6f2f", "\u6f31", "\u6f32", "\u6f33", "\u6f38", "\u6f3f", "\u6f51", "\u6f54", "\u6f58", "\u6f5b", "\u6f5c", "\u6f5f", "\u6f62", "\u6f64", "\u6f6d", "\u6f6e", "\u6f70", "\u6f7c", "\u6f84", "\u6f8e", "\u6f9c", "\u6fa4", "\u6fa7", "\u6fb3", "\u6fc0", "\u6fc1", "\u6fc3", "\u6fd2", "\u6fd5", "\u6fdf", "\u6fe0", "\u6fe1", "\u6fe4", "\u6feb", "\u6fec", "\u6fee", "\u6fef", "\u6ff1", "\u6ffe", "\u700b", "\u700f", "\u7011", "\u7015", "\u701b", "\u7027", "\u7028", "\u702c", "\u703e", "\u704c", "\u7058", "\u7063", "\u706b", "\u706d", "\u706f", "\u7070", "\u7075", "\u7076", "\u7078", "\u707c", "\u707d", "\u707e", "\u7080", "\u7086", "\u7089", "\u708a", "\u708e", "\u7092", "\u70ab", "\u70ac", "\u70ad", "\u70ae", "\u70af", "\u70b3", "\u70b8", "\u70b9", "\u70ba", "\u70bc", "\u70c2", "\u70c8", "\u70cf", "\u70df", "\u70e4", "\u70e6", "\u70e7", "\u70e8", "\u70ed", "\u70ef", "\u70f7", "\u70f9", "\u70fd", "\u7109", "\u710a", "\u7115", "\u711a", "\u7121", "\u7126", "\u7130", "\u7136", "\u713c", "\u7149", "\u714c", "\u714e", "\u7155", "\u7159", "\u715c", "\u715e", "\u7164", "\u7165", "\u7167", "\u7169", "\u716c", "\u716e", "\u717d", "\u718a", "\u718f", "\u7192", "\u7194", "\u7199", "\u719f", "\u71b1", "\u71b5", "\u71b9", "\u71be", "\u71c3", "\u71c8", "\u71d2", "\u71d5", "\u71df", "\u71e5", "\u71e6", "\u71e7", "\u71ed", "\u71ee", "\u7206", "\u7210", "\u721b", "\u722a", "\u722c", "\u722d", "\u7231", "\u7232", "\u7235", "\u7236", "\u7237", "\u7238", "\u723a", "\u723b", "\u723d", "\u723e", "\u7246", "\u7247", "\u7248", "\u724c", "\u7252", "\u7259", "\u725b", "\u725f", "\u7260", "\u7261", "\u7262", "\u7267", "\u7269", "\u7272", "\u7275", "\u7279", "\u727a", "\u727d", "\u7280", "\u7281", "\u72a0", "\u72a7", "\u72ac", "\u72af", "\u72b6", "\u72b9", "\u72c0", "\u72c2", "\u72c4", "\u72d0", "\u72d7", "\u72d9", "\u72e1", "\u72e9", "\u72ec", "\u72ed", "\u72ee", "\u72f1", "\u72f8", "\u72f9", "\u72fc", "\u730e", "\u731b", "\u731c", "\u731f", "\u7325", "\u7329", "\u732a", "\u732b", "\u732e", "\u7334", "\u7336", "\u7337", "\u733f", "\u7344", "\u7345", "\u734e", "\u7360", "\u7363", "\u7368", "\u7372", "\u7375", "\u7378", "\u737b", "\u7384", "\u7387", "\u7389", "\u738b", "\u7396", "\u739b", "\u73a9", "\u73ab", "\u73af", "\u73b0", "\u73b2", "\u73ba", "\u73bb", "\u73c0", "\u73c2", "\u73c9", "\u73ca", "\u73cd", "\u73d9", "\u73e0", "\u73ea", "\u73ed", "\u73ee", "\u73f2", "\u73fe", "\u7403", "\u7405", "\u7406", "\u7409", "\u741b", "\u7422", "\u7425", "\u7426", "\u742a", "\u7430", "\u7433", "\u7434", "\u7435", "\u7436", "\u743c", "\u7455", "\u7459", "\u745a", "\u745b", "\u745c", "\u745e", "\u745f", "\u7460", "\u7463", "\u7464", "\u7469", "\u746a", "\u746d", "\u7470", "\u7476", "\u747e", "\u7483", "\u7487", "\u748b", "\u749e", "\u749f", "\u74a7", "\u74b0", "\u74bd", "\u74ca", "\u74dc", "\u74e6", "\u74ef", "\u74f6", "\u74f7", "\u7504", "\u750c", "\u7518", "\u751a", "\u751c", "\u751f", "\u7522", "\u7523", "\u7525", "\u7526", "\u7528", "\u752b", "\u752c", "\u7530", "\u7531", "\u7532", "\u7533", "\u7535", "\u7537", "\u7538", "\u753a", "\u753b", "\u7545", "\u754c", "\u754f", "\u7551", "\u7554", "\u7559", "\u755c", "\u755d", "\u7560", "\u7562", "\u7565", "\u756a", "\u756b", "\u7570", "\u7572", "\u7573", "\u7574", "\u7576", "\u757f", "\u7586", "\u7587", "\u758a", "\u758e", "\u758f", "\u7591", "\u7597", "\u75ab", "\u75af", "\u75b2", "\u75b9", "\u75bc", "\u75be", "\u75c5", "\u75c7", "\u75d5", "\u75d8", "\u75db", "\u75ea", "\u75f4", "\u75fa", "\u760b", "\u760d", "\u7613", "\u761f", "\u7624", "\u7626", "\u762b", "\u7642", "\u764c", "\u7652", "\u7656", "\u7671", "\u7678", "\u767a", "\u767b", "\u767c", "\u767d", "\u767e", "\u7684", "\u7686", "\u7687", "\u7688", "\u768b", "\u7693", "\u7696", "\u76ae", "\u76bf", "\u76c3", "\u76c6", "\u76c8", "\u76ca", "\u76ce", "\u76d0", "\u76d1", "\u76d2", "\u76d4", "\u76d6", "\u76d7", "\u76d8", "\u76db", "\u76dc", "\u76df", "\u76e1", "\u76e3", "\u76e4", "\u76e7", "\u76ea", "\u76ee", "\u76f2", "\u76f4", "\u76f8", "\u76fc", "\u76fe", "\u7701", "\u7709", "\u770b", "\u770c", "\u771e", "\u771f", "\u7720", "\u7737", "\u773a", "\u773c", "\u773e", "\u7740", "\u775b", "\u7761", "\u7763", "\u7766", "\u7779", "\u777f", "\u7784", "\u778e", "\u7791", "\u7792", "\u779e", "\u77ac", "\u77ad", "\u77b3", "\u77bb", "\u77bf", "\u77da", "\u77db", "\u77e2", "\u77e3", "\u77e5", "\u77e9", "\u77ed", "\u77ee", "\u77ef", "\u77f3", "\u77f6", "\u77fd", "\u77ff", "\u7801", "\u7802", "\u780c", "\u780d", "\u7814", "\u7815", "\u7816", "\u781a", "\u7825", "\u7832", "\u7834", "\u7835", "\u7838", "\u7840", "\u7845", "\u7855", "\u785d", "\u786b", "\u786c", "\u786e", "\u787c", "\u7881", "\u788d", "\u788e", "\u7891", "\u7897", "\u7898", "\u789f", "\u78a7", "\u78a9", "\u78b0", "\u78b1", "\u78b3", "\u78ba", "\u78bc", "\u78c1", "\u78c5", "\u78ca", "\u78cb", "\u78d0", "\u78da", "\u78e1", "\u78e8", "\u78ef", "\u78f7", "\u78fa", "\u7901", "\u790e", "\u7919", "\u7926", "\u792b", "\u793a", "\u793c", "\u793e", "\u7940", "\u7941", "\u7947", "\u7948", "\u7949", "\u7950", "\u7955", "\u7956", "\u795a", "\u795c", "\u795d", "\u795e", "\u7960", "\u7965", "\u7968", "\u796d", "\u796f", "\u7977", "\u7978", "\u797a", "\u797f", "\u7980", "\u7981", "\u7984", "\u7985", "\u798d", "\u798e", "\u798f", "\u79a6", "\u79a7", "\u79aa", "\u79ae", "\u79b1", "\u79b9", "\u79ba", "\u79bb", "\u79bd", "\u79be", "\u79bf", "\u79c0", "\u79c1", "\u79c9", "\u79cb", "\u79cd", "\u79d1", "\u79d2", "\u79d8", "\u79df", "\u79e6", "\u79e9", "\u79ef", "\u79f0", "\u79fb", "\u7a00", "\u7a05", "\u7a0b", "\u7a0d", "\u7a0e", "\u7a14", "\u7a17", "\u7a1a", "\u7a1c", "\u7a20", "\u7a23", "\u7a2e", "\u7a31", "\u7a32", "\u7a33", "\u7a37", "\u7a3b", "\u7a3c", "\u7a3d", "\u7a3f", "\u7a40", "\u7a42", "\u7a46", "\u7a4c", "\u7a4d", "\u7a4e", "\u7a4f", "\u7a57", "\u7a63", "\u7a69", "\u7a6b", "\u7a74", "\u7a76", "\u7a77", "\u7a79", "\u7a7a", "\u7a7f", "\u7a81", "\u7a83", "\u7a84", "\u7a91", "\u7a92", "\u7a93", "\u7a97", "\u7a9d", "\u7a9f", "\u7aa6", "\u7aa9", "\u7aaa", "\u7aae", "\u7aaf", "\u7aba", "\u7ac4", "\u7ac7", "\u7aca", "\u7acb", "\u7ad6", "\u7ad9", "\u7adc", "\u7ade", "\u7adf", "\u7ae0", "\u7ae3", "\u7ae5", "\u7aed", "\u7aef", "\u7af6", "\u7af9", "\u7afa", "\u7aff", "\u7b03", "\u7b08", "\u7b11", "\u7b14", "\u7b19", "\u7b1b", "\u7b20", "\u7b26", "\u7b28", "\u7b2c", "\u7b39", "\u7b3c", "\u7b46", "\u7b49", "\u7b4b", "\u7b50", "\u7b51", "\u7b52", "\u7b54", "\u7b56", "\u7b5b", "\u7b60", "\u7b6e", "\u7b79", "\u7b7e", "\u7b80", "\u7b87", "\u7b95", "\u7b97", "\u7ba1", "\u7bad", "\u7bb1", "\u7bc0", "\u7bc4", "\u7bc6", "\u7bc7", "\u7bc9", "\u7be0", "\u7be1", "\u7be4", "\u7be9", "\u7bee", "\u7c07", "\u7c21", "\u7c27", "\u7c3d", "\u7c3e", "\u7c3f", "\u7c43", "\u7c4c", "\u7c4d", "\u7c60", "\u7c64", "\u7c72", "\u7c73", "\u7c7b", "\u7c89", "\u7c8b", "\u7c92", "\u7c97", "\u7c98", "\u7c9b", "\u7c9f", "\u7ca4", "\u7ca5", "\u7ca7", "\u7cae", "\u7cb1", "\u7cb2", "\u7cb5", "\u7cb9", "\u7cbe", "\u7cca", "\u7cd5", "\u7cd6", "\u7cd9", "\u7cdf", "\u7ce7", "\u7cef", "\u7cf8", "\u7cfb", "\u7cfe", "\u7d00", "\u7d02", "\u7d04", "\u7d05", "\u7d0b", "\u7d0d", "\u7d10", "\u7d14", "\u7d17", "\u7d18", "\u7d19", "\u7d1a", "\u7d1b", "\u7d20", "\u7d21", "\u7d22", "\u7d27", "\u7d2b", "\u7d2e", "\u7d2f", "\u7d30", "\u7d33", "\u7d39", "\u7d3a", "\u7d42", "\u7d43", "\u7d44", "\u7d46", "\u7d4c", "\u7d50", "\u7d55", "\u7d5e", "\u7d61", "\u7d62", "\u7d66", "\u7d6e", "\u7d71", "\u7d72", "\u7d75", "\u7d76", "\u7d79", "\u7d81", "\u7d8f", "\u7d93", "\u7d99", "\u7d9a", "\u7d9c", "\u7da0", "\u7da2", "\u7dab", "\u7dac", "\u7dad", "\u7db1", "\u7db2", "\u7db4", "\u7dba", "\u7dbb", "\u7dbd", "\u7dbe", "\u7dbf", "\u7dca", "\u7dcf", "\u7dd1", "\u7dd2", "\u7dda", "\u7ddd", "\u7de0", "\u7de3", "\u7de8", "\u7de9", "\u7dec", "\u7def", "\u7df4", "\u7dfb", "\u7e01", "\u7e04", "\u7e0a", "\u7e1b", "\u7e1e", "\u7e23", "\u7e26", "\u7e2b", "\u7e2e", "\u7e31", "\u7e3d", "\u7e3e", "\u7e41", "\u7e46", "\u7e4a", "\u7e4b", "\u7e54", "\u7e55", "\u7e5e", "\u7e61", "\u7e69", "\u7e6a", "\u7e6b", "\u7e70", "\u7e73", "\u7e79", "\u7e7c", "\u7e82", "\u7e8c", "\u7e8f", "\u7e96", "\u7e9c", "\u7ea0", "\u7ea2", "\u7ea4", "\u7ea6", "\u7ea7", "\u7eaa", "\u7eac", "\u7eaf", "\u7eb2", "\u7eb3", "\u7eb5", "\u7eb7", "\u7eb8", "\u7eb9", "\u7eba", "\u7ebd", "\u7ebf", "\u7ec3", "\u7ec4", "\u7ec5", "\u7ec6", "\u7ec7", "\u7ec8", "\u7ecd", "\u7ece", "\u7ecf", "\u7ed1", "\u7ed2", "\u7ed3", "\u7ed5", "\u7ed8", "\u7ed9", "\u7edc", "\u7edd", "\u7ede", "\u7edf", "\u7ee3", "\u7ee5", "\u7ee7", "\u7ee9", "\u7eea", "\u7eed", "\u7ef0", "\u7ef3", "\u7ef4", "\u7ef5", "\u7ef8", "\u7efc", "\u7eff", "\u7f00", "\u7f05", "\u7f06", "\u7f09", "\u7f13", "\u7f14", "\u7f16", "\u7f18", "\u7f1a", "\u7f1d", "\u7f20", "\u7f22", "\u7f29", "\u7f2a", "\u7f2e", "\u7f34", "\u7f36", "\u7f38", "\u7f3a", "\u7f50", "\u7f51", "\u7f54", "\u7f55", "\u7f57", "\u7f5a", "\u7f60", "\u7f62", "\u7f69", "\u7f6a", "\u7f6e", "\u7f70", "\u7f72", "\u7f75", "\u7f77", "\u7f79", "\u7f85", "\u7f88", "\u7f8a", "\u7f8c", "\u7f8e", "\u7f9e", "\u7fa4", "\u7fa8", "\u7fa9", "\u7faf", "\u7fb2", "\u7fbd", "\u7fc1", "\u7fc5", "\u7fca", "\u7fcc", "\u7fd2", "\u7fd4", "\u7fdf", "\u7fe0", "\u7fe1", "\u7fe6", "\u7ff0", "\u7ffb", "\u7ffc", "\u8000", "\u8001", "\u8003", "\u8005", "\u8006", "\u800c", "\u800d", "\u8010", "\u8012", "\u8015", "\u8017", "\u8026", "\u8033", "\u8036", "\u803b", "\u803d", "\u803f", "\u8042", "\u8046", "\u804a", "\u804c", "\u8054", "\u8056", "\u8058", "\u805a", "\u805e", "\u8061", "\u806a", "\u806f", "\u8070", "\u8072", "\u8074", "\u8076", "\u8077", "\u807d", "\u8083", "\u8085", "\u8086", "\u8087", "\u8089", "\u808b", "\u808c", "\u8096", "\u8098", "\u809a", "\u809b", "\u809d", "\u80a0", "\u80a1", "\u80a2", "\u80a4", "\u80a5", "\u80a9", "\u80aa", "\u80af", "\u80b2", "\u80b4", "\u80ba", "\u80bd", "\u80bf", "\u80c0", "\u80c1", "\u80c3", "\u80c6", "\u80cc", "\u80ce", "\u80d6", "\u80da", "\u80dc", "\u80de", "\u80e1", "\u80e4", "\u80e5", "\u80f0", "\u80f4", "\u80f6", "\u80f8", "\u80fa", "\u80fd", "\u8102", "\u8105", "\u8106", "\u8107", "\u8108", "\u8109", "\u810a", "\u810f", "\u8111", "\u811a", "\u8129", "\u812b", "\u8131", "\u8133", "\u8138", "\u8139", "\u813e", "\u814a", "\u814e", "\u8150", "\u8153", "\u8154", "\u8155", "\u8165", "\u8166", "\u816b", "\u816d", "\u8170", "\u8173", "\u8178", "\u8179", "\u817a", "\u817b", "\u817e", "\u817f", "\u8180", "\u818f", "\u819a", "\u819c", "\u819d", "\u81a0", "\u81a8", "\u81a9", "\u81b3", "\u81ba", "\u81bd", "\u81c2", "\u81c9", "\u81d3", "\u81d8", "\u81df", "\u81e3", "\u81e5", "\u81e7", "\u81e8", "\u81ea", "\u81ed", "\u81f3", "\u81f4", "\u81fa", "\u81fb", "\u81fc", "\u8205", "\u8206", "\u8207", "\u8208", "\u8209", "\u820a", "\u820c", "\u820d", "\u820e", "\u8212", "\u8217", "\u8218", "\u821c", "\u821e", "\u821f", "\u822a", "\u822c", "\u8230", "\u8231", "\u8235", "\u8236", "\u8239", "\u8247", "\u8258", "\u8259", "\u8266", "\u826e", "\u826f", "\u8270", "\u8271", "\u8272", "\u8273", "\u8277", "\u827a", "\u827e", "\u8282", "\u828b", "\u8292", "\u8299", "\u829c", "\u829d", "\u82a5", "\u82a6", "\u82ac", "\u82ad", "\u82ae", "\u82af", "\u82b1", "\u82b3", "\u82b7", "\u82b8", "\u82b9", "\u82bd", "\u82cd", "\u82cf", "\u82d1", "\u82d3", "\u82d4", "\u82d7", "\u82db", "\u82df", "\u82e5", "\u82e6", "\u82ef", "\u82f1", "\u82f7", "\u82f9", "\u82fb", "\u8302", "\u8303", "\u8304", "\u8305", "\u8309", "\u830e", "\u831c", "\u8328", "\u832b", "\u8331", "\u8332", "\u8335", "\u8336", "\u8339", "\u8340", "\u8343", "\u8346", "\u8349", "\u834a", "\u8350", "\u8352", "\u8354", "\u8358", "\u8361", "\u8363", "\u8367", "\u836b", "\u836f", "\u8377", "\u837b", "\u8389", "\u838a", "\u838e", "\u8393", "\u8396", "\u839e", "\u83ab", "\u83b1", "\u83b2", "\u83b7", "\u83bd", "\u83c1", "\u83c5", "\u83ca", "\u83cc", "\u83cf", "\u83d3", "\u83dc", "\u83df", "\u83e9", "\u83ef", "\u83f1", "\u83f2", "\u83f8", "\u8403", "\u8404", "\u840a", "\u840c", "\u840d", "\u840e", "\u841d", "\u8425", "\u8427", "\u8428", "\u8429", "\u842c", "\u8431", "\u843c", "\u843d", "\u8449", "\u8457", "\u845b", "\u8461", "\u8463", "\u8466", "\u846b", "\u846c", "\u8471", "\u8475", "\u8482", "\u848b", "\u8490", "\u8499", "\u84b2", "\u84b8", "\u84bc", "\u84c4", "\u84c9", "\u84cb", "\u84dd", "\u84df", "\u84ec", "\u84ee", "\u8511", "\u8513", "\u8517", "\u851a", "\u8521", "\u8523", "\u8525", "\u852c", "\u852d", "\u8535", "\u853d", "\u8543", "\u8549", "\u854a", "\u8568", "\u8569", "\u856d", "\u8574", "\u857e", "\u8584", "\u8587", "\u8588", "\u8594", "\u859b", "\u85a6", "\u85a8", "\u85a9", "\u85aa", "\u85ab", "\u85ac", "\u85af", "\u85b0", "\u85c9", "\u85cd", "\u85cf", "\u85dd", "\u85e4", "\u85e5", "\u85e9", "\u85fb", "\u8606", "\u8607", "\u860a", "\u860b", "\u862d", "\u863f", "\u864e", "\u864f", "\u8650", "\u8651", "\u8654", "\u8655", "\u865a", "\u865b", "\u865c", "\u865e", "\u865f", "\u8662", "\u8667", "\u866b", "\u8679", "\u867d", "\u867e", "\u8680", "\u868a", "\u868c", "\u8695", "\u86a9", "\u86c7", "\u86cb", "\u86cd", "\u86d9", "\u86db", "\u86df", "\u86ee", "\u86f0", "\u8700", "\u8702", "\u8709", "\u8718", "\u871c", "\u8721", "\u8747", "\u874e", "\u8755", "\u8760", "\u8763", "\u8766", "\u8774", "\u8776", "\u878d", "\u87a2", "\u87ba", "\u87cc", "\u87e0", "\u87f2", "\u87f9", "\u880d", "\u8815", "\u881f", "\u8822", "\u8836", "\u883b", "\u8840", "\u8846", "\u884c", "\u884d", "\u8853", "\u8854", "\u8857", "\u8859", "\u885b", "\u885d", "\u885e", "\u8861", "\u8862", "\u8863", "\u8865", "\u8868", "\u886b", "\u886c", "\u886e", "\u8870", "\u8877", "\u8881", "\u888b", "\u888d", "\u8896", "\u88ab", "\u88ad", "\u88c1", "\u88c2", "\u88c5", "\u88cf", "\u88d4", "\u88d5", "\u88d8", "\u88d9", "\u88dc", "\u88dd", "\u88e1", "\u88e4", "\u88f3", "\u88f4", "\u88f8", "\u88f9", "\u88fd", "\u8907", "\u8910", "\u8912", "\u891a", "\u8932", "\u8936", "\u8944", "\u895f", "\u8972", "\u897f", "\u8981", "\u8986", "\u8987", "\u898b", "\u898f", "\u8996", "\u899a", "\u89a7", "\u89aa", "\u89b3", "\u89ba", "\u89bd", "\u89c0", "\u89c1", "\u89c2", "\u89c4", "\u89c6", "\u89c8", "\u89c9", "\u89d2", "\u89e3", "\u89e6", "\u89f8", "\u8a00", "\u8a02", "\u8a08", "\u8a0a", "\u8a0e", "\u8a13", "\u8a17", "\u8a18", "\u8a1b", "\u8a1f", "\u8a22", "\u8a2a", "\u8a2d", "\u8a31", "\u8a33", "\u8a34", "\u8a36", "\u8a3a", "\u8a3b", "\u8a3c", "\u8a50", "\u8a54", "\u8a55", "\u8a5e", "\u8a60", "\u8a62", "\u8a63", "\u8a66", "\u8a69", "\u8a6e", "\u8a70", "\u8a71", "\u8a72", "\u8a73", "\u8a79", "\u8a85", "\u8a87", "\u8a89", "\u8a8c", "\u8a8d", "\u8a93", "\u8a95", "\u8a98", "\u8a9e", "\u8aa0", "\u8aa3", "\u8aa4", "\u8aa5", "\u8aa6", "\u8aaa", "\u8aac", "\u8aad", "\u8ab0", "\u8ab2", "\u8abc", "\u8abf", "\u8ac7", "\u8acb", "\u8acf", "\u8ad2", "\u8ad6", "\u8adc", "\u8ae1", "\u8ae6", "\u8ae7", "\u8aeb", "\u8aed", "\u8aee", "\u8af1", "\u8af7", "\u8af8", "\u8afa", "\u8afe", "\u8b00", "\u8b01", "\u8b02", "\u8b0a", "\u8b0e", "\u8b17", "\u8b19", "\u8b1b", "\u8b1d", "\u8b20", "\u8b21", "\u8b28", "\u8b2b", "\u8b2c", "\u8b33", "\u8b39", "\u8b49", "\u8b58", "\u8b5a", "\u8b5c", "\u8b66", "\u8b6c", "\u8b6f", "\u8b70", "\u8b72", "\u8b74", "\u8b77", "\u8b7d", "\u8b80", "\u8b83", "\u8b8a", "\u8b90", "\u8b93", "\u8b9a", "\u8b9e", "\u8ba1", "\u8ba2", "\u8ba4", "\u8ba8", "\u8ba9", "\u8bad", "\u8bae", "\u8baf", "\u8bb0", "\u8bb2", "\u8bb3", "\u8bb7", "\u8bb8", "\u8bba", "\u8bbc", "\u8bbd", "\u8bbe", "\u8bbf", "\u8bc1", "\u8bc3", "\u8bc4", "\u8bc6", "\u8bc8", "\u8bc9", "\u8bca", "\u8bcd", "\u8bcf", "\u8bd1", "\u8bd5", "\u8bd7", "\u8bda", "\u8bdb", "\u8bdd", "\u8bde", "\u8be0", "\u8be2", "\u8be3", "\u8be5", "\u8be6", "\u8beb", "\u8bec", "\u8bed", "\u8bef", "\u8bf0", "\u8bf1", "\u8bf4", "\u8bf5", "\u8bf7", "\u8bf8", "\u8bfa", "\u8bfb", "\u8bfd", "\u8bfe", "\u8c01", "\u8c03", "\u8c05", "\u8c08", "\u8c0a", "\u8c0b", "\u8c0d", "\u8c0e", "\u8c0f", "\u8c10", "\u8c13", "\u8c15", "\u8c1b", "\u8c1c", "\u8c1f", "\u8c22", "\u8c23", "\u8c24", "\u8c25", "\u8c26", "\u8c28", "\u8c2d", "\u8c31", "\u8c34", "\u8c37", "\u8c41", "\u8c46", "\u8c48", "\u8c4a", "\u8c4c", "\u8c4e", "\u8c50", "\u8c5a", "\u8c61", "\u8c6a", "\u8c6b", "\u8c6c", "\u8c79", "\u8c8c", "\u8c93", "\u8c9d", "\u8c9e", "\u8ca0", "\u8ca1", "\u8ca2", "\u8ca7", "\u8ca8", "\u8ca9", "\u8caa", "\u8cab", "\u8cac", "\u8caf", "\u8cb0", "\u8cb4", "\u8cb6", "\u8cb7", "\u8cb8", "\u8cbb", "\u8cbc", "\u8cbf", "\u8cc0", "\u8cc2", "\u8cc3", "\u8cc4", "\u8cc7", "\u8cc8", "\u8cca", "\u8cd1", "\u8cd3", "\u8cdb", "\u8cdc", "\u8cde", "\u8ce0", "\u8ce2", "\u8ce3", "\u8ce4", "\u8ce6", "\u8cea", "\u8ced", "\u8cf4", "\u8cfa", "\u8cfc", "\u8cfd", "\u8d08", "\u8d0a", "\u8d0b", "\u8d0f", "\u8d16", "\u8d1d", "\u8d1e", "\u8d1f", "\u8d21", "\u8d22", "\u8d23", "\u8d24", "\u8d25", "\u8d26", "\u8d27", "\u8d28", "\u8d29", "\u8d2a", "\u8d2b", "\u8d2c", "\u8d2d", "\u8d2f", "\u8d34", "\u8d35", "\u8d37", "\u8d38", "\u8d39", "\u8d3a", "\u8d3c", "\u8d3e", "\u8d3f", "\u8d44", "\u8d4b", "\u8d4e", "\u8d4f", "\u8d50", "\u8d54", "\u8d56", "\u8d5b", "\u8d5e", "\u8d60", "\u8d62", "\u8d63", "\u8d64", "\u8d66", "\u8d6b", "\u8d70", "\u8d74", "\u8d75", "\u8d76", "\u8d77", "\u8d81", "\u8d85", "\u8d8a", "\u8d8b", "\u8d95", "\u8d99", "\u8d9f", "\u8da3", "\u8da8", "\u8db3", "\u8dbe", "\u8dc3", "\u8dc6", "\u8dcb", "\u8dcc", "\u8dd1", "\u8ddd", "\u8ddf", "\u8de1", "\u8de4", "\u8de8", "\u8dea", "\u8def", "\u8df3", "\u8df5", "\u8e0a", "\u8e0f", "\u8e10", "\u8e1e", "\u8e22", "\u8e2a", "\u8e44", "\u8e48", "\u8e5f", "\u8e64", "\u8e74", "\u8e81", "\u8e8d", "\u8eab", "\u8eac", "\u8eb2", "\u8eba", "\u8eca", "\u8ecb", "\u8ecc", "\u8ecd", "\u8ed2", "\u8edf", "\u8ee2", "\u8ef8", "\u8efb", "\u8efc", "\u8efd", "\u8efe", "\u8f03", "\u8f09", "\u8f0c", "\u8f14", "\u8f15", "\u8f1b", "\u8f1d", "\u8f29", "\u8f2a", "\u8f2f", "\u8f38", "\u8f3b", "\u8f3f", "\u8f44", "\u8f45", "\u8f49", "\u8f5f", "\u8f66", "\u8f68", "\u8f69", "\u8f6c", "\u8f6e", "\u8f6f", "\u8f70", "\u8f72", "\u8f74", "\u8f7b", "\u8f7c", "\u8f7d", "\u8f83", "\u8f85", "\u8f86", "\u8f88", "\u8f89", "\u8f90", "\u8f91", "\u8f93", "\u8f96", "\u8f99", "\u8f9b", "\u8f9c", "\u8f9e", "\u8f9f", "\u8fa3", "\u8fa6", "\u8fa8", "\u8fa9", "\u8fad", "\u8faf", "\u8fb0", "\u8fb1", "\u8fb2", "\u8fb9", "\u8fba", "\u8fbb", "\u8fbc", "\u8fbd", "\u8fbe", "\u8fbf", "\u8fc1", "\u8fc2", "\u8fc4", "\u8fc5", "\u8fc7", "\u8fc8", "\u8fce", "\u8fd0", "\u8fd1", "\u8fd4", "\u8fd8", "\u8fd9", "\u8fdb", "\u8fdc", "\u8fdd", "\u8fde", "\u8fdf", "\u8fe5", "\u8fe6", "\u8fea", "\u8feb", "\u8fed", "\u8ff0", "\u8ff4", "\u8ff7", "\u8ff9", "\u8ffa", "\u8ffd", "\u9000", "\u9001", "\u9002", "\u9003", "\u9006", "\u9009", "\u900a", "\u900d", "\u900f", "\u9010", "\u9012", "\u9013", "\u9014", "\u9017", "\u9019", "\u901a", "\u901d", "\u901f", "\u9020", "\u9022", "\u9023", "\u902e", "\u9031", "\u9032", "\u9035", "\u9038", "\u903b", "\u903c", "\u903e", "\u9041", "\u9042", "\u9045", "\u9047", "\u904a", "\u904b", "\u904d", "\u904e", "\u904f", "\u9053", "\u9054", "\u9055", "\u9057", "\u9059", "\u905c", "\u905e", "\u9060", "\u9061", "\u9063", "\u9065", "\u9069", "\u906d", "\u906e", "\u9072", "\u9075", "\u9077", "\u9078", "\u907a", "\u907c", "\u907d", "\u907f", "\u9080", "\u9081", "\u9084", "\u9087", "\u9089", "\u908a", "\u908f", "\u9091", "\u9093", "\u9095", "\u9099", "\u90a2", "\u90a3", "\u90a6", "\u90a8", "\u90aa", "\u90ae", "\u90af", "\u90b1", "\u90b5", "\u90b8", "\u90b9", "\u90ba", "\u90bb", "\u90c1", "\u90ca", "\u90ce", "\u90d1", "\u90dd", "\u90e1", "\u90e2", "\u90e8", "\u90ed", "\u90f5", "\u90f7", "\u90f8", "\u90fd", "\u90fe", "\u9102", "\u9109", "\u9112", "\u9119", "\u911e", "\u9122", "\u9127", "\u912d", "\u9130", "\u9134", "\u9149", "\u914b", "\u914c", "\u914d", "\u9152", "\u9154", "\u9162", "\u9165", "\u916a", "\u916c", "\u916e", "\u916f", "\u9170", "\u9171", "\u9175", "\u9176", "\u9177", "\u9178", "\u917f", "\u9187", "\u9189", "\u918b", "\u918d", "\u9190", "\u9192", "\u919a", "\u919c", "\u91a3", "\u91a4", "\u91ab", "\u91b8", "\u91c0", "\u91c1", "\u91c7", "\u91c8", "\u91ca", "\u91cb", "\u91cc", "\u91cd", "\u91ce", "\u91cf", "\u91d0", "\u91d1", "\u91d7", "\u91d8", "\u91dc", "\u91dd", "\u91e3", "\u91e7", "\u9209", "\u920d", "\u9214", "\u9215", "\u921e", "\u9234", "\u923e", "\u9240", "\u9244", "\u9245", "\u9249", "\u925b", "\u9262", "\u9271", "\u9274", "\u9280", "\u9283", "\u9285", "\u9298", "\u929a", "\u929c", "\u92ad", "\u92b3", "\u92b7", "\u92c1", "\u92d2", "\u92ea", "\u92ed", "\u92f3", "\u92fc", "\u9304", "\u9310", "\u9320", "\u9322", "\u9326", "\u932b", "\u932c", "\u932f", "\u9332", "\u934a", "\u934b", "\u935b", "\u9375", "\u937e", "\u9382", "\u938a", "\u938c", "\u9394", "\u9396", "\u93a7", "\u93ac", "\u93ae", "\u93c8", "\u93e1", "\u9418", "\u9435", "\u9438", "\u943d", "\u9444", "\u9451", "\u9452", "\u946b", "\u9470", "\u9472", "\u947c", "\u947d", "\u947f", "\u9488", "\u948a", "\u9493", "\u9497", "\u9499", "\u949e", "\u949f", "\u94a0", "\u94a2", "\u94a5", "\u94a6", "\u94a7", "\u94a9", "\u94ab", "\u94ae", "\u94b1", "\u94b4", "\u94b5", "\u94bb", "\u94be", "\u94c0", "\u94c1", "\u94c3", "\u94c5", "\u94ce", "\u94dc", "\u94dd", "\u94e8", "\u94ed", "\u94ef", "\u94f2", "\u94f5", "\u94f6", "\u94f7", "\u94f8", "\u94fa", "\u94fe", "\u9500", "\u9501", "\u9502", "\u9505", "\u950b", "\u950c", "\u9510", "\u9511", "\u9519", "\u9521", "\u9524", "\u9525", "\u9526", "\u952e", "\u953b", "\u9541", "\u9547", "\u954d", "\u9550", "\u9551", "\u9555", "\u955c", "\u9570", "\u9576", "\u9577", "\u957f", "\u9580", "\u9583", "\u9589", "\u958b", "\u958f", "\u9591", "\u9592", "\u9593", "\u9594", "\u95a2", "\u95a3", "\u95a5", "\u95a9", "\u95ad", "\u95b1", "\u95b2", "\u95bb", "\u95c6", "\u95c7", "\u95ca", "\u95cd", "\u95d4", "\u95d5", "\u95d6", "\u95d8", "\u95dc", "\u95e1", "\u95e2", "\u95e8", "\u95ea", "\u95ed", "\u95ee", "\u95ef", "\u95f0", "\u95f2", "\u95f4", "\u95f5", "\u95f8", "\u95f9", "\u95fb", "\u95fd", "\u95fe", "\u9600", "\u9601", "\u9605", "\u9607", "\u960e", "\u9610", "\u9614", "\u9616", "\u9617", "\u961c", "\u961f", "\u962a", "\u962e", "\u9632", "\u9633", "\u9634", "\u9635", "\u9636", "\u963b", "\u963f", "\u9640", "\u9644", "\u9645", "\u9646", "\u9647", "\u9648", "\u964b", "\u964c", "\u964d", "\u9650", "\u9655", "\u965b", "\u965d", "\u9661", "\u9662", "\u9663", "\u9664", "\u9665", "\u9668", "\u9669", "\u966a", "\u9670", "\u9673", "\u9675", "\u9676", "\u9677", "\u9678", "\u967a", "\u967d", "\u9685", "\u9686", "\u9688", "\u968a", "\u968b", "\u968e", "\u968f", "\u9690", "\u9694", "\u9695", "\u9697", "\u9698", "\u9699", "\u969b", "\u969c", "\u96a0", "\u96a3", "\u96a7", "\u96a8", "\u96aa", "\u96b1", "\u96b4", "\u96b6", "\u96b7", "\u96b8", "\u96bb", "\u96bc", "\u96be", "\u96c0", "\u96c1", "\u96c4", "\u96c5", "\u96c6", "\u96c7", "\u96cc", "\u96cd", "\u96cf", "\u96d1", "\u96d2", "\u96d5", "\u96d6", "\u96d9", "\u96db", "\u96dc", "\u96de", "\u96e2", "\u96e3", "\u96e8", "\u96ea", "\u96ef", "\u96f0", "\u96f2", "\u96f6", "\u96f7", "\u96fb", "\u96fe", "\u9700", "\u9704", "\u9706", "\u9707", "\u9709", "\u970a", "\u970d", "\u9716", "\u971c", "\u971e", "\u9727", "\u9732", "\u9738", "\u9739", "\u973e", "\u9748", "\u9752", "\u9753", "\u9756", "\u9759", "\u975a", "\u975c", "\u975e", "\u9760", "\u9761", "\u9762", "\u9769", "\u9773", "\u9774", "\u977c", "\u9785", "\u978b", "\u978d", "\u978f", "\u9791", "\u9798", "\u97a0", "\u97ad", "\u97ae", "\u97c3", "\u97cb", "\u97d3", "\u97e6", "\u97e7", "\u97e9", "\u97f3", "\u97f5", "\u97f6", "\u97fb", "\u97ff", "\u9801", "\u9802", "\u9803", "\u9805", "\u9806", "\u9808", "\u980c", "\u9810", "\u9811", "\u9812", "\u9813", "\u9817", "\u9818", "\u9821", "\u9824", "\u982d", "\u9838", "\u983b", "\u983c", "\u9846", "\u984c", "\u984d", "\u984e", "\u984f", "\u9854", "\u9855", "\u9858", "\u985b", "\u985e", "\u9867", "\u986f", "\u9875", "\u9876", "\u9877", "\u9879", "\u987a", "\u987b", "\u987d", "\u987e", "\u987f", "\u9881", "\u9882", "\u9884", "\u9886", "\u9887", "\u9888", "\u988d", "\u9890", "\u9891", "\u9896", "\u9897", "\u9898", "\u9899", "\u989c", "\u989d", "\u98a0", "\u98a4", "\u98a8", "\u98af", "\u98b1", "\u98b6", "\u98c4", "\u98ce", "\u98d8", "\u98db", "\u98de", "\u98df", "\u98e2", "\u98ef", "\u98f2", "\u98fc", "\u98fd", "\u98fe", "\u9905", "\u9909", "\u990a", "\u990c", "\u9910", "\u9913", "\u9918", "\u991a", "\u9921", "\u9928", "\u9949", "\u9951", "\u9952", "\u9965", "\u996a", "\u996d", "\u996e", "\u9970", "\u9971", "\u9972", "\u9976", "\u9979", "\u997c", "\u997f", "\u9986", "\u9987", "\u998f", "\u9996", "\u9999", "\u99a8", "\u99ac", "\u99ae", "\u99b3", "\u99b4", "\u99c1", "\u99c4", "\u99c5", "\u99c6", "\u99d0", "\u99d2", "\u99d5", "\u99db", "\u99dd", "\u99f1", "\u99ff", "\u9a0e", "\u9a12", "\u9a13", "\u9a19", "\u9a30", "\u9a37", "\u9a45", "\u9a55", "\u9a57", "\u9a5a", "\u9a5f", "\u9a6c", "\u9a70", "\u9a71", "\u9a73", "\u9a76", "\u9a7b", "\u9a7c", "\u9a7e", "\u9a7f", "\u9a82", "\u9a84", "\u9a86", "\u9a8c", "\u9a8f", "\u9a91", "\u9a97", "\u9a9a", "\u9aa4", "\u9aa8", "\u9ab0", "\u9ab8", "\u9abc", "\u9ac4", "\u9ad3", "\u9ad4", "\u9ad8", "\u9ad9", "\u9aea", "\u9aee", "\u9b06", "\u9b25", "\u9b27", "\u9b31", "\u9b3c", "\u9b41", "\u9b42", "\u9b44", "\u9b45", "\u9b4f", "\u9b54", "\u9b5a", "\u9b6f", "\u9b8e", "\u9b91", "\u9bae", "\u9bc0", "\u9be8", "\u9c57", "\u9c7c", "\u9c81", "\u9c8d", "\u9c9c", "\u9ca4", "\u9ca7", "\u9ccc", "\u9ce5", "\u9ce9", "\u9cf3", "\u9cf4", "\u9d09", "\u9d28", "\u9d3b", "\u9d5d", "\u9d6c", "\u9d70", "\u9d72", "\u9d8f", "\u9daf", "\u9db4", "\u9dd7", "\u9df2", "\u9df9", "\u9dfa", "\u9e1f", "\u9e20", "\u9e21", "\u9e23", "\u9e26", "\u9e2d", "\u9e3f", "\u9e45", "\u9e4a", "\u9e4f", "\u9e57", "\u9e58", "\u9e64", "\u9e70", "\u9e75", "\u9e79", "\u9e7c", "\u9e7d", "\u9e7f", "\u9e92", "\u9e93", "\u9e97", "\u9e9f", "\u9ea5", "\u9ea6", "\u9eb4", "\u9eb5", "\u9eba", "\u9ebb", "\u9ebc", "\u9ebd", "\u9ebe", "\u9ebf", "\u9ec3", "\u9ec4", "\u9ece", "\u9ecf", "\u9ed1", "\u9ed2", "\u9ed4", "\u9ed8", "\u9ed9", "\u9edb", "\u9edc", "\u9ede", "\u9ee8", "\u9eef", "\u9f0e", "\u9f10", "\u9f13", "\u9f20", "\u9f3b", "\u9f4a", "\u9f4b", "\u9f50", "\u9f52", "\u9f61", "\u9f62", "\u9f7f", "\u9f84", "\u9f8d", "\u9f90", "\u9f99", "\u9f9a", "\u9f9c", "\u9f9f", "\uae30", "\ub294", "\ub2c8", "\ub2e4", "\ub85c", "\uc5d0", "\uc740", "\uc774", "\ud558", "\ufa11", "\ufe30", "\ufe51", "\ufe56", "\ufeff", "\uff01", "\uff02", "\uff05", "\uff06", "\uff08", "\uff09", "\uff0b", "\uff0c", "\uff0d", "\uff0e", "\uff0f", "\uff11", "\uff12", "\uff13", "\uff1a", "\uff1b", "\uff1c", "\uff1d", "\uff1e", "\uff1f", "\uff3b", "\uff3d", "\uff5c", "\uff5e", "\uff62", "\uff63", "\uff64", "\uff65", "\ufffd"], "merges": [[" ", " "], ["  ", "  "], ["e", "r"], ["e", "n"], ["i", "n"], ["o", "n"], ["e", "s"], ["  ", " "], ["a", "t"], [" ", "d"], ["a", "n"], ["r", "e"], [" ", "t"], ["o", "r"], ["s", "t"], ["\n", "    "], ["a", "l"], ["i", "t"], ["a", "r"], ["l", "e"], ["s", "e"], ["c", "h"], ["i", "on"], ["i", "s"], ["u", "n"], [" ", "p"], [" ", "c"], ["u", "r"], ["e", "t"], [" ", "a"], ["h", "e"], ["\n", "\t"], [" ", "s"], [" ", "f"], ["en", "t"], [" ", "="], ["    ", "    "], ["r", "o"], [" ", "("], ["c", "t"], [" ", "l"], ["i", "c"], [" ", "m"], ["e", "d"], ["u", "t"], ["\n", "   "], [" t", "he"], [" ", "1"], ["in", "g"], ["a", "m"], [" ", "n"], ["e", "l"], ["i", "l"], [")", ";"], [" ", "o"], [" ", "b"], [" ", "{"], ["\n    ", "   "], ["-", "-"], [" ", "in"], [" ", "w"], ["a", "s"], ["o", "m"], ["d", "e"], [" d", "e"], ["i", "m"], ["i", "f"], ["an", "d"], ["/", "/"], [" ", "S"], ["0", "0"], ["q", "u"], [" ", "v"], [" ", "re"], ["\t", "\t"], ["\u0441", "\u0442"], [" ", "A"], ["r", "i"], ["o", "l"], [" ", "\""], ["es", "t"], ["c", "e"], ["u", "s"], [" ", "*"], ["u", "l"], [" ", "e"], ["g", "e"], ["i", "e"], [" ", "\u043f"], ["i", "d"], ["t", "e"], ["(", ")"], ["    ", "   "], ["r", "a"], ["i", "st"], [" o", "f"], ["i", "g"], ["p", "e"], ["at", "ion"], [" ", "\u0432"], ["a", "d"], ["\u0435", "\u043d"], [" ", "T"], [" ", "C"], ["at", "e"], ["\u0440", "\u0430"], ["o", "t"], [" ", "un"], ["r", "es"], ["ur", "n"], [" ", "-"], ["c", "k"], ["\n    ", "        "], ["\u043d", "\u043e"], [" ", "B"], [" ", "M"], [" 1", "9"], [" ", "}"], [" ", "g"], [" ", "h"], [" ", "2"], [" ", "se"], [" t", "h"], [" t", "o"], ["u", "m"], ["\u043a", "\u043e"], [" ", "\u0438"], [" ", "L"], ["\u0440", "\u043e"], ["t", "urn"], ["\n", " "], ["p", "t"], ["l", "o"], [" ", "\u0441"], ["e", "m"], ["*", "*"], ["--", "--"], ["\n    ", "       "], ["er", "s"], [" ", "P"], ["or", "t"], [" ", "st"], ["1", "9"], ["\u043d", "\u0430"], ["am", "e"], [" ", "D"], [" ", "I"], [" ", "and"], ["a", "b"], ["u", "e"], ["u", "b"], ["o", "d"], ["\u0433", "\u043e"], ["t", "er"], [" ", "'"], ["l", "i"], ["ct", "ion"], [" c", "on"], ["en", "d"], [" ", "E"], [" ", "0"], [" ", "G"], [" ", "F"], ["a", "p"], ["i", "r"], ["v", "e"], ["\"", ","], ["t", "h"], ["\u0440", "\u0435"], ["er", "r"], ["\n\t", "\t"], [" ", ":"], [" ", "\u043e"], ["r", "ing"], [" ", "R"], ["\n\t", "\t\t"], [" l", "a"], ["\u0440", "\u0438"], ["er", "t"], ["S", "t"], ["in", "t"], ["\u0430", "\u043d"], ["\u043b", "\u0438"], [")", ","], ["as", "s"], ["\u0442", "\u043e"], ["g", "et"], ["=", "="], ["o", "p"], ["l", "a"], ["p", "ort"], ["\u043b", "\u044c"], ["u", "p"], [" ", "if"], ["x", "t"], ["l", "f"], [" f", "or"], ["m", "ent"], [" ", "le"], [" ", "N"], ["c", "on"], ["\n", "\n"], [" ", "r"], ["a", "ge"], ["\u043a", "\u0438"], ["\u043d", "\u044b"], ["(", "\""], [" d", "er"], ["v", "er"], [" ", "is"], ["an", "t"], [" ", "H"], ["es", "s"], ["o", "s"], ["al", "l"], ["o", "ur"], ["in", "e"], ["I", "n"], ["i", "le"], [" d", "es"], [" b", "e"], [")", "."], ["e", "w"], ["\u0442", "\u0435"], ["y", "pe"], [" re", "turn"], [" un", "d"], ["it", "h"], ["\u043a", "\u0430"], ["o", "g"], [" ", "et"], ["i", "ch"], ["0", "1"], ["o", "w"], ["e", "ct"], ["l", "ic"], ["ar", "t"], ["an", "s"], [" ", "W"], [" \u043f", "\u043e"], ["a", "g"], ["ul", "t"], ["un", "g"], ["k", "e"], [" ", "+"], ["\u043b", "\u043e"], ["\n", "\n   "], [" ", "\n"], [" ", "\u0434"], ["at", "a"], [" p", "ro"], [":", ":"], ["i", "z"], [" ", "err"], ["c", "o"], ["ch", "e"], ["\n    ", " "], [" ", "en"], [" ", "K"], [" ", "an"], ["i", "v"], ["\u3066", "\u3044"], ["\u0432", "\u043e"], [" c", "om"], ["i", "re"], ["'", ","], ["\u043d", "\u0438"], [" ", "V"], ["\u0435", "\u0440"], ["----", "----"], [" ", "\u043c"], ["\u043b", "\u0430"], ["\n            ", "   "], ["\u0432", "\u0430"], [" ", "\u043d\u0430"], ["a", "in"], ["u", "f"], [" th", "is"], ["h", "t"], [" ", "O"], ["re", "turn"], ["\u0435\u043d", "\u0438"], [" a", "s"], ["in", "d"], ["\u0435", "\u0442"], ["qu", "e"], [" ", "//"], ["o", "c"], ["(", ");"], [" ", "<"], ["ro", "m"], [" d", "ie"], ["a", "se"], ["\u3055", "\u308c"], ["pt", "ion"], ["\u3059", "\u308b"], [" ", "al"], ["on", "t"], ["c", "l"], [" ", "z"], ["im", "port"], ["a", "ck"], ["or", "d"], [" ", "J"], [" ", "j"], [" e", "x"], ["**", "**"], ["R", "e"], ["\u043d", "\u0435"], ["ab", "le"], ["se", "t"], [" se", "lf"], ["-", ">"], ["n", "e"], ["o", "u"], ["at", "h"], ["\u0434", "\u0430"], ["\u043b", "\u0435"], ["(", "'"], ["\u0442", "\u0430"], [" S", "t"], [" ", "on"], ["b", "er"], ["\u0441", "\u043a\u0438"], ["o", "de"], ["or", "m"], ["\u0442", "\u0438"], ["u", "re"], ["o", "ut"], [" p", "ar"], ["f", "a"], [" :", "="], ["a", "y"], ["al", "ue"], [" ", "U"], [" ", "or"], ["un", "ction"], ["\u3057", "\u305f"], ["en", "s"], ["j", "ect"], ["un", "d"], ["l", "y"], ["\u0441", "\u043a\u043e"], ["i", "p"], ["i", "es"], [" ", "!"], ["a", "ch"], [" ", "res"], ["\u043c", "\u0438"], ["ub", "lic"], [" ", "\u0431"], ["\u3042", "\u308b"], [" ", "\u00e0"], ["an", "g"], [")", ")"], [" t", "r"], ["i", "al"], ["p", "ar"], [" ", "ch"], [" ", "["], ["r", "it"], ["a", "u"], ["\u3063", "\u305f"], ["i", "el"], [" l", "es"], ["p", "ro"], ["im", "e"], ["\u3066\u3044", "\u308b"], ["\u3057", "\u3066"], ["t", "o"], ["m", "e"], [" ", "it"], ["it", "y"], [" ", "k"], ["c", "om"], ["er", "e"], [" I", "n"], [" ", "i"], ["u", "g"], [" w", "ith"], [" ", "qu"], ["\n            ", "        "], [" ", "&"], ["p", "ut"], [" ", "\u0430"], ["2", "0"], ["f", "f"], ["i", "b"], [" d", "u"], [" w", "h"], ["N", "ame"], ["a", "v"], ["\u0437", "\u0430"], ["\u0447", "\u0435"], [" ", "im"], ["h", "r"], ["==", "=="], ["\u0432", "\u0438"], ["n", "ame"], ["iz", "e"], ["\u0446", "\u0438"], [" ", "@"], ["el", "l"], [" =", "="], [")", ":"], ["i", "er"], ["an", "ce"], ["un", "t"], ["C", "on"], [" T", "he"], ["e", "x"], [" ", "3"], ["1", "8"], ["s", "er"], ["2", "00"], ["p", "p"], ["p", "on"], ["f", "t"], ["f", "o"], [" n", "ew"], ["it", "ion"], ["r", "u"], [" a", "u"], ["\u0441", "\u044f"], ["un", "c"], ["ar", "d"], [" n", "ot"], ["r", "r"], ["d", "d"], ["ch", "en"], ["\u043e", "\u0432"], [" ", "_"], ["\u043b", "\u044f"], ["t", "r"], [" ", "\u00ab"], ["o", "b"], [" 1", "8"], ["p", "l"], [" ", "u"], [" ", "\u043a\u043e"], [" b", "y"], ["il", "l"], ["\u0434", "\u0438"], ["i", "ve"], ["\u0440", "\u0443"], ["\"", ")"], ["a", "c"], [" e", "in"], [" th", "at"], ["ic", "e"], ["\u304b", "\u3089"], ["f", "er"], ["on", "e"], ["or", "y"], [" 2", "00"], ["o", "st"], ["ul", "l"], ["ar", "g"], [" !", "="], ["00", "00"], ["p", "r"], ["u", "st"], ["d", "er"], ["1", "2"], ["1", "0"], ["a", "ct"], ["f", "ig"], [" ", "\u0421"], [" ", "\u00e9"], [" ", "\u0412"], ["v", "ent"], ["\n", "\n       "], ["te", "xt"], [" n", "il"], ["E", "R"], ["ig", "n"], ["    ", " "], ["li", "ent"], ["p", "h"], ["\u65e5", "\u672c"], ["E", "rr"], ["se", "lf"], ["St", "ring"], [" in", "t"], ["le", "ment"], [" ", "\u0433\u043e"], ["an", "n"], ["\u0430\u043d", "\u0438"], [" ", "%"], ["\u3053", "\u3068"], [" f", "unction"], ["e", "xt"], [" ", "/"], ["qu", "est"], [" ", "el"], [" ", "\u0443"], ["t", "en"], ["p", "er"], [" ", "at"], ["al", "se"], ["O", "N"], ["E", "x"], ["f", "orm"], ["\u00e9", "s"], ["a", "st"], ["//", "//"], ["R", "es"], ["o", "re"], ["E", "n"], [" ", "est"], ["res", "s"], [" 2", "01"], ["}", ","], ["6", "4"], [" p", "r"], ["2", "01"], ["#", "#"], ["T", "ype"], [" v", "on"], ["ri", "b"], ["\"", ":"], ["\u0441", "\u0438"], ["s", "h"], ["e", "b"], ["o", "id"], [".", "."], [" *", "/"], ["ke", "y"], ["our", "ce"], ["l", "ass"], ["u", "d"], ["\u043f", "\u043e"], ["\u0441\u0442", "\u0430"], ["i", "en"], ["\u0441\u043a\u0438", "\u0439"], [" m", "a"], ["t", "t"], ["a", "re"], [" f", "rom"], ["er", "m"], [" ", "\u043a"], ["at", "ed"], ["l", "l"], [" ", "\u0440\u0430"], ["o", "k"], ["\u3067", "\u306f"], [" ", "\u041a"], ["Err", "or"], ["en", "er"], ["P", "ro"], ["iel", "d"], ["at", "ch"], ["i", "o"], [" \u043f", "\u0440\u043e"], [" \u0441", "\u043e"], ["\u0432", "\u0435"], ["--------", "--------"], ["a", "k"], [" p", "l"], ["e", "g"], ["\u0434", "\u0435"], ["\n            ", "       "], ["en", "se"], [" ", "4"], ["or", "s"], ["\u0441\u0442", "\u0438"], [" w", "as"], [" ", "y"], ["il", "d"], ["c", "c"], ["is", "s"], ["]", ","], ["b", "o"], ["i", "que"], [" ", "\u043d\u0435"], ["b", "ject"], ["ro", "w"], [" v", "ar"], [" con", "t"], ["f", "unc"], ["I", "N"], ["ers", "ion"], ["1", "1"], ["ad", "d"], ["on", "g"], [" ", "\u041f"], ["a", "il"], ["\u3067", "\u3042\u308b"], ["        ", "        "], ["3", "2"], ["i", "a"], ["\n", "\n "], [" 19", "9"], ["st", "ring"], [" \u0432", "\u043e"], [" de", "f"], ["\u0447", "\u0430"], ["****", "****"], [" g", "et"], ["r", "an"], ["th", "is"], ["ap", "p"], ["L", "ist"], ["t", "ype"], ["\u0435", "\u043c"], [" p", "ublic"], ["la", "y"], ["i", "k"], ["\u306a", "\u3069"], ["\"", "\""], ["g", "er"], ["\u00e9", "e"], ["de", "x"], [" \u043e", "\u0431"], [" d", "\u00e9"], ["o", "ck"], [" d", "en"], [" ", "er"], ["1", "6"], ["v", "al"], ["d", "u"], ["ut", "e"], ["D", "e"], ["\n\t\t\t", "\t"], ["v", "ar"], ["\u0441\u0442", "\u043e"], ["er", "v"], [" ", "#"], [" con", "st"], ["ation", "s"], [" el", "se"], ["_", "_"], ["i", "se"], ["ro", "up"], ["\u0434", "\u0443"], ["s", "ch"], [" al", "s"], ["p", "o"], [" ", "he"], ["\u0433", "\u0438"], ["d", "ata"], ["t", "est"], ["i", "x"], [" st", "ring"], ["\u306b", "\u3088"], ["19", "9"], ["et", "h"], [" A", "n"], ["c", "es"], ["p", "le"], ["e", "it"], ["\"", ");"], ["\u043c", "\u0430"], ["en", "g"], ["re", "ate"], ["ie", "w"], ["'", ")"], ["'", ":"], [" a", "re"], ["R", "E"], ["er", "n"], [" s", "h"], ["or", "k"], [" ", "\u0410"], ["y", "st"], ["o", "ul"], ["a", "h"], ["I", "d"], [" ", "\u0437\u0430"], [" ", "."], [" ", "Z"], ["\u3068", "\u3057\u3066"], ["\u0447", "\u0438"], ["g", "r"], [" ", "\u0444"], ["\u30ea", "\u30fc"], ["'", "s"], ["i", "de"], ["\n\t\t\t", "\t\t"], [" ", "|"], ["r", "y"], ["in", "al"], ["\u0442\u0435", "\u043b\u044c"], ["ter", "n"], [" ", "5"], ["le", "ct"], ["pe", "ct"], ["I", "D"], ["ar", "y"], [" s", "o"], [" \u043e", "\u0442"], [" st", "at"], ["a", "ve"], ["e", "c"], ["\u043c", "\u0435"], ["C", "h"], ["ri", "v"], ["u", "de"], ["\u00fc", "r"], [" ", "ent"], ["se", "d"], ["a", "x"], ["\u0434", "\u043e"], ["it", "e"], ["\u0435\u043d\u0438", "\u044f"], ["p", "a"], ["en", "ce"], [" \u043f", "\u0440\u0438"], ["1", "5"], ["\u0442", "\u044c"], ["\u043d\u043e", "\u0439"], [" ", "\u041c"], ["om", "m"], ["ig", "ht"], ["\u043c", "\u043e"], [" tr", "ue"], ["pon", "se"], ["ri", "g"], ["ic", "ense"], ["I", "T"], ["in", "s"], ["\u043d\u044b", "\u0445"], ["at", "or"], [" 19", "8"], [" T", "h"], ["a", "ut"], ["\u306b", "\u306f"], ["an", "ge"], ["qu", "al"], ["A", "R"], [" ", "\u044d"], [" m", "it"], ["S", "T"], ["us", "er"], [" C", "h"], ["1", "7"], [" d", "ans"], ["te", "m"], ["A", "T"], ["\u043d\u044b", "\u0439"], ["m", "o"], ["\u30a4", "\u30f3"], ["al", "e"], ["i", "an"], ["\u306a", "\u3044"], [" f", "alse"], ["\u30c3", "\u30af"], ["s", "s"], ["d", "en"], ["er", "y"], [".", "_"], ["A", "r"], ["()", "."], ["y", "n"], ["\u0435", "\u0439"], ["w", "e"], ["\u30bf", "\u30fc"], ["\u0431", "\u043e"], [" ", "\u0433"], ["ption", "s"], ["l", "es"], ["od", "el"], ["c", "ri"], ["ess", "age"], ["\n    ", "     "], ["\u00e9", "r"], ["\u3055\u308c", "\u305f"], ["re", "e"], [" ", ">"], ["P", "ar"], ["v", "el"], [" E", "n"], ["ra", "y"], ["f", "ile"], [" p", "re"], ["\u3063", "\u3066"], ["ut", "il"], [" t", "est"], ["d", "ate"], ["s", "on"], [" \u0438", "\u0437"], [" r", "\u00e9"], [" b", "o"], ["fa", "ult"], ["um", "ent"], ["\u30c3", "\u30c8"], ["ur", "s"], [" un", "e"], [" n", "ull"], ["\u0430", "\u0440"], ["a", "it"], ["yst", "em"], [" p", "art"], ["o", "le"], ["k", "t"], ["u", "x"], [" as", "s"], ["ur", "r"], ["lo", "w"], ["oul", "d"], [" err", "or"], ["G", "et"], [" a", "ut"], ["em", "ent"], ["\u0440", "\u044b"], [" v", "alue"], ["====", "===="], [" ", ")"], ["ad", "er"], ["u", "le"], ["S", "et"], [" U", "n"], [" ", "\u041d"], ["is", "chen"], [" se", "t"], ["2", "5"], ["\u305d", "\u306e"], ["19", "8"], ["i", "ed"], ["\u0436", "\u0435"], ["3", "0"], [" R", "e"], ["U", "n"], ["p", "os"], ["\u30b9", "\u30c8"], ["ion", "s"], ["ce", "ption"], ["m", "er"], ["()", ")"], ["\u0442", "\u0443"], ["f", "or"], [" n", "ame"], ["\u0445", "\u043e"], [" ", "ge"], ["pe", "c"], ["\u4e2d", "\u56fd"], ["T", "o"], [" \u0434", "\u043e"], ["S", "E"], [" L", "e"], [" ", "ar"], [" v", "er"], ["m", "l"], [" 2", "0"], ["\u043d\u043e", "\u0433\u043e"], ["li", "ch"], ["D", "ata"], [" \u043f", "\u0440\u0435"], ["O", "R"], ["\u30fc", "\u30c9"], ["in", "k"], ["st", "r"], [" ", "$"], ["\u0441\u0442", "\u0432"], [" p", "our"], ["con", "t"], ["eng", "th"], ["par", "am"], ["\u0441", "\u0430"], [" L", "icense"], ["A", "N"], ["\u3089", "\u308c"], ["2", "2"], ["p", "s"], ["cl", "ude"], [" n", "e"], [" 19", "7"], [" ", "\u0420"], ["\u30fc", "\u30eb"], ["\u043d\u044b", "\u0435"], ["C", "ont"], ["y", "s"], [" A", "r"], ["1", "4"], ["ow", "n"], [" ", "9"], ["lo", "ck"], ["l", "er"], ["()", ","], ["am", "es"], [" ", "\u2013"], [" [", "]"], ["lo", "g"], [" ", "\u0440\u0435"], [" a", "b"], [" z", "u"], ["at", "us"], [" qu", "i"], ["\u0441", "\u043e"], [" ", "\u043a\u0430"], ["as", "h"], [" a", "uf"], ["\u4e16", "\u754c"], ["\u3068", "\u3044"], ["\u0441\u043a\u043e", "\u0439"], [" ", "\u0413"], ["p", "re"], [" ", "ro"], [" s", "ur"], [" &", "&"], ["u", "ch"], ["F", "ile"], ["E", "N"], ["de", "f"], [" St", "ring"], ["it", "s"], ["eth", "od"], [" \u0431", "\u044b"], [" a", "us"], [" ", "6"], ["m", "p"], [" v", "oid"], ["\u0440", "\u044f"], ["\u0448", "\u0438"], ["ru", "ct"], ["\u3068", "\u306a"], [" d", "as"], [" ", ","], ["\uff09", "\u3002"], [" d", "ata"], ["Q", "u"], [" f", "ile"], [" d", "o"], [" D", "e"], ["p", "ath"], ["o", "unt"], ["y", "p"], ["\u0441", "\u0435"], ["m", "t"], ["\u305f", "\u3081"], [" S", "ch"], ["\u0435\u043d\u0438", "\u0435"], [" de", "m"], ["i", "ent"], ["2", "1"], ["00", "0"], [" ", "\u0414"], ["riv", "ate"], ["ur", "l"], ["b", "ack"], ["arg", "s"], ["ich", "t"], ["\u3066\u3044", "\u305f"], [" com", "m"], ["g", "en"], ["\u0441", "\u043a\u0430"], ["is", "h"], ["\u30e9", "\u30f3"], ["b", "re"], ["qu", "ire"], [" ", "que"], ["ic", "al"], [" ", "ist"], ["\u043c", "\u0435\u043d"], ["\u043f", "\u0438"], ["A", "L"], [")", ");"], [" <", "<"], [" a", "pp"], ["\u0437", "\u0438"], ["con", "st"], ["()", ");"], ["A", "n"], ["urr", "ent"], ["\u0436", "\u0438"], ["\u3088", "\u3046"], ["e", "y"], ["co", "de"], ["\uff09", "\uff0c"], [" n", "o"], ["5", "0"], ["S", "e"], ["\u0441\u0442", "\u044c"], [" A", "l"], [" ", "\u0411"], ["rit", "e"], [" ", "\u0435"], ["\u0441", "\u044c"], [" ", "x"], ["\u00e4", "n"], ["2", "3"], ["if", "ic"], ["+", "+"], [" ", "8"], [" ", "\u0442\u0435"], ["p", "ublic"], ["ar", "ch"], ["T", "r"], [" t", "ra"], ["ic", "k"], ["op", "y"], ["=", "\""], ["re", "am"], ["o", "und"], ["\u4f7f", "\u7528"], ["cl", "ass"], ["\u30d7", "\u30ed"], ["1", "3"], ["ing", "s"], ["\u30fc", "\u30e0"], [" c", "lass"], [" ", "import"], [" pl", "us"], ["st", "ance"], ["\u30e5", "\u30fc"], ["\u653f", "\u5e9c"], [" c", "an"], ["qu", "es"], ["////", "////"], ["z", "e"], [" res", "ult"], [" d", "is"], ["V", "alue"], ["s", "p"], ["all", "y"], ["ass", "ert"], ["\u043e", "\u043d"], ["\u0432", "\u044b"], ["ir", "st"], ["]", "."], ["Con", "fig"], ["u", "es"], [" 1", "0"], [" f", "\u00fcr"], ["re", "ad"], ["m", "in"], [" ", "7"], ["v", "alue"], [" ", "ra"], ["\u0441\u043a\u043e", "\u0433\u043e"], [" P", "ro"], ["\u3053", "\u306e"], ["ar", "k"], ["t", "on"], ["\n", "  "], ["c", "ess"], ["\u043f", "\u0435"], ["\u3082", "\u306e"], ["pa", "ce"], [" 19", "6"], [" d", "ur"], [" ", "all"], ["A", "dd"], ["\n                    ", "   "], ["[", "'"], ["um", "ber"], ["\uff09", "\u3001"], ["ind", "ow"], [" w", "ur"], ["i", "\u00e8"], [" o", "ut"], [" ", "\u0442\u043e"], ["0000", "0000"], ["\u3068\u3044", "\u3046"], [" m", "e"], ["b", "y"], ["\u30f3", "\u30b0"], [" \"", "\"\""], ["\u3055\u308c", "\u308b"], ["av", "a"], ["\u3057", "\u3066\u3044\u308b"], ["ol", "og"], ["St", "ate"], ["st", "e"], ["a", "che"], ["in", "clude"], ["\u0440\u0430", "\u043d"], ["##", "##"], ["\u30fc", "\u30c8"], ["L", "E"], ["co", "unt"], [" f", "il"], ["is", "ch"], ["erv", "ice"], [" ", "\u0442"], ["h", "er"], ["19", "7"], ["p", "ert"], ["S", "S"], ["\u653f", "\u6cbb"], [" c", "ol"], ["m", "s"], [" 19", "4"], ["\u306b", "\u306a"], [" a", "dd"], [" \u0432", "\u044b"], ["2", "4"], ["al", "le"], [" 1", "7"], ["ht", "t"], ["l", "ist"], [" or", "g"], ["f", "rom"], ["rib", "ut"], ["it", "\u00e9"], [" w", "e"], ["\u043a", "\u0443"], ["b", "e"], ["U", "R"], ["n", "er"], [" ", "`"], ["\u0433", "\u0430"], ["'", ");"], ["n", "et"], ["\u00e9", "t"], [" |", "|"], [" wh", "ich"], ["at", "es"], ["\n", "\n\t"], ["th", "er"], ["'", "]"], [" m", "od"], ["om", "e"], [" ", "\u044f"], ["rig", "ht"], ["is", "che"], [" }", ","], ["ar", "get"], ["\u043b", "\u0443"], [" ", "\u041b"], ["I", "C"], ["\u044e", "\u0442"], ["2", "7"], ["as", "k"], ["O", "bject"], ["\u0440\u043e", "\u0432"], ["ab", "el"], ["la", "g"], [" e", "ine"], [" ", "\u0447"], [" ", "\u0422"], ["\u0441\u0442", "\u0432\u043e"], ["B", "y"], ["l", "d"], ["\u0435", "\u0440\u0435"], ["ire", "ct"], ["\u30c7", "\u30a3"], ["ung", "en"], ["s", "ize"], [" S", "e"], ["at", "t"], ["che", "ck"], ["od", "y"], ["\u4eba", "\u6c11"], ["fa", "ce"], [" w", "ar"], ["\u0449", "\u0438"], ["\u3044", "\u3066"], ["at", "er"], ["or", "g"], ["o", "v"], ["\u043e", "\u0440"], ["\u30e7", "\u30f3"], [" s", "up"], ["U", "T"], ["end", "er"], [" ", "up"], ["ag", "es"], ["o", "int"], ["f", "unction"], ["a", "is"], [" ", "\u041e"], ["\u3067", "\u3042"], ["2", "8"], [" h", "ave"], ["uf", "fer"], ["o", "f"], ["\u00e9", "es"], [" f", "inal"], ["\u307e", "\u305f"], [" ", "\u0418"], [" t", "ype"], [" stat", "ic"], ["on", "d"], [" ass", "ert"], [" s", "ich"], [" s", "c"], ["P", "ath"], [" b", "ut"], ["on", "n"], [" }", ");"], ["re", "d"], [":", "//"], [" ", "id"], [" o", "u"], ["s", "c"], [" for", "m"], ["C", "lient"], ["\u7814", "\u7a76"], ["n", "ew"], [" V", "er"], [" ", "X"], ["pr", "int"], ["Re", "quest"], ["\u043d\u043e", "\u0432"], ["L", "e"], ["C", "om"], ["c", "lient"], ["\u043f", "\u0430"], ["\u4f5c", "\u54c1"], ["if", "f"], [" \u043c", "\u043e"], ["w", "ork"], [" ", "\u0437"], [" p", "e"], ["il", "le"], ["\u30e9", "\u30a4"], ["o", "h"], ["m", "d"], ["un", "e"], [" ", "\u0442\u0430"], ["    ", "  "], ["\u00e8", "s"], ["T", "he"], ["lo", "ad"], ["M", "ap"], ["ra", "ph"], [" m", "an"], ["Ex", "ception"], [" ", "\u0441\u0442"], ["c", "ol"], ["f", "l"], ["c", "ord"], ["\u043d\u0430", "\u044f"], [" v", "al"], [" B", "e"], ["I", "S"], [" ", ";"], [" ", "Y"], ["\u043d", "\u0443"], [" p", "os"], ["\u4e2d", "\u570b"], [" ", ");"], ["T", "est"], [" u", "se"], [" h", "as"], ["\u043c", "\u0443"], ["at", "s"], ["w", "are"], ["\u7b2c", "\u4e00"], ["K", "ey"], [" in", "ter"], ["m", "b"], ["con", "d"], ["\u0435\u0442", "\u0441\u044f"], ["l", "and"], ["ic", "s"], ["u", "al"], ["ve", "c"], ["T", "ime"], ["6", "0"], ["\u0440\u043e", "\u0434"], [" D", "ie"], ["E", "qual"], ["p", "ack"], ["\u30c6", "\u30a3"], ["********", "********"], ["\u9078", "\u624b"], ["\u043d", "\u044f"], ["\u0442", "\u044b"], [" \u043c", "\u0435"], ["t", "es"], ["\u0441\u043a\u0430", "\u044f"], [" Th", "is"], [" o", "b"], ["\u0446\u0438", "\u0438"], ["ap", "i"], ["H", "e"], [" ", "key"], ["ce", "pt"], ["g", "o"], [" \u0440\u0430", "\u0437"], [" p", "h"], [" tr", "ans"], [" re", "quest"], [" L", "a"], ["]", ";"], ["in", "ter"], [" t", "ime"], ["\u4eba", "\u53e3"], ["it", "t"], ["ent", "s"], ["\u043b", "\u0435\u043d"], ["D", "E"], ["\u0441", "\u0443"], ["ag", "er"], ["\uff08", "+"], ["\u0449", "\u0435"], [" s", "ont"], [" l", "og"], ["In", "fo"], ["w", "w"], [" und", "er"], [" s", "on"], ["[", "\""], ["]", ")"], ["htt", "p"], [" s", "ub"], [" \u00e9", "t"], ["n", "o"], ["at", "ure"], ["2", "6"], ["cc", "ess"], ["\u7f8e", "\u570b"], ["A", "S"], ["\u30b3", "\u30f3"], ["ri", "e"], ["I", "m"], ["N", "ew"], ["U", "L"], [" ", "Q"], ["\u0441", "\u0441\u0438"], [" l", "ist"], [" com", "p"], ["a", "ft"], ["M", "E"], ["I", "ON"], ["C", "T"], ["la", "ce"], ["a", "ction"], ["\"", ";"], ["a", "f"], [" +", "="], [" ", "\u00bb"], [" con", "s"], ["p", "en"], ["\u0435", "\u0432"], [" w", "ill"], ["\u0441\u0442\u0432", "\u0435\u043d"], ["er", "ver"], [" a", "m"], ["r", "en"], ["l", "ength"], ["\u0431", "\u0438"], ["2", "9"], [" d", "ist"], ["\u53ef", "\u80fd"], [" s", "u"], [" /", "**"], [" 19", "5"], ["and", "ler"], ["f", "il"], ["\u30fc", "\u30b9"], ["19", "4"], ["\u56fd", "\u5bb6"], [" \u043c", "\u0438"], ["----------------", "----------------"], ["p", "lay"], [" 1", "6"], ["\u043b", "\u044e"], [" s", "p"], [" g", "r"], ["co", "re"], [" ", "es"], ["it", "er"], ["ol", "d"], [" au", "ch"], ["E", "vent"], ["ation", "al"], [" ", "\u0424"], ["C", "lass"], ["Res", "ponse"], [" \u043a\u043e", "\u0442\u043e"], ["a", "hr"], ["ant", "s"], ["ir", "d"], [" ex", "p"], ["\u043a", "\u0442"], [" I", "S"], ["\u3067", "\u304d"], ["tt", "p"], [" s", "ch"], ["if", "y"], ["le", "ction"], ["u", "ild"], ["in", "es"], [" re", "g"], [" a", "p"], [" a", "vec"], ["C", "ol"], ["\u0437", "\u044b"], ["re", "g"], ["\u30d5", "\u30a1"], ["r", "on"], ["u", "i"], ["v", "ice"], ["\u0441", "\u043b\u0435"], ["el", "le"], ["v", "oid"], ["[", "]"], [" a", "d"], ["am", "m"], ["C", "H"], ["\n    ", "    "], ["res", "ult"], ["\u308c", "\u308b"], [" st", "d"], ["7", "8"], ["r", "ame"], ["E", "lement"], [" wur", "de"], [" C", "on"], [" ", "end"], ["Par", "am"], ["lo", "c"], ["l", "ine"], [" ", "\u201e"], ["el", "t"], ["ro", "ll"], [" \u0434", "\u0435"], ["re", "f"], ["}", ")"], [" E", "r"], ["a", "ire"], ["\u6587", "\u5316"], [" p", "rivate"], [" re", "quire"], [" \u043c", "\u0430"], ["a", "i"], ["\u043a", "\u0435"], ["\u30f3", "\u30c8"], ["\u0430\u043d\u0438", "\u044f"], ["<", "/"], ["R", "O"], ["\u00e9", "n"], ["V", "iew"], ["es", "ch"], [" ch", "ar"], ["\",", "\""], ["c", "reate"], [" o", "bject"], ["\u30b8", "\u30e3"], [" c", "o"], [" e", "xt"], ["i", "ques"], ["G", "roup"], [" \u0431", "\u043e"], ["\u5171", "\u548c"], ["in", "dex"], ["ain", "er"], [" a", "c"], ["v", "id"], ["\u5927", "\u5b66"], ["con", "fig"], ["St", "atus"], ["oc", "ument"], ["us", "h"], ["en", "c"], ["L", "og"], [" s", "pec"], ["ri", "d"], ["S", "h"], ["\t\t", "\t\t"], ["\u53ef", "\u4ee5"], ["b", "ar"], [" (", "!"], ["m", "ap"], ["W", "ith"], ["\u4e3b", "\u8981"], [" a", "ct"], [" h", "is"], ["a", "ke"], ["3", "3"], [" 1", "5"], ["pt", "y"], [" p", "ol"], ["T", "h"], ["U", "p"], ["ut", "ion"], ["ain", "s"], ["\u5e74", "\u4ee3"], ["\u00fc", "ber"], [" v", "ersion"], ["com", "m"], ["d", "i"], ["ib", "le"], ["\u043a\u043e", "\u0432"], ["po", "int"], ["\u0432", "\u043b\u044f"], ["cri", "pt"], ["al", "t"], ["/", "**"], ["ay", "s"], [" im", "p"], [" \u0432", "\u0435"], [" \u043f\u043e", "\u0434"], [" st", "r"], ["pect", "ed"], ["m", "an"], ["\u90e8", "\u5206"], ["at", "ive"], ["m", "od"], ["In", "dex"], [" als", "o"], ["ung", "s"], [" P", "ar"], ["lo", "at"], ["ig", "en"], ["8", "0"], ["l", "en"], ["\u043d\u043e", "\u0435"], [" ", "\u043d\u043e"], [" c", "ase"], [" o", "ther"], [" re", "l"], ["a", "z"], [" w", "er"], ["\u0444", "\u0438"], ["ft", "ware"], ["et", "er"], ["T", "ext"], ["le", "te"], ["\u304c", "\u3042\u308b"], [" ", "\u0447\u0435"], ["d", "ition"], ["ess", "ion"], [" ", "us"], ["\u043d\u044b", "\u043c"], ["\u30b9", "\u30bf"], ["\u5b58", "\u5728"], ["lo", "se"], ["ord", "er"], ["..", "."], ["an", "c"], [" l", "en"], [" w", "ere"], ["\u3055\u308c", "\u3066\u3044\u308b"], ["19", "5"], [" \u0438", "\u0441"], ["\u0441\u043a\u0438", "\u0445"], ["\u3053", "\u308c"], ["4", "0"], ["P", "E"], ["t", "ime"], ["\u0441\u0442", "\u0432\u0430"], ["j", "son"], [" dur", "ch"], ["\u51fa", "\u751f"], ["id", "th"], ["\u30b7", "\u30e7\u30f3"], ["k", "en"], ["u", "se"], ["M", "essage"], ["S", "ervice"], ["A", "l"], ["e", "p"], ["\u30ab", "\u30fc"], [" par", "am"], ["S", "ize"], ["\u00fc", "n"], [" T", "r"], ["t", "re"], ["ub", "le"], ["a", "us"], ["c", "re"], ["3", "5"], [" wer", "den"], ["\u306b\u3088", "\u308b"], ["f", "ter"], ["y", "le"], ["M", "an"], [" ", "user"], ["ch", "t"], ["im", "it"], ["iv", "ers"], ["\n", "\n           "], ["\u306b", "\u304a"], ["\u307e", "\u3067"], ["\n ", "\n "], [" ", "?"], [" j", "ava"], ["ic", "es"], ["Con", "text"], ["N", "ode"], ["\u9999", "\u6e2f"], ["O", "ver"], [" a", "v"], ["/", "*"], ["\uff08", "*"], ["le", "t"], ["it", "em"], ["I", "tem"], [" l", "o"], [" ", "il"], ["F", "ield"], ["\u043e", "\u0431"], ["\u30c6", "\u30ec"], ["}", ";"], ["al", "s"], ["et", "a"], [" (", ")"], ["(", "{"], ["it", "le"], [" l", "ang"], ["ri", "de"], ["ar", "s"], ["c", "ase"], ["\u043c", "\u044b"], ["L", "O"], [" p", "er"], ["\u901d", "\u4e16"], ["h", "en"], ["\u0433", "\u0440\u0430"], ["In", "t"], ["err", "or"], [" on", "e"], ["d", "b"], ["\u4e16", "\u7d00"], ["v", "ol"], [" f", "ield"], ["n", "ing"], [" c", "all"], ["O", "n"], ["ole", "an"], ["\u4e2d", "\u592e"], ["o", "ff"], ["A", "P"], ["f", "ield"], ["\n                    ", "        "], ["\u6f2b", "\u753b"], ["rib", "ute"], ["mo", "ve"], ["lo", "b"], ["c", "ent"], ["\u3001", "\u300c"], ["\u3063", "\u3066\u3044\u308b"], ["h", "or"], ["\u0451", "\u043d"], ["\u7f8e", "\u56fd"], [" of", "f"], [" u", "sed"], ["\u7684", "\u306a"], [" \u0447", "\u0442\u043e"], ["ra", "w"], ["\u30f3", "\u30c9"], ["I", "I"], [" f", "irst"], [" p", "ath"], ["ra", "g"], ["cri", "ption"], ["r", "c"], [" m", "ay"], ["yp", "es"], ["o", "ver"], ["am", "ple"], ["ur", "ation"], ["3", "8"], ["on", "s"], ["v", "iew"], ["au", "x"], ["\u30ea", "\u30ab"], ["\u043f", "\u0443"], ["v", "en"], ["a", "w"], ["========", "========"], ["in", "it"], [" at", "t"], ["B", "N"], ["=", "'"], ["\u5e74", "\u306b"], [" b", "ase"], ["in", "fo"], ["ist", "er"], [" E", "x"], ["o", "us"], ["s", "ub"], ["M", "L"], ["\u00e4", "t"], [" t", "e"], ["he", "ck"], ["t", "il"], ["um", "e"], ["ic", "an"], [" G", "r"], ["19", "6"], ["\u4e00", "\u4e2a"], ["U", "ser"], [" r", "ange"], [" in", "d"], ["es", "e"], [" con", "fig"], [" a", "g"], [" pro", "du"], ["\u30d0", "\u30fc"], ["i", "ert"], ["pert", "y"], [" S", "p"], ["w", "ord"], ["at", "ur"], ["B", "o"], ["u", "il"], ["F", "or"], ["val", "id"], [" s", "ind"], ["is", "m"], ["le", "m"], ["ment", "s"], ["ul", "ar"], ["ith", "ub"], ["0", "6"], ["\u958b", "\u59cb"], [" \u0442\u0430", "\u043a"], ["3", "4"], ["O", "S"], [" d", "ies"], [" o", "der"], ["a", "pt"], [" n", "ach"], ["Qu", "ery"], [" t", "ext"], [" l", "oc"], ["e", "qual"], ["\u4ee3", "\u8868"], ["en", "e"], [" ", "\u0441\u0442\u0430"], ["N", "ot"], ["d", "ir"], [" m", "on"], ["3", "9"], ["am", "p"], [" \u0441", "\u0438"], ["in", "ed"], [" n", "om"], [" ", "\u00fcber"], ["ob", "ject"], ["app", "end"], ["v", "ert"], [" 1", "2"], [" N", "one"], [")", "{"], ["C", "omm"], ["3", "1"], [" _", "_"], [" s", "a"], ["i", "um"], [" s", "ize"], ["s", "g"], [" th", "row"], ["\u0435\u043d", "\u0442"], [" c", "ent"], [" be", "i"], ["w", "o"], [" st", "ate"], ["og", "le"], [" wh", "en"], [" w", "ird"], ["\u2014", "\u2014"], ["\u30b9", "\u30c6"], ["m", "odel"], ["\u0448", "\u0435"], ["\u4ee5", "\u53ca"], ["n", "ot"], [" m", "ethod"], [" m", "ore"], ["\u30c6\u30ec", "\u30d3"], ["E", "D"], ["3", "7"], ["\u0443", "\u043c"], ["a", "e"], [" t", "em"], [" \u043f", "\u0435\u0440\u0435"], ["\u5305", "\u62ec"], ["co", "pe"], ["C", "ode"], ["ro", "l"], ["yn", "c"], ["u", "is"], ["\u3053\u3068", "\u304c"], [" \u0441", "\u043e\u0432"], ["c", "all"], ["3", "6"], ["\u0434", "\u044b"], [" c", "l"], ["\u043d\u043e", "\u043c"], ["ol", "l"], [" ein", "er"], [" G", "et"], ["ne", "ction"], [" sh", "ould"], ["\u5176", "\u4ed6"], ["A", "t"], ["at", "ic"], [" A", "b"], ["iz", "ed"], ["I", "P"], [" c", "e"], [" m", "in"], [" an", "y"], [" \u0433\u043e", "\u0434\u0430"], ["i", "et"], ["\u4e3b", "\u7fa9"], ["f", "e"], ["\u6642", "\u4ee3"], [" de", "fault"], ["A", "B"], [" p", "as"], ["d", "is"], ["\u305d", "\u308c"], [" bo", "ol"], ["\"", "]"], [" \u043f\u0440\u0435", "\u0434"], ["ener", "al"], ["c", "le"], [" H", "e"], [" ", "\u043b\u0438"], [" ", "\u0446"], ["fo", "re"], ["\u30de", "\u30f3"], [" con", "text"], [" n", "icht"], [" it", "s"], ["a", "de"], [" M", "ar"], ["\u30ea", "\u30a2"], ["ut", "ton"], ["g", "ithub"], ["\u653e", "\u9001"], ["i\u00e8", "re"], ["E", "S"], ["d", "o"], [" st", "ruct"], ["r", "\u00e9"], ["\u4e2d", "\u5fc3"], ["ra", "ct"], ["us", "s"], ["\u30d5", "\u30a3"], ["p", "end"], ["b", "ase"], ["d", "es"], ["\u304a", "\u308a"], ["g", "l"], ["pack", "age"], ["et", "te"], [" ", "\n\n"], ["F", "il"], ["\u0437", "\u043e"], [" ", "\u0440\u043e"], ["is", "ion"], ["\u7b2c", "\u4e8c"], ["pl", "ate"], ["'", ";"], ["A", "D"], ["\u043c", "\u044f"], ["T", "T"], ["\u043d\u043e", "\u0441\u0442\u0438"], ["act", "ory"], ["\u0432\u043e", "\u0439"], [" A", "mer"], ["\u306b\u3088", "\u3063\u3066"], ["\u793e", "\u4f1a"], [" re", "t"], [" com", "me"], [" 1", "1"], ["ames", "pace"], [" \u043f", "\u0440\u0430"], [" z", "ur"], ["\u30a2", "\u30e1"], ["\u3067", "\u3082"], [" \u043a\u0430", "\u043a"], ["ig", "h"], [" T", "est"], ["el", "s"], ["o", "se"], ["st", "ate"], ["\u0430", "\u043b\u044c"], ["\u767b", "\u5834"], ["\u043d\u043e", "\u0441\u0442\u044c"], [" \u0434", "\u043b\u044f"], [" c", "lient"], ["st", "art"], [" h", "ttp"], [" ", "\u0445"], ["b", "en"], ["\u00e9", "c"], ["I", "s"], [" f", "ol"], ["\u30ec", "\u30fc"], ["}", ");"], ["en", "n"], ["\u30ad", "\u30e3"], ["id", "ent"], ["ro", "p"], ["S", "ON"], ["Ar", "ray"], ["Over", "ride"], ["um", "n"], ["ers", "ch"], ["\u0440\u0438", "\u0438"], ["A", "pp"], ["\u30b5", "\u30fc"], ["\u30ed", "\u30fc"], ["et", "ers"], ["l", "ink"], [" p", "erm"], [" \u0441", "\u0443"], ["v", "ersion"], [" b", "re"], ["o", "ot"], [" se", "in"], [" ", "\u042d"], [" N", "ew"], [" the", "ir"], ["\u0430\u043d\u0438", "\u0435"], ["el", "y"], ["o", "y"], [":", "\""], ["\u30c3", "\u30d7"], ["I", "L"], ["\u0441\u043a\u0438", "\u0435"], [" ", "um"], ["t", "he"], ["it", "ch"], ["a", "pe"], ["\u0435", "\u0441"], ["\u306b\u3088", "\u308a"], [" I", "t"], ["S", "c"], ["f", "ind"], ["\u30a2\u30e1", "\u30ea\u30ab"], ["\u5176", "\u4e2d"], ["\u4eba", "\u7269"], [" st", "art"], ["iss", "ion"], [" e", "vent"], ["C", "ount"], ["in", "c"], ["Tr", "ans"], ["\u6559", "\u80b2"], ["\u30b2", "\u30fc\u30e0"], ["S", "ub"], ["s", "w"], [" re", "p"], [" I", "f"], ["f", "in"], ["V", "al"], [" 1", "4"], ["C", "O"], ["\u0442\u043e", "\u0432"], ["\u0433", "\u0443"], ["A", "ction"], [" J", "ahr"], ["7", "0"], ["\u00bb", "."], ["\u00f6", "n"], ["or", "ld"], ["ch", "n"], ["and", "le"], ["\n                    ", "       "], ["\u0432", "\u044f"], [" b", "et"], ["ul", "es"], [" \u041f", "\u043e"], [" \u044d", "\u0442\u043e"], ["C", "E"], ["gr", "am"], ["\u5168", "\u56fd"], ["\u0441\u0442", "\u0440\u043e"], [" ", "check"], [" c", "urrent"], [" I", "l"], ["Res", "ult"], ["port", "s"], ["\u3088", "\u308a"], ["\u4e00", "\u822c"], ["\u0446", "\u0430"], [" l", "ong"], [" \u043a\u043e", "\u043d"], ["Tr", "ue"], ["n", "ect"], ["Ar", "g"], [" ", "arg"], [" on", "ly"], ["\u0432", "\u0435\u0440"], [" u", "int"], ["o", "ptions"], ["\u30b7", "\u30e3"], [" C", "om"], [" ", "\\"], ["\u308c", "\u305f"], ["he", "d"], [" b", "is"], ["st", "d"], ["form", "at"], ["{", "}"], ["\u5b66", "\u8005"], ["W", "indow"], ["\u00f6", "r"], ["lic", "k"], ["re", "quest"], ["if", "ied"], ["ist", "e"], [" T", "e"], ["m", "en"], ["V", "ersion"], ["\u5834", "\u5408"], ["i", "ge"], [" \u043f", "\u0435\u0440"], [" L", "es"], ["\u30c1", "\u30e3"], ["ct", "x"], ["O", "ut"], ["////////", "////////"], ["if", "t"], ["ir", "t"], ["E", "T"], [" ", "\uff08"], ["pon", "ent"], ["ot", "h"], [" p", "op"], [" m", "ap"], ["\u30e9", "\u30fc"], ["9", "9"], ["N", "U"], [" v", "or"], ["ist", "s"], ["\u5e74", "\u51fa\u751f"], ["P", "os"], ["F", "orm"], ["Res", "ource"], ["tr", "y"], ["h", "n"], ["A", "ut"], ["\u5730", "\u533a"], ["\u0436", "\u0434"], ["\"", ")."], [" m", "et"], [" \u043e", "\u0441"], [" }", ";"], [" au", "x"], ["li", "ed"], ["AN", "T"], ["O", "T"], ["de", "fault"], ["\u51fa", "\u7248"], ["\u5e74", "\u901d\u4e16"], ["ug", "in"], ["\u306a", "\u304f"], [" c", "reate"], [" S", "o"], ["\u73fe", "\u5728"], ["\u91ce", "\u7403"], ["n", "own"], ["P", "C"], ["\u0434\u0430", "\u0440"], ["re", "p"], ["o", "in"], [" re", "ad"], [" be", "en"], ["\u0436", "\u0430"], ["b", "uf"], ["l", "t"], [" s", "er"], ["####", "####"], [" h", "ad"], ["rit", "er"], ["\u30a6", "\u30a7"], ["\u30fc", "\u30b8"], [" res", "ponse"], [" E", "in"], ["i", "ct"], ["vel", "op"], ["]", "["], [" e", "m"], ["Man", "ager"], ["c", "urrent"], [" p", "ass"], ["n", "ode"], ["by", "te"], [" c", "opy"], ["\u30fc", "\u30d7"], ["st", "atus"], ["\u043a", "\u0430\u043d"], ["op", "h"], ["IN", "G"], ["\u30a2", "\u30eb"], [" ma", "x"], ["\u0442\u043e", "\u0440"], [" \u0440\u0430", "\u0441"], [" p", "ers"], ["in", "put"], ["\u201d", "\u3002"], ["w", "ard"], ["am", "b"], ["\u0431", "\u0440\u044f"], ["\u300b", "\uff0c"], ["D", "es"], ["o", "pe"], ["ri", "st"], [" f", "ran"], [" o", "ver"], ["\u3067\u304d", "\u308b"], ["A", "d"], [" g", "roup"], ["'", ")."], ["at", "ing"], ["O", "f"], ["t", "ot"], ["\u5171\u548c", "\u56fd"], [" ", "url"], [" A", "N"], ["ust", "om"], ["\u3067\u3042", "\u308a"], ["6", "5"], [" ", "\u0447\u0430"], ["\u043e", "\u043d\u0430"], [" n", "umber"], ["\u3051", "\u308b"], ["g", "roup"], ["P", "l"], ["li", "chen"], ["\"", "},"], ["A", "s"], ["{", "\""], ["\u3068", "\u306e"], [" dist", "ribut"], ["\u043f", "\u0440\u0435"], ["\u7684", "\u306b"], ["\u044e", "\u0449\u0438"], ["ign", "ed"], ["cl", "ud"], ["\u3089\u308c", "\u308b"], ["o", "is"], ["o", "ch"], ["(", "("], ["A", "G"], ["\n                    ", "                "], [" y", "ou"], ["A", "tt"], ["o", "ol"], ["L", "o"], [" n", "ode"], ["\u306a\u3069", "\u306e"], [" ", "\u0425"], ["\u043b", "\u0435\u043d\u0438\u044f"], [" t", "ro"], [" IS", "BN"], ["0", "4"], ["v", "o"], ["\u043b\u043e", "\u0433\u0438"], ["lay", "er"], ["\u91cd", "\u8981"], [" ma", "ke"], ["D", "is"], ["C", "heck"], [" \u0444", "\u0438"], [" ", "\u0417"], ["\u0442\u0438", "\u0447\u0435"], ["\u904b", "\u52d5"], [" in", "it"], ["e", "vent"], ["B", "e"], ["\u30d5", "\u30c8"], ["\u3057", "\u3066\u3044\u305f"], ["St", "ream"], ["oc", "i"], ["sch", "aft"], ["H", "E"], ["O", "r"], ["an", "k"], [" ", "\u0440\u0443"], ["EN", "T"], [" d", "irect"], ["\u5229", "\u7528"], ["I", "G"], ["\u30d5", "\u30a9"], ["en", "ame"], ["iv", "en"], ["p", "ress"], ["\u4e2d", "\u7684"], ["st", "er"], ["r", "ic"], ["alle", "d"], ["t", "s"], ["\u00e9", "g"], ["\u304b", "\u3063\u305f"], ["able", "d"], [" f", "a"], ["M", "P"], ["p", "y"], [" l", "ine"], ["H", "O"], ["f", "ix"], ["\u5f71", "\u97ff"], [" \u0441", "\u0432\u043e"], ["\u043a", "\u0441"], ["\u00bb", ","], ["Re", "g"], ["roll", "er"], ["\u30fc", "\u30af"], ["\u767a", "\u58f2"], ["le", "g"], ["ou", "se"], [" m", "em"], ["\u0440\u0438", "\u044f"], ["con", "text"], ["\u00e4", "r"], [" pre", "m"], ["m", "a"], ["\u570b", "\u5bb6"], [" \u0438", "\u043d"], [" (", "*"], [" \u0442\u0430\u043a", "\u0436\u0435"], ["'", "t"], ["ar", "b"], ["\u0446\u0438", "\u044f"], ["\"", "),"], ["D", "O"], [" \u041a", "\u0430"], ["1", "00"], ["pt", "r"], [" \u041d", "\u0430"], ["ate", "g"], [" \u0420", "\u043e"], [" p", "oint"], [" in", "to"], ["C", "K"], ["\u57ce", "\u5e02"], [" P", "l"], ["4", "8"], ["U", "N"], ["tern", "al"], [" a", "fter"], ["7", "5"], ["\u0434", "\u043e\u0432"], [" c", "or"], ["form", "ation"], ["ow", "er"], ["\u4e8b", "\u4ef6"], ["s", "i"], ["au", "se"], ["\u81ea", "\u7531"], ["F", "actory"], ["uil", "der"], ["ile", "d"], ["\n            ", " "], ["\u043c", "\u0435\u0440"], [" n", "on"], ["m", "ax"], ["ff", "ect"], ["ser", "v"], ["M", "O"], ["un", "k"], ["00000000", "00000000"], [" ", "\u0415"], [" o", "ptions"], [" \u0433\u043e", "\u0434\u0443"], ["ou", "g"], [" un", "ter"], ["f", "ul"], ["p", "an"], ["\u0436", "\u0435\u043d"], ["\u79d1", "\u5b66"], ["\u0431", "\u0430"], [" p", "ort"], [" w", "ork"], [" f", "unc"], ["P", "r"], ["\u300d", "\uff08"], ["\u4e00", "\u500b"], ["\u4e0d", "\u540c"], ["m", "et"], ["ist", "ory"], [" I", "m"], ["\u201d", "\uff0c"], ["9", "0"], [" G", "e"], ["og", "raph"], ["ur", "es"], [" pr", "int"], ["\u516c", "\u53f8"], ["\u306b", "\u5bfe"], [" P", "h"], [" tr", "y"], [" \u043f", "\u0430"], ["\u30a4", "\u30c8"], [" \u0430", "\u0432"], [" z", "um"], ["it", "or"], ["\n", "\n\t\t"], [" \u0441", "\u0435"], ["In", "ter"], ["et", "s"], [" 2", "4"], ["\u3048", "\u308b"], [" =", "=="], ["E", "X"], [" F", "l"], ["re", "t"], [" d", "et"], ["m", "y"], [" e", "lement"], ["UR", "L"], ["\u6c11", "\u65cf"], [" bre", "ak"], ["et", "urn"], [" in", "stance"], ["En", "d"], ["'", "),"], ["\u5730", "\u65b9"], ["\u300f", "\uff08"], [" c", "ode"], [" f", "ound"], [" R", "eg"], ["u", "id"], ["r", "al"], ["\u043b", "\u0430\u043d"], ["\u30b7", "\u30e5"], ["z", "en"], [" n", "um"], ["od", "es"], [" /", "*"], ["in", "ce"], ["em", "a"], ["\u0448", "\u0430"], ["\u00fc", "hr"], ["\u00e9", "ri"], [" p", "ub"], ["B", "ase"], ["\u0442\u0438", "\u0432"], ["\u30a4", "\u30eb"], ["4", "5"], ["6", "8"], ["\u0451", "\u0440"], ["\u3068", "\u3082"], ["g", "le"], ["y", "m"], ["tr", "ans"], ["\u6771", "\u4eac"], ["\u81ea", "\u5df1"], ["UL", "L"], ["D", "ie"], ["or", "est"], [" r", "est"], ["io", "us"], [" ", "args"], ["ur", "g"], ["ot", "her"], [" de", "ux"], [" m", "essage"], ["ad", "t"], [" F", "r"], [" \u043a\u043e\u0442\u043e", "\u0440\u044b"], ["M", "odel"], [" \u043a\u043e", "\u043c"], ["\u8868", "\u793a"], [" G", "eneral"], [" F", "ran"], [" t", "erm"], [" \u0432\u043e", "\u0437"], ["\u5317", "\u4eac"], ["\u30c7", "\u30fc"], ["\u306b\u304a", "\u3044\u3066"], [" \u0441", "\u0430"], ["\u30ea", "\u30f3"], ["L", "a"], ["200", "0"], ["m", "at"], ["se", "l"], ["pt", "s"], ["\u0437", "\u0443"], ["(", "&"], ["(", "*"], ["\u306b", "\u3064"], ["\u56e0", "\u6b64"], ["our", "s"], ["it", "ies"], ["H", "andler"], ["\u5e1d", "\u56fd"], ["\u043b", "\u0441\u044f"], [" th", "an"], ["ww", "w"], [" f", "in"], ["\u6210", "\u7acb"], [" s", "ign"], ["ke", "it"], ["print", "f"], ["\u00e9", "d"], ["is", "hed"], [" o", "s"], [" h", "at"], ["pro", "to"], ["T", "R"], [" m", "atch"], [" \u041c", "\u0430"], ["id", "get"], ["fer", "ence"], ["\u5b97", "\u6559"], ["c", "ed"], ["ra", "ck"], ["\n\t\t\t\t\t", "\t"], ["A", "ll"], ["assert", "Equal"], ["u", "age"], ["\u300b", "\uff08"], ["F", "rom"], [" in", "dex"], ["f", "s"], [" =", ">"], ["ge", "b"], ["ug", "h"], ["p", "c"], ["\u5efa", "\u7acb"], ["lic", "ation"], ["0", "5"], ["\u6f14", "\u54e1"], ["\u4f5c", "\u5bb6"], ["re", "q"], ["end", "en"], ["\u30a4", "\u30b9"], [" c", "ount"], ["res", "ent"], ["\u7ecf", "\u6d4e"], [" f", "e"], ["\"", "."], ["st", "en"], [" ", "util"], ["li", "che"], [" pol", "it"], ["\u3068\u306a", "\u308b"], ["\u3067\u3042", "\u3063\u305f"], [" Amer", "ican"], ["im", "age"], ["p", "art"], ["\u0438", "\u0437"], ["n", "um"], ["or", "n"], [" c", "re"], [" P", "ublic"], ["\u043d\u0438", "\u043a"], ["z", "t"], [" s", "ie"], [" S", "h"], ["ri", "x"], ["ah", "l"], ["b", "r"], ["M", "od"], ["Error", "f"], [" m", "odel"], ["opy", "right"], ["ab", "les"], [" f", "mt"], ["\u0445", "\u0430"], [" g", "ro"], [" it", "em"], ["\u30d7\u30ed", "\u91ce\u7403"], ["L", "oc"], [" L", "ist"], ["\u7684", "\u4e00"], ["\u3078", "\u306e"], [" d", "ass"], ["\u591a", "\u304f"], [" g", "en"], ["go", "ogle"], ["p", "ush"], ["\u00e8", "re"], ["\u59d4", "\u5458"], [" \u0435", "\u0433\u043e"], ["o", "te"], ["s", "l"], [" ", "\u0423"], ["\u81fa", "\u7063"], [" _", ","], ["u", "er"], ["ul", "ation"], ["\u0433\u043e", "\u0434\u0430"], ["\u0441\u0443", "\u0434\u0430\u0440"], ["5", "5"], [" O", "R"], ["\u306b", "\u3082"], [" th", "ere"], ["\u043a", "\u0440\u0430"], ["\u5e74", "\u306e"], [" A", "m"], ["ific", "ation"], ["i", "ers"], ["are", "d"], ["\u30c0", "\u30fc"], ["end", "s"], ["\u884c", "\u653f"], ["ht", "ml"], ["ell", "es"], ["\u30bd", "\u30d5\u30c8"], [" \u0430", "\u0440"], ["d", "iv"], ["p", "rivate"], [" in", "put"], [" w", "ie"], [".", ","], ["\u3068\u306a", "\u3063\u305f"], ["\u00e9", "l"], ["\u3067", "\u306e"], ["\u4e2d", "\u83ef"], [" \u0432", "\u0440\u0435"], ["w", "rite"], [" in", "s"], ["Comm", "and"], [" D", "er"], ["\u0437", "\u043d\u0430"], ["\u044e\u0442", "\u0441\u044f"], ["h", "al"], ["\u6b4c", "\u624b"], [" bo", "olean"], ["\u0433", "\u0435"], [" t", "arget"], ["O", "ff"], ["V", "er"], ["\u3044", "\u305f"], ["\u554f", "\u984c"], ["\u0443", "\u0440"], [" A", "d"], ["\u0431", "\u043b\u0438"], ["\u0431", "\u0435"], ["up", "date"], ["o", "ire"], ["\u9244", "\u9053"], ["m", "ain"], ["\u043f", "\u0440\u043e"], [" m", "us"], [" in", "st"], ["\u0435\u043d", "\u0430"], [" re", "cord"], ["++", ")"], [" ", "ed"], ["U", "til"], ["c", "al"], ["\u6210", "\u4e3a"], ["bo", "x"], [" the", "y"], ["n", "en"], [" g", "ener"], [" \u0438", "\u043c"], [" ein", "em"], [" ma", "is"], ["ut", "s"], ["il", "ity"], ["In", "put"], ["ob", "j"], ["Up", "date"], ["F", "A"], ["q", "l"], [" wh", "ile"], ["c", "p"], ["\u0441", "\u043a"], ["en", "ces"], ["\u043b", "\u044b"], [" h", "er"], [" part", "ic"], ["O", "ptions"], ["lag", "s"], ["\u0449", "\u0430"], ["\u4e4b", "\u4e00"], ["\u6b63", "\u5f0f"], ["or", "age"], ["\u3059\u308b", "\u3053\u3068"], ["f", "mt"], ["re", "ich"], ["An", "d"], [" \u043f", "\u0438"], [" ent", "re"], ["g", "t"], [" ", "\u0436\u0438"], [" r", "un"], ["iv", "ed"], ["\u3057", "\u304b"], ["ens", "ion"], [" \u0412", "\u043e"], ["an", "e"], [" E", "ur"], ["C", "reate"], [" pr", "\u00e9s"], ["N", "A"], ["7", "7"], ["o", "ve"], ["\u0432", "\u0448\u0438"], ["oh", "n"], [" G", "NU"], [" O", "r"], ["B", "uffer"], [" s", "uch"], ["tr", "ue"], ["en", "v"], ["\u30a2", "\u30cb"], ["l", "in"], ["t", "ings"], ["at", "tern"], ["k", "g"], ["\u6c11", "\u4e3b"], ["ar", "m"], ["\u30b8", "\u30a7"], [" a", "cc"], ["\u0435\u043d", "\u044c"], ["Add", "ress"], ["\u043b\u0438", "\u0441\u044c"], ["ne", "xt"], [" P", "r"], ["he", "l"], ["\u5b78", "\u5bb6"], [" s", "ource"], ["9", "8"], ["ser", "ver"], ["\u6642", "\u9593"], ["L", "abel"], [" c", "ar"], [" ", "--"], ["\u0434", "\u0435\u0440"], [" in", "clud"], ["bo", "ol"], ["et", "work"], ["i", "ver"], ["l", "ie"], [" d", "iff"], [" \u0431\u044b", "\u043b"], [" t", "wo"], ["\u4ed6", "\u7684"], ["\u53f0", "\u7063"], ["our", "ces"], ["C", "P"], ["\u3068", "\u547c"], ["m", "atch"], [" an", "n"], ["_", "."], ["pos", "ition"], ["re", "move"], ["\u81ea", "\u7136"], [" s", "ome"], ["\u0441\u0442\u043e", "\u044f"], [" s", "ystem"], ["ist", "or"], ["He", "ader"], ["ri", "es"], ["pl", "it"], ["\u0431", "\u044b"], ["c", "ast"], ["b", "all"], ["h", "ost"], [" ", "\u300e"], ["\u30ea", "\u30b9"], ["\u30fc", "\u30f3"], ["an", "te"], ["\u7687", "\u5e1d"], ["E", "m"], ["\u9769", "\u547d"], ["ith", "er"], ["N", "E"], ["er", "k"], ["is", "me"], [" re", "f"], ["w", "n"], ["\u30eb", "\u30c8"], ["\u0442\u0435", "\u0440"], ["lob", "al"], ["Re", "ad"], ["\u6620", "\u753b"], [" O", "F"], ["m", "es"], ["M", "M"], ["\\", "\""], [" \u041a", "\u043e"], ["a", "ir"], [" m", "ain"], ["it", "al"], ["\u958b", "\u767a"], ["at", "al"], ["\u3088\u3046", "\u306b"], ["\u65b9", "\u5f0f"], ["y", "th"], ["par", "se"], ["\u30d5", "\u30e9\u30f3"], [" distribut", "ed"], ["\u0437", "\u043e\u0432"], ["qu", "ery"], ["o", "ok"], ["\u4ee5", "\u4e0a"], [" im", "age"], ["9", "5"], ["P", "O"], ["\u300d", "\uff0c"], ["L", "ine"], ["ction", "s"], ["iz", "ation"], ["\u57fa", "\u672c"], ["\u5f00", "\u59cb"], [" v", "ol"], [" sup", "er"], [" val", "id"], ["\u30af", "\u30c8"], [" y", "e"], ["\u043b", "\u0435\u0442"], ["\u5927", "\u7684"], ["In", "stance"], ["\u0435\u043d\u0438", "\u0438"], [" or", "ig"], ["\"\"", "\""], ["U", "S"], ["st", "ell"], ["il", "os"], ["\n", "\n     "], ["\u300d", "\u3002"], ["\u751f", "\u7269"], ["pert", "ies"], ["6", "7"], ["\u30d7\u30ed\u91ce\u7403", "\u9078\u624b"], ["f", "ol"], ["la", "st"], ["\u6700", "\u9ad8"], ["s", "k"], ["and", "om"], ["r", "un"], [" S", "ystem"], ["te", "ger"], ["0", "8"], ["ct", "ed"], [" be", "c"], ["x", "y"], [" s", "es"], [" I", "N"], ["\u5f62", "\u6210"], ["v", "ed"], ["\u30d1", "\u30fc"], ["\u30af", "\u30bf\u30fc"], ["\u306b\u3064", "\u3044\u3066"], ["\u4e3b", "\u4e49"], ["\u0432\u0435", "\u0434"], ["\u3042", "\u308a"], [" \u0434", "\u0440\u0443"], ["\u00ea", "me"], ["\u8a8d", "\u70ba"], ["l", "n"], [" fran", "\u00e7"], ["ar", "i"], ["\u5e74", "\u7684"], ["al", "ement"], ["s", "o"], ["t", "able"], ["ch", "ar"], ["\u043f", "\u0440\u0430"], ["ot", "t"], ["\u30b0", "\u30e9"], [" \u0441\u043e\u0432", "\u0435\u0442"], ["ro", "id"], ["F", "F"], [" A", "us"], ["\u0441\u0441\u0438", "\u0439"], ["h", "as"], ["\u30a2", "\u30a4"], ["0", "7"], ["iv", "es"], [" ", "\u043a\u0438"], ["t", "x"], [" \u0441\u0442", "\u0440\u0430"], ["P", "ort"], ["j", "s"], ["e", "lement"], ["et", "e"], [" A", "uf"], [" m", "ost"], ["r", "ation"], ["\u3055", "\u305b"], ["ial", "og"], ["it", "ed"], ["(", "["], ["m", "essage"], ["\u0441\u0442", "\u0432\u0438"], ["is", "ation"], [" \u043e\u0431", "\u0440\u0430"], ["we", "en"], ["\u044f", "\u0431\u0440\u044f"], ["par", "ent"], [" des", "c"], ["\u0432\u043e", "\u0434"], ["c", "od"], ["\u306e", "\u4e00"], ["\u6210", "\u70ba"], [" o", "per"], ["ad", "ata"], [" \u044f", "\u0432\u043b\u044f"], ["\u043d\u0443", "\u044e"], ["D", "ate"], ["O", "b"], ["\u4e00", "\u4e9b"], ["B", "lock"], ["S", "erver"], ["res", "ource"], ["\u0430", "\u0442"], ["ir", "on"], [" l", "ib"], [" O", "n"], ["\u30ab", "\u30fc\u30c9"], [" \u0432", "\u0441\u0435"], ["se", "lect"], ["P", "re"], [" w", "rit"], ["ens", "ch"], ["b", "ody"], ["W", "rite"], ["a", "ine"], [" out", "put"], ["\u4e2d", "\u534e"], [" ", "\u043d\u0438"], ["\u043b\u0435", "\u0439"], ["ra", "d"], ["f", "g"], [" Se", "e"], [" comm", "un"], [" r\u00e9", "g"], ["*", "/"], [" res", "ource"], ["P", "I"], ["ail", "s"], ["\u7ba1", "\u7406"], ["T", "ag"], ["cont", "ent"], ["6", "6"], [" \u0433\u043e", "\u0440\u043e"], ["in", "ue"], ["\u4f8b", "\u5982"], [" d", "ocument"], [" ein", "en"], [" S", "et"], ["w", "h"], [" F", "or"], ["\u82f1", "\u570b"], ["\n    ", "\n   "], ["r", "l"], ["\u6240", "\u6709"], ["im", "er"], [" pro", "cess"], [" s", "im"], ["li", "b"], ["\u0435\u043d", "\u0435"], ["O", "P"], ["\u0440\u043e", "\u043c"], [" so", "ftware"], ["\u0434\u0438", "\u043d"], ["\u0445", "\u0438"], ["\u5b66", "\u6821"], ["test", "ing"], ["0", "9"], [" pro", "gram"], [" en", "v"], ["ch", "er"], [" be", "g"], ["\u65b9", "\u6cd5"], [" C", "opyright"], ["\u0440\u0435", "\u0434"], ["m", "ar"], ["al", "es"], ["b", "ind"], ["in", "ation"], ["ms", "g"], ["b", "it"], ["\u30c3", "\u30c9"], [" W", "e"], ["\u306b\u306a", "\u3063\u305f"], ["\u4e16", "\u7eaa"], [" b", "est"], ["\u30c3\u30af", "\u30b9"], ["ect", "or"], ["C", "all"], ["\u63d0", "\u4f9b"], ["st", "ruct"], ["ust", "er"], ["\u0441\u0442\u0432", "\u0443"], ["\u662d", "\u548c"], ["8", "8"], ["\u30a2", "\u30f3"], ["tot", "ype"], ["\u3068", "\u306f"], ["il", "it"], [" ", "ont"], ["\u043c\u0435", "\u0440\u0438"], ["\u0445\u043e", "\u0434\u0438"], ["\u043d\u044b", "\u043c\u0438"], [" pos", "s"], ["\u652f", "\u6301"], [" un", "it"], [" \u0432\u043e", "\u0439"], ["ar", "n"], ["ct", "or"], ["s", "u"], ["\u3092", "\u884c"], ["\u30ea\u30fc", "\u30ba"], ["ed", "e"], ["\u3088\u3046", "\u306a"], ["ann", "ot"], [" ne", "ed"], [" Tr", "ue"], ["s", "en"], ["AR", "R"], ["\u6642", "\u671f"], ["st", "ream"], [" g", "o"], ["\u0440\u0443", "\u043f"], ["b", "l"], ["\u0437", "\u0434"], [" th", "en"], ["S", "ystem"], [" \u0432", "\u0438"], ["A", "M"], ["\u043d\u0435", "\u0439"], ["\u7269", "\u7406"], [" C", "ol"], ["Im", "age"], ["\u65b9", "\u9762"], ["\u0441\u0442", "\u0443"], ["\u30af", "\u30e9"], [" \u043e", "\u0434"], [" ", "\u0427"], ["it", "es"], ["ol", "ic"], [" z", "w"], ["0", "2"], ["it", "u"], [" n", "ur"], ["\u043b\u043e", "\u0432"], ["\u6d3b", "\u52d5"], [" se", "cond"], ["\u0442", "\u0441\u044f"], [" comm", "and"], ["P", "oint"], [" ", "\u00c9"], ["er", "en"], [" f", "ind"], ["S", "ch"], ["Se", "lect"], ["\u3060", "\u3063\u305f"], ["at", "ab"], ["I", "B"], ["\u4f1a", "\u793e"], [" ", "right"], ["0", "3"], ["Cont", "ent"], ["\"", "`"], ["P", "ack"], [" \u043f\u043e", "\u0441\u043b\u0435"], ["****************", "****************"], [" s", "ol"], ["D", "ir"], ["N", "one"], ["\u30b7", "\u30b9\u30c6"], [">", "("], ["ro", "ugh"], ["id", "er"], ["ra", "p"], ["\u30b7\u30b9\u30c6", "\u30e0"], [" AN", "Y"], [" re", "ce"], ["ock", "et"], ["em", "ber"], [" >", ">"], ["e", "k"], ["u", "int"], [" b", "ack"], ["201", "0"], ["\u00ea", "tre"], ["\n ", "\n"], [" ", "\u2014"], ["bre", "ak"], [" up", "date"], [" ob", "j"], ["\"", "))"], ["m", "ed"], [" d", "on"], ["lo", "ud"], ["TT", "P"], ["St", "r"], ["N", "o"], ["\u306a", "\u304b\u3063\u305f"], ["\u8ba4", "\u4e3a"], [" c", "ert"], [" c", "ap"], ["m", "all"], ["im", "es"], [" [", "'"], [" ", "ant"], ["J", "SON"], ["m", "ethod"], ["erm", "an"], ["T", "E"], ["le", "ase"], ["\u306b\u306a", "\u308b"], ["c", "md"], ["\u53d1", "\u5c55"], ["at", "tr"], ["]", ");"], [" w", "eit"], [" R", "es"], [" pos", "ition"], ["\u3068", "\u3059\u308b"], [" ", "\u0428"], ["p", "ass"], ["\u043b", "\u0435\u043d\u0438\u0435"], ["\u8fdb", "\u884c"], ["A", "X"], ["if", "ier"], [" nom", "bre"], ["t", "ag"], ["\u81ea", "\u52d5"], [" ex", "cept"], ["6", "9"], [" d", "om"], ["\u0430\u043d\u0438", "\u0438"], ["H", "T"], ["\u0442\u043e", "\u043c"], ["ort", "h"], ["\u65e5\u672c", "\u306e"], [" >", "="], ["im", "ent"], ["\u5927", "\u5229"], [" e", "ither"], ["res", "ponse"], [" with", "out"], ["C", "D"], ["a", "ce"], ["\u3092", "\u6301"], ["\u308f", "\u308c"], ["\u30d6", "\u30eb"], ["am", "il"], [" l", "i"], ["le", "d"], [" ", "\u0447\u0438"], ["\u5973", "\u6027"], ["\u793e", "\u6703"], [" fol", "low"], ["\u3001", "\u300e"], ["ic", "ro"], [" N", "e"], ["U", "E"], ["il", "li"], [" \u043f", "\u0435"], ["ag", "n"], ["AT", "E"], ["\u30b7", "\u30ea\u30fc\u30ba"], ["\u0435\u043d\u0438", "\u0439"], ["l", "ang"], [" ", "ke"], ["g", "ress"], ["\u901a", "\u5e38"], [" \u0438", "\u043b\u0438"], ["\":", "\""], [" do", "uble"], ["ro", "und"], [" ", "Qu"], [" d", "est"], ["B", "utton"], ["c", "i"], ["un", "ter"], ["ra", "ft"], [" val", "ues"], [" la", "st"], ["\u4eba", "\u7684"], ["A", "ct"], ["\u4e0a", "\u6d77"], ["A", "c"], [" l", "ie"], ["M", "ethod"], ["\u30ec", "\u30f3"], [" B", "er"], [" \u0434", "\u0438"], [" param", "s"], [" g", "iven"], [" wh", "o"], [" 9", "78"], ["b", "ers"], [" m", "ust"], [" w", "ould"], ["\u3092", "\u53d7"], ["\u6280", "\u8853"], ["\u751f", "\u6d3b"], ["act", "er"], ["\u5386", "\u53f2"], [" ex", "ist"], [" \u0433\u043e", "\u0441\u0443\u0434\u0430\u0440"], ["\u0421", "\u0420"], ["De", "fault"], ["M", "ode"], ["t", "w"], ["n", "ull"], [" o", "k"], [" ", "art"], ["\u4eba\u6c11", "\u5171\u548c\u56fd"], [" 1", "00"], ["\u30ec", "\u30b9"], [" stat", "us"], ["d", "oc"], ["t", "arget"], ["ot", "s"], ["\u5de5", "\u4f5c"], ["St", "art"], ["ze", "ich"], ["\u00fc", "ck"], ["List", "ener"], [" \u00e9t", "\u00e9"], ["\u306e", "\u307f"], ["vid", "er"], ["ut", "sch"], [" wur", "den"], ["\u30a2\u30cb", "\u30e1"], ["an", "ces"], ["ot", "al"], ["we", "ise"], ["\u0433", "\u043b\u0430"], ["el", "se"], [" I", "s"], ["z", "h"], ["er", "o"], ["en", "u"], [" f", "r"], ["\u3089\u308c", "\u305f"], ["at", "en"], [" m", "ar"], ["F", "I"], ["n", "s"], ["ri", "or"], [" 200", "0"], ["\u30bf", "\u30a4"], ["ur", "ch"], ["in", "stance"], [" Fr", "ance"], [" A", "s"], [" \u0438", "\u044e"], ["i", "res"], ["\u6587", "\u5b57"], ["b", "lock"], ["m", "ark"], [" So", "ftware"], ["7", "4"], ["        ", "   "], ["lo", "y"], ["ok", "en"], ["\u0441", "\u043e\u0432"], ["c", "s"], ["\u7d93", "\u6fdf"], ["\u5730", "\u5340"], ["res", "h"], ["op", "en"], [" Un", "ivers"], [" \u0441\u043e", "\u0441\u0442\u0430"], ["\u30d9", "\u30eb"], ["L", "ength"], ["\u30c7\u30fc", "\u30bf"], [" v", "iew"], ["8", "6"], ["t", "itle"], ["\n\t", "\n"], [" o", "cc"], [" aus", "si"], ["u", "ck"], ["\u30b3", "\u30df"], ["\u4f5c", "\u66f2"], ["in", "st"], ["enc", "y"], ["\"", "],"], ["\u56fd", "\u738b"], [" d", "i"], ["f", "alse"], [" o", "ption"], ["\u043b\u0435", "\u0435"], ["\u0441\u043a\u043e", "\u0435"], [" \u0431", "\u0435"], [" h", "ab"], ["\u043a\u043e", "\u043c"], ["ument", "s"], ["sh", "ow"], ["eb", "en"], ["g", "es"], ["\u0432", "\u0435\u0442"], ["pro", "totype"], ["atab", "ase"], ["d", "ist"], ["\u3082", "\u3042\u308b"], ["st", "and"], ["ARR", "ANT"], [" bet", "ween"], ["\u5927", "\u5b78"], [" m", "at"], [" f", "ait"], [" g", "over"], ["\n\t\t\t\t\t", "\t\t"], ["\u4ea4", "\u901a"], [" n", "ext"], ["ast", "er"], [" \u041d", "\u0438"], [" W", "ARRANT"], ["ang", "ed"], [" require", "d"], [" \u043d\u0430", "\u0447\u0430"], ["c", "or"], ["l", "ess"], ["isch", "er"], ["\u30b5", "\u30f3"], [" s", "erver"], ["ult", "ip"], ["eg", "in"], ["P", "L"], [" A", "ut"], ["ai", "res"], [" ", "\u0436\u0435"], ["\u3002", "\uff08"], [" le", "t"], ["he", "it"], ["\u82f1", "\u56fd"], ["p", "or"], [" f", "l"], [" me", "hr"], ["Col", "or"], ["t", "oc"], ["T", "able"], ["\u6ca1", "\u6709"], ["\u0442\u0438", "\u044f"], ["inc", "ip"], ["ilos", "oph"], ["R", "un"], ["f", "rame"], [" A", "ll"], ["\u00df", "en"], ["\u00e4", "h"], [" ex", "pected"], ["\u306a", "\u308b"], ["\u4ee5", "\u964d"], [" do", "es"], ["4", "4"], ["fo", "o"], ["te", "il"], ["ad", "ers"], ["\n    ", "  "], [" N", "ULL"], ["8", "9"], ["\u6587", "\u5b66"], [" wh", "ere"], ["\u738b", "\u56fd"], [" \u0421", "\u043e"], ["Out", "put"], [" ex", "pect"], ["b", "uild"], ["o", "urn"], [" S", "c"], ["\u0432\u0430", "\u0442\u044c"], [" ab", "out"], ["S", "ource"], ["\u0436", "\u0434\u0443"], ["\u043b\u043e", "\u0432\u0435"], ["st", "atic"], [" l", "imit"], ["\u901a", "\u8fc7"], ["\u5927", "\u304d"], ["\u043f", "\u044b"], ["\u5c11", "\u5e74"], [" \u0438", "\u0441\u0442\u043e"], ["\u043f\u0435", "\u0440\u0430"], [" re", "c"], [" de", "v"], ["8", "5"], ["L", "ay"], [".", "__"], [" \u043c", "\u0443"], [" ", "\u0448"], [" O", "bject"], ["l", "abel"], [" p", "ays"], ["B", "uilder"], ["te", "cted"], ["w", "idth"], ["\u5730", "\u7403"], [" ", "order"], ["E", "d"], ["\u56fd", "\u9645"], [" o", "pen"], [" B", "l"], ["\u30d0", "\u30b9"], ["7", "6"], [" be", "fore"], [" 1", "3"], [" var", "i"], [" \u0437", "\u043d\u0430"], ["mod", "ule"], ["s", "up"], ["\u0433\u043e", "\u0434\u0443"], ["a", "int"], ["\u5916", "\u90e8"], ["kt", "ion"], ["g", "ener"], ["un", "it"], ["En", "try"], ["sh", "al"], ["g", "ing"], [" 201", "0"], ["\u4e8b", "\u696d"], [" C", "omm"], ["\u65e5", "\u306b"], [" imp", "lement"], ["com", "p"], ["f", "r"], ["x", "ml"], ["\u8a00", "\u8a9e"], ["\u0438", "\u043d"], [" inter", "face"], [" par", "ent"], [" D", "as"], ["l", "ished"], ["\u0446", "\u044b"], ["ur", "y"], ["ach", "ine"], ["O", "F"], ["\u4e3b", "\u5e2d"], ["um", "p"], [" sup", "port"], ["\u7b2c", "\u4e09"], [" n", "p"], ["I", "V"], ["\u4ee5", "\u4e0b"], ["\u5b8c", "\u5168"], ["7", "2"], ["\u96fb", "\u5b50"], [".", "\""], ["\u043f\u043e", "\u043b\u044c"], ["\u30e9\u30f3", "\u30c9"], ["\u043c\u0435\u0440\u0438", "\u043a\u0430\u043d"], ["d", "om"], ["v", "ers"], ["\u76e3", "\u7763"], [" \u0441", "\u0432\u044f"], ["ar", "ray"], ["oug", "h"], ["\u30b7", "\u30fc"], ["\u72ec", "\u7acb"], ["al", "k"], [" a", "ction"], ["\u0441\u043a\u043e", "\u043c"], ["ser", "vice"], [" se", "l"], [" 200", "8"], ["\u0432", "\u0430\u043d"], ["\u0440\u043e", "\u0439"], ["row", "s"], ["o", "pt"], ["T", "arget"], ["as", "es"], ["\u0430", "\u043a"], ["if", "fer"], ["ub", "e"], [" \u0410", "\u043d"], [" F", "alse"], ["s", "igned"], ["\u0435", "\u043a"], ["\u4e2d", "\u5171"], [" \u00e9", "g"], ["put", "e"], ["s", "cope"], ["IT", "Y"], ["O", "per"], ["s", "rc"], ["u", "z"], ["\u63d0", "\u51fa"], [" M", "an"], ["Window", "s"], ["\u30de", "\u30a4"], ["out", "put"], ["ing", "le"], ["\u043a\u043e", "\u043d"], ["aut", "h"], [" \u0411", "\u043e"], [" T", "O"], ["out", "h"], ["b", "ug"], ["ri", "ch"], [" ", "\u5927"], ["at", "z"], [" \u0430", "\u043a\u0442"], [" M", "e"], ["ex", "ec"], [" n", "ou"], [" al", "low"], [" throw", "s"], [" 2", "5"], ["200", "6"], ["\u5370", "\u5ea6"], [" 200", "6"], ["\u3042", "\u3063\u305f"], [" E", "rr"], ["L", "D"], ["\u3057", "\u3044"], ["ro", "ot"], ["Fil", "ter"], ["(", "_"], [" j", "son"], ["\u4e5f", "\u662f"], ["..", "/"], ["\u767a", "\u8868"], ["ens", "or"], ["\u30a8", "\u30eb"], [" s", "w"], ["U", "P"], [" g", "\u00e9n"], ["c", "ache"], [" app", "end"], ["B", "S"], ["C", "L"], [" s", "ervice"], ["j", "oin"], [" de", "p"], ["and", "s"], [" T", "HE"], ["ier", "ung"], [" the", "m"], [" in", "tern"], ["\u0432\u0430", "\u044f"], ["5", "9"], ["qu", "ant"], [" 199", "0"], ["unt", "ime"], [" \"", "\\"], ["\u00e9", "rie"], [" St", "adt"], ["Ch", "ild"], [" 201", "1"], ["Pro", "perty"], ["\u5730", "\u57df"], ["lo", "s"], ["'", "],"], ["\u540c", "\u6642"], ["\u043b\u0430", "\u0432"], ["c", "lose"], ["f", "loat"], ["\u0441", "\u044b"], ["ins", "i"], ["f", "irst"], ["\u043f\u043e", "\u0440"], ["\u0446", "\u0435"], ["200", "5"], ["__", "("], ["I", "M"], [" con", "n"], [" 200", "7"], ["7", "9"], ["c", "m"], ["ent", "e"], ["\u3057\u304b", "\u3057"], ["m", "it"], [" \u043e\u0431", "\u044a"], [" b", "lock"], [" l", "ater"], ["\u4e0a", "\u7684"], ["re", "quire"], ["et", "t"], ["a", "j"], ["v", "is"], ["\u304a", "\u3088"], [" \u0440\u0443", "\u0441"], ["200", "8"], ["Ch", "ar"], [" 201", "4"], ["util", "s"], ["Le", "vel"], ["\u043c", "\u0430\u043d"], [" c", "ette"], [" con", "f"], [" \u0431\u043e", "\u043b\u044c"], ["\u30ad\u30e3", "\u30e9"], ["se", "cond"], [" C", "ON"], [" call", "back"], [" I", "I"], [" se", "tt"], ["\u30ea", "\u30b9\u30c8"], ["\u5f8c", "\u306e"], ["N", "ull"], ["\u0451", "\u0442"], ["en", "z"], ["b", "s"], ["w", "end"], [" return", "s"], ["\u043b\u043e", "\u0441\u044c"], ["\u5236", "\u5ea6"], [" E", "l"], [" ", "..."], [" b", "el"], ["ig", "er"], [" U", "S"], ["\u30aa", "\u30f3"], [" \"", "\""], ["ber", "g"], ["toc", "ol"], [" b", "uild"], [" {", "'"], [" d", "ont"], ["()", ":"], ["s", "um"], ["\u6218", "\u4e89"], [" b", "ody"], [" B", "r"], [" 201", "5"], ["Bo", "x"], [" qu", "ery"], [" Y", "ou"], ["fil", "ter"], ["v", "ision"], ["\u30b8", "\u30e7\u30f3"], ["\u4eba", "\u306e"], ["\u30cb", "\u30fc"], ["\u30ec", "\u30a4"], ["om", "et"], ["\u516c", "\u91cc"], ["        ", "    "], [" {", "}"], ["Att", "ribute"], ["olog", "y"], ["\u3081", "\u308b"], ["\u7406", "\u8ad6"], [" (", "'"], ["\u308c", "\u3070"], ["iv", "ity"], ["uf", "f"], ["\u30a2", "\u30fc"], ["ic", "a"], ["u", "c"], ["\u9023", "\u8f09"], ["u", "v"], [" th", "rough"], ["Param", "s"], [" f", "loat"], ["\u30b9", "\u30bf\u30fc"], ["s", "ource"], ["ra", "in"], ["\u5fc5", "\u8981"], [" \u043e\u0431", "\u043b\u0430"], ["T", "Y"], ["ver", "y"], ["W", "eb"], ["ic", "on"], ["\u5f53", "\u6642"], [" c", "alled"], [" ", "\u7b2c"], ["n", "umber"], ["('", "."], ["Pos", "ition"], ["        ", " "], ["\u043a\u043e", "\u0439"], ["C", "ache"], ["N", "umber"], ["o", "od"], ["\u653f", "\u7b56"], ["4", "9"], ["f", "n"], ["\u767c", "\u5c55"], ["li", "p"], ["po", "se"], ["orm", "al"], ["\u4e2d\u534e", "\u4eba\u6c11\u5171\u548c\u56fd"], ["\u0434", "\u0435\u043d"], ["in", "a"], ["olog", "ie"], ["S", "pec"], ["U", "rl"], [" ", "\u0430\u043d"], [" s", "ow"], ["200", "7"], ["c", "ul"], ["w", "ith"], [" o", "p"], ["ult", "ure"], ["\u0445\u043e", "\u0434"], ["A", "ss"], ["F", "e"], [" 3", "0"], ["\u6cd5", "\u56fd"], ["op", "le"], ["\u043a", "\u043b\u044e"], ["\u6210", "\u529f"], [" A", "dd"], [" v", "is"], [" se", "lect"], ["Val", "id"], ["le", "x"], [" 201", "2"], ["is", "se"], ["iz", "er"], ["pp", "er"], [" fil", "es"], ["Ob", "j"], ["w", "ay"], ["\u043a", "\u0440\u044b"], [" us", "ing"], ["M", "ax"], ["4", "6"], ["\uff1a", "\u201c"], ["an", "z"], ["ens", "es"], [" 201", "3"], ["M", "et"], [" (", "("], ["it", "\u00e4t"], ["B", "ack"], ["\u7cfb", "\u7edf"], [" c", "atch"], ["\u0432", "\u0443"], ["\u30b8", "\u30e7"], ["ar", "ly"], [" h", "igh"], ["T", "O"], ["w", "args"], ["P", "age"], ["\u00e4", "hr"], ["ar", "ge"], ["\"", ">"], ["\u30b9", "\u30af"], ["\u0441\u0442", "\u0440\u0430"], [" \u0447\u0435", "\u043b\u043e\u0432\u0435"], [" F", "orm"], [" form", "at"], ["press", "ion"], ["y", "mb"], ["201", "5"], ["A", "V"], ["ch", "ild"], ["\u8981", "\u6c42"], ["201", "1"], ["4", "2"], ["r", "at"], [" d", "b"], [" M", "it"], ["\u6c92", "\u6709"], [" s", "k"], ["\u7684", "\u4eba"], ["ap", "ache"], ["ial", "ize"], [" \u0430", "\u043c\u0435\u0440\u0438\u043a\u0430\u043d"], ["R", "em"], ["w", "a"], ["\u7d44", "\u7e54"], ["p", "ost"], ["\u30c7", "\u30eb"], [" lang", "uage"], ["m", "on"], ["i", "od"], ["in", "n"], ["E", "xt"], ["\u306b", "\u95a2"], [" e", "ach"], ["\n                            ", "   "], ["\u8457", "\u4f5c"], ["ath", "er"], ["\u30f4", "\u30a1"], ["\")", ");"], ["alle", "t"], ["it", "ory"], ["la", "ck"], ["\u043e", "\u043c"], [" \u0440\u0430", "\u0431\u043e"], ["\u601d", "\u60f3"], ["re", "l"], [" h", "ost"], ["200", "9"], ["i", "pe"], [" s", "ame"], ["En", "t"], [" \u0442\u0435", "\u0440"], [" exp", "ress"], ["i", "us"], ["M", "S"], ["\u4f46", "\u662f"], ["\u59d4", "\u54e1"], ["\u043b\u044c", "\u043a\u043e"], ["Form", "at"], ["\u4ee5", "\u5916"], ["ri", "ct"], [" In", "d"], ["'", "'"], [" C", "ont"], [" com", "ple"], [" 200", "9"], [" i", "h"], [" man", "y"], ["\u0437\u044b", "\u0432\u0430"], ["\u3068\u547c", "\u3070"], ["\u6226", "\u4e89"], ["ri", "ed"], ["\u304a\u3088", "\u3073"], [" }", ")"], ["\u043b\u0430", "\u0441\u044c"], [" \u041c", "\u0438"], ["T", "ree"], ["k", "er"], [" E", "X"], [" a", "ber"], ["B", "U"], ["o", "ir"], ["os", "s"], ["Re", "f"], [" 201", "6"], ["\u521d", "\u306e"], [" <", "="], ["AP", "I"], ["S", "P"], ["\u5de5", "\u7a0b"], [" W", "IT"], ["\u305f\u3081", "\u306b"], ["_", ","], [" p", "lay"], [" m", "o"], [" Ch", "ar"], ["\u5e73", "\u6210"], ["HO", "UT"], [" d", "iv"], ["if", "e"], ["8", "7"], ["\u65f6", "\u671f"], ["id", "ae"], ["ru", "ction"], ["\u30f4", "\u30a3"], ["\u7372", "\u5f97"], ["\u6210", "\u54e1"], [" m", "\u00eame"], ["199", "0"], ["\u308f", "\u308c\u308b"], ["ide", "o"], ["\u591a", "\u3044"], ["is", "es"], [" j", "ed"], ["V", "ER"], [" pr", "incip"], ["ied", "er"], ["d", "own"], ["n", "ow"], ["\u0440\u0430", "\u043b\u044c"], [" J", "e"], ["Con", "nection"], ["\u30ad\u30e3\u30e9", "\u30af\u30bf\u30fc"], ["\u0440", "\u0433"], ["as", "se"], [" cont", "ent"], ["param", "s"], ["\u5c0f", "\u8aac"], ["\u60c5", "\u5831"], ["m", "ock"], [" 200", "5"], [" so", "us"], [" fran\u00e7", "ais"], ["\u0446", "\u0443"], ["\u5b87", "\u5b99"], [" M", "us"], ["\u0435\u043c", "\u044b"], ["\u30b9", "\u306e"], ["\u30c9", "\u30eb"], ["\u540c", "\u5e74"], ["201", "6"], ["T", "oken"], ["n", "g"], ["vol", "ution"], ["re", "en"], ["ab", "e"], ["h", "ash"], [" h", "and"], [" L", "and"], ["dition", "s"], [" D", "ies"], ["9", "6"], ["\u9ad8", "\u901f"], ["equal", "s"], ["S", "p"], [" Ch", "rist"], [" An", "d"], ["def", "ined"], ["F", "alse"], [" Z", "eit"], ["\u3002", "\u201d"], ["re", "i"], ["sh", "ould"], ["\u3001", "\u300a"], [" p", "ack"], ["om", "an"], ["\u0441\u0442", "\u0435"], ["201", "3"], ["re", "at"], ["ann", "el"], ["M", "atch"], ["\u30cd", "\u30c3\u30c8"], ["M", "in"], ["\u306e", "\u4e2d"], [" sh", "ow"], ["\u5f8c", "\u306b"], ["\u90fd", "\u5e02"], ["is", "p"], ["W", "riter"], ["ut", "es"], [" ", "\u0445\u043e"], [" b", "uffer"], [" pe", "ut"], ["E", "M"], ["L", "S"], ["w", "eb"], [" \u0433", "\u0440\u0430"], [" lo", "ad"], [" ", "\u30a2"], ["H", "ash"], ["\u043e", "\u0442"], ["\u30ad", "\u30fc"], ["ch", "ange"], ["\n\t\t\t\t\t", "\t\t\t\t"], ["4", "7"], [" \u043f\u043e", "\u043b\u0443"], ["Cont", "ainer"], ["Cont", "roller"], ["P", "er"], ["\u5f62", "\u5f0f"], [" p", "lace"], [" N", "ach"], [" k", "ann"], ["================", "================"], ["irt", "ual"], [" 201", "7"], ["\u306a", "\u304a"], ["\u30d4", "\u30e5\u30fc"], ["a", "uf"], ["\u30d5", "\u30a7"], ["200", "1"], [" Par", "is"], ["\u0435", "\u043b\u0438"], ["cont", "ainer"], ["\u6b77", "\u53f2"], ["ill", "ion"], ["H", "el"], ["b", "ert"], ["\u30a8", "\u30f3"], ["AR", "T"], ["F", "O"], ["\u901a", "\u4fe1"], [" l", "ink"], [" ch", "ild"], ["\u0435\u043d\u0438", "\u044e"], ["g", "el"], [" le", "ur"], ["no", "un"], ["\u5c31", "\u662f"], ["()", "->"], ["pro", "du"], ["pr", "\u00e8s"], ["Off", "set"], ["d", "a"], [" org", "an"], ["P", "od"], ["\u30ca", "\u30fc"], [" th", "ese"], ["\u043e\u043d\u0430", "\u043b\u044c"], ["\u30c3", "\u30ab\u30fc"], ["201", "2"], ["L", "es"], ["con", "n"], [" \u043f", "\u0443"], ["\u0440\u0438", "\u0442"], ["\u30b3\u30f3", "\u30d4\u30e5\u30fc"], ["\u59d4\u5458", "\u4f1a"], ["5", "6"], ["a", "ur"], ["oc", "ial"], ["}", "-"], ["\u300d", "\u300c"], ["\u30fc", "\u30b7\u30e7\u30f3"], ["\u540c", "\u3058"], ["con", "om"], ["g", "n"], ["MO", "V"], ["ang", "es"], ["pon", "d"], ["F", "rame"], ["\u53d6", "\u308a"], ["\u6a5f", "\u80fd"], [" \u043f", "\u0430\u0440"], ["Re", "ader"], ["200", "3"], [" ", "\u043b\u0435"], ["\u0441", "\u043b\u043e"], ["Re", "p"], ["iss", "ions"], ["\n", "\n               "], ["5", "12"], ["D", "B"], [" \u0438", "\u043c\u0435"], [" D", "es"], [" imp", "lied"], [" v", "om"], ["ra", "ce"], [".", "$"], ["g", "lich"], ["\u3081", "\u3066"], ["\u8499", "\u53e4"], ["as", "ic"], ["ess", "ages"], ["read", "y"], ["p", "kg"], [" re", "pr"], ["5", "8"], ["\u975e", "\u5e38"], [" t", "ag"], ["b", "uffer"], [" H", "er"], [" aut", "orest"], [" fil", "m"], ["\u043f", "\u0440\u0438"], [" be", "ing"], [" loc", "al"], ["ex", "p"], ["\u30d6", "\u30e9"], [" pro", "vid"], ["ier", "en"], ["201", "4"], ["\u306b\u304a", "\u3051\u308b"], ["Pr", "int"], ["\u3051", "\u3066"], ["\u5143", "\u30d7\u30ed\u91ce\u7403\u9078\u624b"], ["row", "ser"], ["ensch", "aft"], ["\u0430", "\u043b\u0438"], [" \u043e", "\u043d"], [" \u0432\u0440\u0435", "\u043c\u044f"], ["\u00f6", "\u00df"], ["\u4e0d", "\u660e"], ["\u4f5c", "\u4e3a"], [" t", "able"], ["\u8fd0", "\u52a8"], ["\u0441\u043a\u0438", "\u043c"], ["\u3093", "\u3067"], ["\u73fe", "\u4ee3"], ["Q", "ue"], ["\u95a2", "\u9023"], [" ma", "j"], [" \u044f", "\u0437\u044b"], ["f", "inal"], ["\u30b7", "\u30f3"], ["\u4f4d", "\u7f6e"], ["ard", "s"], ["ran", "ge"], ["itt", "el"], [" ", "\u00eatre"], ["t", "ers"], ["end", "ed"], [" \u043f\u043e", "\u043b\u0438"], [" \u043c\u0435", "\u0436\u0434\u0443"], [" e", "ven"], ["\u30ca", "\u30eb"], ["ed", "ia"], ["s", "end"], ["\u7279", "\u5225"], ["S", "ession"], ["a", "ff"], ["x", "e"], ["\u9032", "\u884c"], [" F", "ile"], ["I", "O"], ["9", "7"], ["ers", "on"], ["a", "ul"], ["\u30ac", "\u30fc"], [" su", "ccess"], ["\u7531", "\u65bc"], ["                ", "                "], [" spec", "ific"], ["T", "em"], ["f", "low"], [" -", ">"], ["\u043d\u0438", "\u044f"], ["ymb", "ol"], ["A", "C"], [" A", "ug"], [" ", "ans"], ["ot", "a"], [" \u043f\u0440\u0435\u0434", "\u0441\u0442\u0430"], ["\u043b\u043e", "\u0436"], ["In", "it"], ["\u30b0", "\u30eb"], ["\u76f4", "\u63a5"], [" c", "our"], ["ab", "s"], ["\u30dd", "\u30fc"], [" R", "eturn"], [" V", "ersion"], ["Con", "st"], ["act", "ive"], [" id", "ent"], ["n", "ap"], ["ist", "ry"], ["200", "4"], ["l", "ing"], ["\n            ", "    "], [" dur", "ing"], ["\u56e0", "\u70ba"], ["ER", "R"], ["T", "e"], ["p", "op"], [" k", "nown"], [" ext", "ends"], ["\u30c9", "\u30e9"], ["\u6b7b", "\u4ea1"], ["\u043d\u0438", "\u043a\u0430"], [" par", "se"], [" \u0440\u043e", "\u0441\u0441\u0438\u0439"], ["olic", "y"], ["u", "el"], [" s", "yn"], ["U", "I"], ["W", "idth"], ["i", "ens"], ["\u3044", "\u308b"], ["6", "2"], ["\u3068", "\u3057\u305f"], ["b", "in"], ["\u5927", "\u91cf"], ["\u5927", "\u962a"], [" g\u00e9n", "\u00e9r"], [" s", "ort"], ["20", "20"], ["g", "est"], ["s", "ystem"], ["\u95a2", "\u4fc2"], ["pro", "cess"], ["\u30a6\u30a7", "\u30a2"], ["\u97d3", "\u570b"], ["and", "er"], [" err", "ors"], [" \u0433\u043e", "\u0440\u043e\u0434"], [" S", "te"], ["\u306e", "\u306f"], [" C", "ar"], [" st", "yle"], ["\u4ed6", "\u4eec"], ["\u0435\u043d\u0438", "\u0435\u043c"], [" 200", "4"], ["ail", "able"], [" ", "\u0441\u0442\u043e"], ["\u3055\u308c", "\u3066"], [" \u043f\u0438", "\u0441\u0430"], [" ", "\u042f"], ["d", "et"], ["\uff1a", "\u300c"], [" mod", "ule"], ["T", "H"], [" F", "il"], [" 200", "3"], ["4", "3"], ["te", "x"], [" \u044f\u0432\u043b\u044f", "\u0435\u0442\u0441\u044f"], ["-", "{"], ["\u7ec4", "\u7ec7"], [" d", "el"], ["st", "yle"], [" P", "ol"], ["ex", "pected"], [" no", "ch"], [" ra", "ise"], ["\u0441\u0441\u0438", "\u0438"], ["--------------------------------", "--------------------------------"], [" \u0433\u043e\u0440\u043e", "\u0434\u0430"], ["\u9700", "\u8981"], ["lic", "e"], ["ien", "ne"], ["d", "ig"], [" b", "es"], ["X", "X"], ["p", "atch"], ["ri", "ver"], [" 200", "1"], ["\u3063", "\u3066\u3044\u305f"], [" A", "t"], ["aut", "hor"], ["C", "ON"], ["\u3081", "\u305f"], ["\u30f3", "\u306e"], ["\u3053\u3068", "\u3092"], ["mo", "unt"], [" comm", "on"], ["u", "k"], [" B", "o"], ["\u30d7", "\u30ea"], [" ag", "ain"], ["r", "am"], ["\u3060", "\u3051"], [" p", "ost"], [" WIT", "HOUT"], ["D", "o"], ["b", "st"], [" +", "+"], ["\u0446\u0438", "\u043e\u043d"], ["rib", "e"], ["O", "K"], ["X", "ML"], ["c", "la"], ["\u5171", "\u540c"], ["\u7e3d", "\u7d71"], ["\u30b8\u30e3", "\u30fc"], ["ersch", "ied"], ["C", "o"], ["\u30af", "\u30ed"], ["\u30b3", "\u30fc"], [" m", "sg"], ["de", "lete"], [" B", "rit"], [" la", "w"], ["P", "art"], ["f", "\u00fchr"], ["es", "h"], ["\u00e8", "me"], ["erv", "ed"], [" \u0431\u044b", "\u043b\u0438"], [" A", "PI"], [" 198", "0"], ["\u7531", "\u4e8e"], [" \"", "/"], ["er", "g"], ["\u0442\u0435", "\u0440\u0438"], [" \u0438\u0441", "\u043f\u043e\u043b\u044c"], ["\u4eba", "\u985e"], ["\u6c11", "\u570b"], ["\u8457", "\u540d"], ["\uff08", "\uff09"], [" c", "le"], [" \u043a", "\u0443"], [" \u041c", "\u043e"], ["\u738b", "\u671d"], ["Lo", "ad"], ["\u570b", "\u969b"], [" w", "ord"], [" S", "ie"], [" \u043c", "\u0430\u0440"], ["\u3048", "\u305f"], ["re", "cord"], [" re", "q"], [" ", "q"], [" {", "@"], [" an", "im"], [" J", "ohn"], [" ch", "ange"], ["ib", "t"], [" \u041f", "\u0430"], ["\u0432\u044b", "\u0439"], ["i", "qu"], ["\u81ea\u52d5", "\u8eca"], ["\u0421", "\u0421\u0420"], ["\u5b8c", "\u6210"], ["ot", "o"], ["\u043b\u0435", "\u043a\u0441"], ["Param", "eters"], ["\u671d", "\u9c9c"], ["v", "es"], [" te", "chn"], ["G", "ener"], ["\u0451", "\u043c"], ["O", "pen"], ["em", "e"], ["6", "3"], ["h", "und"], [" \u0434\u0440\u0443", "\u0433\u0438"], ["c", "er"], ["\u56fd", "\u969b"], [" c", "al"], [" ", "\u300c"], ["e", "ur"], ["6", "1"], ["\u53d7", "\u5230"], ["or", "ig"], ["198", "0"], [" 20", "20"], ["pt", "h"], [" \u041d", "\u043e"], ["p", "ub"], [" w", "rite"], ["ry", "pt"], ["\u3089\u308c", "\u3066\u3044\u308b"], ["\u5927", "\u9678"], [" 201", "8"], ["201", "7"], ["5", "4"], ["\u0440", "\u044c"], ["\u30a6", "\u30a3"], [" A", "pp"], [" pro", "b"], ["ribut", "es"], [" \u0441\u0438", "\u0441\u0442"], ["ich", "te"], ["Par", "ser"], [" i", "hr"], ["I", "X"], [" ex", "ec"], ["field", "s"], ["\u043c", "\u043f\u0438"], ["\u7d50", "\u679c"], ["it", "z"], ["ie", "le"], [" \u0431\u044b", "\u043b\u043e"], ["9", "4"], ["\u30bb", "\u30f3"], ["\u30cb", "\u30e5\u30fc"], ["\u043d\u0438", "\u0435"], ["comm", "on"], ["\u30bf", "\u30eb"], ["\u54f2", "\u5b66"], [" v", "ille"], ["IL", "ITY"], [" k", "\u00f6n"], [" ar", "ray"], ["g", "round"], ["\u30a4", "\u30c4"], ["or", "ies"], [" in", "clude"], ["con", "nect"], ["\u4e8c", "\u5341"], [" f", "ree"], [" j", "e"], ["t", "op"], ["z", "eit"], ["\u4f1a", "\u8bae"], [" \u043a\u0438", "\u043d\u043e"], ["\u6539", "\u9769"], [" i", "o"], ["W", "idget"], ["\u4f5c", "\u7528"], ["\u5e74", "\u306b\u306f"], [" l", "abel"], [" \u043f\u0440\u0430", "\u0432\u0438"], ["`", ","], ["w", "indow"], ["\u0433", "\u043b\u0438"], ["u", "ally"], [" d", "ar"], ["\u043f", "\u0435\u0440"], ["\u5f71", "\u54cd"], ["\u63a1", "\u7528"], ["re", "ct"], ["ent", "ial"], ["\u30b3\u30f3\u30d4\u30e5\u30fc", "\u30bf"], ["P", "h"], ["ang", "o"], ["\u305d\u306e", "\u5f8c"], ["\u53c2", "\u52a0"], ["\u0441\u0442", "\u0440\u0430\u043d"], ["e", "ver"], ["\u9020", "\u6210"], ["\u97f3", "\u697d"], ["ateg", "ory"], [" \u0434", "\u0430"], ["irect", "ory"], ["He", "ight"], ["\u5730", "\u9707"], [" w", "indow"], ["Re", "cord"], ["a", "ise"], ["\u300b", "\u3001\u300a"], ["\u690d", "\u7269"], ["ell", "en"], ["app", "ing"], ["########", "########"], ["M", "em"], ["\u30b7", "\u30e7"], ["\u30c0", "\u30a4"], ["\u53c2", "\u8003"], ["\u6b74", "\u53f2"], [" c", "ell"], ["\u0433", "\u0434\u0430"], ["\u30aa", "\u30fc"], ["()", "{"], ["\u7a31", "\u70ba"], [" a", "insi"], [" aut", "o"], ["\u0444", "\u0430"], ["pos", "itory"], ["l", "ung"], ["y", "l"], [" 200", "2"], ["Config", "uration"], ["Time", "out"], [" \u043e\u0441", "\u043d\u043e\u0432"], ["\u6cd5", "\u5f8b"], ["ist", "es"], ["\u0440\u0438", "\u0442\u043e"], ["In", "st"], [" m", "ark"], [" en", "g"], ["N", "um"], ["\u589e", "\u52a0"], [" d", "am"], [" bec", "ause"], ["C", "ase"], ["b", "utton"], ["\u592a", "\u967d"], ["\u96fb", "\u8996"], ["\u0442\u0435", "\u0440\u0430"], ["B", "O"], ["s", "pec"], ["(", "$"], ["m", "em"], ["ro", "y"], ["ou", "v"], ["tem", "plate"], ["\u0432\u044b", "\u0435"], ["I", "con"], [" y", "our"], ["\u514b", "\u65af"], ["\u6587", "\u732e"], ["\u756a", "\u7d44"], ["F", "unction"], ["in", "u"], [" c", "r"], [" j", "ust"], ["199", "9"], ["P", "RO"], ["\u3051", "\u305f"], [" d", "iffer"], ["al", "y"], [" m", "\u00e9"], [" h", "um"], ["omm", "en"], [" add", "ress"], ["print", "ln"], ["w", "er"], ["et", "z"], [" F", "ound"], [" In", "tern"], ["T", "ER"], ["V", "AL"], ["c", "ur"], ["By", "tes"], ["5", "2"], ["\u6280", "\u672f"], ["\u96fb", "\u5f71"], [" v", "ers"], [" \"", "\","], [" L", "in"], [" G", "erman"], ["to", "String"], ["elt", "a"], ["\u4e07", "\u4eba"], ["\u4ff3", "\u512a"], ["\u610f", "\u5927\u5229"], ["on", "y"], [" ar", "ch"], ["5", "7"], [" o", "ld"], ["id", "es"], [" pr", "\u00e9"], ["200", "2"], ["off", "set"], [" pop", "ulation"], ["\u7d4c", "\u6e08"], ["as", "on"], [" \u043d\u0430", "\u0441\u0435"], [" <", "/"], ["\n\t", "   "], ["end", "ant"], ["m", "ission"], ["t", "ain"], ["\u30b7", "\u30a2"], ["\u97f3", "\u6a02"], [" st", "ream"], ["\u822a", "\u7a7a"], [" f", "ut"], ["ol", "der"], ["id", "s"], ["F", "unc"], [" \u0421", "\u0421\u0421\u0420"], ["\u30cd", "\u30eb"], [" \u00e9g", "alement"], ["V", "ol"], ["h", "and"], ["\u0444", "\u043e\u0440"], [" L", "og"], ["se", "arch"], ["he", "ight"], [" de", "velop"], [" B", "ar"], ["AN", "D"], ["9", "2"], [" P", "re"], ["rep", "lace"], ["V", "is"], ["\u0441", "\u0441"], ["\u8a31", "\u591a"], [" e", "ffect"], ["201", "8"], ["Add", "r"], ["c", "r"], ["\u662f", "\u4e00"], ["ent", "er"], ["ver", "se"], ["ou", "ver"], ["\u5177", "\u6709"], [" l", "ui"], ["lic", "enses"], ["yn", "am"], ["Util", "s"], [" se", "it"], ["Cont", "rol"], ["\n \n ", "\n \n "], ["quant", "ity"], ["de", "m"], [" \u0432", "\u0435\u0440"], ["I", "ter"], ["S", "u"], ["loc", "al"], ["M", "eta"], ["x", "f"], ["\u56fd", "\u5185"], [" B", "y"], ["\":", "["], ["d", "est"], [" c", "r\u00e9"], ["il", "s"], [" 199", "9"], [" sow", "ie"], [" t", "yp"], [" \u043d\u0430", "\u0443"], ["cp", "u"], ["\u043a\u0438", "\u0439"], ["G", "L"], ["\u540c", "\u65f6"], ["\u65b0", "\u805e"], ["AL", "L"], ["am", "er"], [" se", "e"], ["20", "19"], ["ann", "t"], ["5", "3"], ["\u6c7a", "\u5b9a"], ["ra", "b"], ["hund", "ert"], ["A", "ccess"], ["C", "C"], ["\u305f", "\u3061"], ["\u5e73", "\u5747"], [" st", "ud"], [" ein", "es"], [" \u0431\u044b", "\u043b\u0430"], ["TY", "PE"], ["c", "ap"], ["ater", "ial"], [" W", "est"], [" \u043c\u043e", "\u0436"], ["\u3064", "\u306e"], ["loc", "ation"], ["=", "{"], ["\\", "\\"], ["\u76ee", "\u524d"], ["\u81ea", "\u6cbb"], [" ", "\u300a"], ["af", "e"], ["ie", "urs"], [" h", "istor"], ["\u043f\u043e", "\u043b"], [" field", "s"], ["\u767b\u5834", "\u3059\u308b"], ["I", "ES"], ["\u6cd5", "\u570b"], [" and", "roid"], [" F", "ree"], [" m", "ode"], ["qu", "ence"], ["ien", "ce"], ["\u30bd", "\u30f3"], [" \u043a\u043e", "\u0440\u043e"], ["9", "1"], ["\u30b9", "\u30da"], ["\u65af", "\u7279"], ["at", "form"], ["it", "\u00e9s"], ["\u4ed6", "\u5011"], ["he", "m"], [" z", "we"], ["A", "SS"], ["Ac", "count"], ["\u30c7", "\u30b6"], [" c", "es"], ["Em", "pty"], ["c", "ell"], ["l", "ish"], ["\u0438", "\u0441"], [" p", "res"], ["\u0440\u043e", "\u043d"], ["\u043b\u043e", "\u0441\u043e"], ["\u043c\u0438", "\u0438"], ["\u30d7\u30ed", "\u30b0\u30e9"], ["\u0437", "\u0435"], [" \u044f", "\u043d"], ["5", "00"], ["r", "v"], ["\u4f01", "\u696d"], ["\u9280", "\u884c"], ["\u0447\u0435", "\u0441\u043a\u043e\u0439"], ["ier", "te"], ["C", "l"], ["\u6700", "\u5927"], ["res", "p"], [" M", "in"], [" W", "ar"], ["s", "plit"], ["\n", "\n\t\t\t"], ["4", "1"], ["n", "t"], ["\u0432\u0438", "\u0447"], [" ", "\u0426"], ["A", "Y"], ["D", "I"], ["c", "lick"], ["\u0435\u0442", "\u0430"], ["\u56fd", "\u6c11"], ["on", "es"], [" (", "\""], ["do", "uble"], ["\u30c9", "\u30a4\u30c4"], ["et", "ch"], [" st", "e"], ["Arg", "s"], [" \u0441\u043e\u0432\u0435\u0442", "\u0441\u043a\u0438\u0439"], ["\u6570", "\u306e"], ["P", "ref"], ["\u30d0", "\u30a4"], ["\u4ed6", "\u306e"], [" term", "s"], [" *", "*"], [" et", "wa"], ["\u0446\u0438", "\u0430\u043b\u044c"], [" 20", "19"], ["al", "th"], ["\u043d\u0438", "\u0438"], ["ru", "ck"], ["\u0432\u044b", "\u0445"], [" follow", "ing"], [" Aug", "ust"], [" J", "SON"], [" ", "]"], ["\u7cfb", "\u7d71"], [" p", "layer"], ["\u0440\u0438", "\u0439"], [" \u0431", "\u0430"], ["at", "iv"], ["\u304b\u3089", "\u306e"], ["R", "eturn"], ["\u3055", "\u3089"], ["is", "on"], ["R", "out"], ["a", "ient"], ["\u610f", "\u5473"], ["in", "en"], [" pro", "ject"], ["bo", "ard"], [" ", "\u042e"], ["S", "I"], ["\u3066\u3044", "\u306a\u3044"], ["UL", "T"], ["set", "tings"], [" rel", "ig"], ["m", "i"], ["\u30b8", "\u30aa"], ["\u8a08", "\u7b97"], [" con", "nect"], [" b", "oth"], ["\u3055\u308c", "\u3066\u3044\u305f"], ["\u0443", "\u043d"], ["\u5143", "\u7d20"], ["D", "ialog"], ["M", "ock"], ["\u30e2", "\u30c7\u30eb"], [" n", "amespace"], ["op", "s"], [" N", "ord"], [" he", "l"], ["h", "andler"], ["j", "ango"], [" ap", "i"], ["c", "y"], ["\u3089", "\u306e"], [" p", "o"], [" includ", "ing"], [" r", "en"], [" cont", "ainer"], ["l", "ight"], ["\u5b9a", "\u7fa9"], ["\u7684", "\u5927"], ["add", "r"], ["comm", "and"], [" tro", "is"], ["E", "V"], ["\u63a7", "\u5236"], ["ch", "an"], [" w", "ell"], ["k", "a"], ["w", "ait"], ["de", "fer"], ["De", "lete"], ["K", "E"], ["a", "iss"], [" in", "fo"], [" ap", "pro"], ["////////////////", "////////////////"], ["        ", "  "], [" F", "OR"], [" an", "g"], [" init", "ial"], ["r", "ary"], ["\u307e", "\u308a"], ["de", "v"], ["__", "__"], [" in", "formation"], ["cle", "ar"], ["9", "3"], ["a", "a"], ["\u8fd9", "\u4e9b"], [" 2", "1"], ["T", "ypes"], ["\u30b8\u30e3", "\u30f3"], ["r", "est"], ["\u305f", "\u3060"], ["ut", "z"], [" N", "ot"], ["pro", "ject"], [" ro", "ot"], [" \u0417", "\u0430"], ["n", "es"], ["z", "one"], ["\u0441", "\u043a\u0443"], ["\u4f4d", "\u4e8e"], [" Tr", "ans"], ["ig", "keit"], [" cont", "ain"], ["\u7576", "\u6642"], [" res", "p"], ["\u041f", "\u043e"], ["\u8054", "\u5408"], ["\u8bed", "\u8a00"], [" ex", "ample"], ["a", "cl"], ["am", "ed"], ["ri", "eg"], ["og", "en"], ["iv", "al"], ["(", "[]"], ["\u043d", "\u0441\u043a\u0438\u0439"], [" t", "itle"], ["le", "ich"], ["\n\t\t", "\n\t"], [" \u043f\u043e", "\u044d"], ["8", "3"], ["sp", "an"], ["R", "L"], ["j", "e"], ["p", "tem"], ["\u4e2d\u83ef", "\u6c11\u570b"], ["\u90fd", "\u662f"], [" B", "und"], [" le", "vel"], [" 199", "7"], ["\u3093", "\u3060"], [" zw", "ischen"], ["\u30de", "\u30fc"], ["\u0441\u0442", "\u044b"], ["St", "ore"], ["im", "est"], ["ph", "a"], [" 199", "8"], [" Found", "ation"], ["r", "ender"], ["val", "ues"], ["5", "1"], ["S", "C"], ["h", "a"], [" p", "age"], [" de", "lete"], ["Que", "ue"], ["d", "el"], ["\u0441\u0442", "\u0432\u0435"], ["\u0430\u043d", "\u0434"], ["AB", "ILITY"], ["\u30d5\u30e9\u30f3", "\u30b9"], ["d", "one"], ["and", "ard"], ["la", "ge"], [" 199", "1"], [" off", "set"], ["Lay", "out"], [" a", "x"], [" re", "mo"], [" r", "ender"], ["\u95ee", "\u9898"], [" e", "ing"], ["\u8a2d", "\u7acb"], ["inter", "face"], [" ", "\u751f"], ["\u30ab", "\u30eb"], ["\u521d", "\u671f"], ["un", "ic"], ["\u0432\u0430", "\u043b"], [" ma", "de"], ["k", "s"], ["\u79f0", "\u4e3a"], ["eb", "ug"], ["IC", "EN"], ["\u4f5c\u66f2", "\u5bb6"], ["De", "vice"], ["S", "printf"], ["ri", "se"], ["ow", "ever"], ["t", "ypes"], ["\u4e0d", "\u662f"], ["\u5927", "\u4f1a"], ["\u80fd", "\u529b"], ["\u8a9e", "\u8a00"], ["de", "bug"], [" \u0431", "\u0443"], ["\u0446\u0438", "\u043e\u043d\u0430\u043b\u044c"], ["\u30b9", "\u30fc"], ["he", "ader"], ["S", "U"], ["\u6982", "\u5ff5"], ["ri", "eb"], ["Ch", "ange"], ["\u30b0\u30eb", "\u30fc\u30d7"], ["B", "ody"], [" t", "ypes"], [" ", "row"], ["p", "ol"], ["u", "dd"], ["\u74b0", "\u5883"], [" string", "s"], [" aut", "h"], ["\u76ee", "\u7684"], ["fil", "es"], ["\u7136", "\u800c"], ["\u9593", "\u306e"], ["20", "21"], ["A", "m"], ["b", "t"], ["\u5206", "\u5b50"], [" n", "ow"], ["im", "um"], [" C", "an"], ["\u539f", "\u5b50"], [" K", "on"], [" ph", "ilosoph"], [" ", "\u00dc"], ["\u53e4", "\u4ee3"], [" W", "orld"], ["L", "ink"], ["\u00fc", "d"], ["\u044c", "\u044e"], [" \u043f\u0440\u043e", "\u0438\u0437"], ["cript", "or"], ["\u9019", "\u4e9b"], ["\u0442\u0435", "\u043b\u0435\u0439"], ["\u043f\u0443", "\u0431\u043b\u0438"], ["U", "s"], ["\u306a", "\u304c"], [" b", "l"], ["di", "ct"], ["M", "ar"], ["to", "ol"], ["M", "y"], ["m", "m"], ["v", "ious"], ["re", "ed"], [" l", "arge"], ["im", "m"], ["\u30a4\u30f3", "\u30c9"], ["\u7a0b", "\u5ea6"], [" s", "pe"], ["NA", "ME"], ["\u5730", "\u4f4d"], [" \u0438", "\u0445"], ["199", "8"], ["\u300b", "\u3002"], ["on", "om"], ["f", "all"], ["on", "ne"], [" W", "h"], ["\u0432\u043e", "\u0433\u043e"], ["ord", "in"], [" Ar", "ray"], ["\u0441", "\u043b\u0438"], ["\u51fa", "\u73fe"], [" le", "ft"], [" ent", "ry"], [" tra", "dition"], ["\u0431", "\u0443"], ["ex", "ports"], ["ICEN", "SE"], ["p", "age"], ["t", "ask"], [" pub", "lished"], ["8", "1"], [" maj", "or"], ["\u52a0", "\u5165"], ["ol", "ve"], ["199", "7"], ["_", "->"], ["d", "s"], [" to", "ken"], [" result", "s"], ["amm", "en"], ["8", "2"], ["b", "eit"], ["b", "egin"], ["\u0447", "\u0435\u043d"], ["Par", "se"], [" rece", "ived"], ["\u8ecd", "\u4e8b"], [" s", "end"], ["ire", "ction"], ["\u653f\u6cbb", "\u5bb6"], ["CT", "ION"], ["man", "ager"], ["\u00e8", "ne"], ["\u6a19", "\u6e96"], ["eth", "er"], ["\u603b", "\u7edf"], ["ra", "int"], ["7", "1"], ["R", "oot"], ["R", "ow"], ["ur", "al"], [" m", "ilit"], [" n", "ational"], ["ra", "pper"], [" V", "ol"], ["\u30c6", "\u30f3"], ["\u9031", "\u520a"], [" d", "a"], ["\u30a4\u30b9", "\u30e9"], ["V", "D"], ["\u8a18", "\u9332"], ["\u043a\u043e", "\u043d\u043e"], [" Eur", "ope"], ["n", "ement"], ["St", "ack"], ["..", ".."], ["\u5f97", "\u5230"], [" G", "es"], ["li", "que"], ["\u0447\u0435", "\u0441\u043a\u0438\u0445"], ["ustom", "er"], ["P", "ass"], ["ac", "cess"], ["%", "\uff0c"], ["ur", "op"], ["ate", "ur"], ["def", "ine"], [" pe", "ople"], [" Te", "il"], ["\u00e9l", "\u00e9"], [" Je", "an"], ["\u5236", "\u4f5c"], [" h", "ere"], ["ve", "ctor"], [" al", "ong"], ["d", "am"], ["is", "\u00e9"], ["col", "or"], ["\u5357", "\u90e8"], ["\u6240", "\u4ee5"], [" J", "ap"], ["\u00e4", "ch"], [" A", "f"], [" to", "p"], ["C", "lose"], ["\u30b5", "\u30a4"], ["\u30b5", "\u30c3\u30ab\u30fc"], ["gl", "ish"], ["AG", "E"], ["o", "o"], [" tr", "\u00e8s"], ["En", "abled"], ["N", "S"], ["s", "ys"], ["\u304d", "\u305f"], ["ent", "ry"], ["\u5916", "\u4ea4"], ["\u8a2d", "\u8a08"], ["\u0440\u0435", "\u043c\u0435\u043d"], [" \u043f\u043e", "\u043b"], ["Un", "it"], ["ourn", "al"], ["p", "i"], ["v", "i"], ["\u043c", "\u0435\u043d\u0438"], [" ra", "p"], ["\u00df", "e"], ["\u6700", "\u7d42"], ["re", "c"], [" 199", "4"], ["le", "ft"], ["\u5c11", "\u5973"], ["\u7cfb", "\u5217"], [" l", "ength"], ["li", "ance"], [" con", "nection"], [" e", "ff"], ["\u5357", "\u4eac"], ["\u8005", "\u306e"], ["al", "d"], [" s", "erv"], ["ri", "an"], [" 197", "0"], ["ch", "es"], [" al", "ors"], ["\u043e\u0431", "\u0440\u0430"], ["\u4e00", "\u65b9"], [" mon", "de"], ["I", "E"], ["\u30a4", "\u30ae"], ["\u5718", "\u9ad4"], ["\u5973", "\u512a"], ["im", "al"], ["Pro", "vider"], [" A", "ss"], ["ad", "min"], [" C", "reate"], [" H", "el"], ["LO", "G"], ["\u30c1", "\u30a7"], [" t", "err"], ["se", "e"], [" h", "im"], [" prem", "ier"], [" pro", "p"], ["pl", "es"], ["\u3053\u308c", "\u306f"], [" r\u00e9g", "ion"], ["Ent", "ity"], ["\u300d", "\u3001\u300c"], [" m", "ock"], [" pro", "v"], ["20", "22"], ["8", "4"], ["S", "ec"], ["rig", "ger"], ["N", "etwork"], ["()", ")."], [" 199", "6"], ["M", "enu"], ["y", "d"], ["op", "er"], [" \u0442\u0435\u0440", "\u0440\u0438\u0442\u043e"], ["w", "eit"], ["\u30b3", "\u30fc\u30c9"], [" d", "ate"], ["ic", "le"], [" \u0432\u043e", "\u0441"], ["\u00e9t", "\u00e9"], ["\u6f2b\u753b", "\u5bb6"], ["\u56fd", "\u306e"], ["ig", "ne"], [" G", "eb"], [" J", "ah"], [" Un", "ter"], [" Univers", "ity"], ["|", "-"], [" t", "er"], [" t", "otal"], ["\u0432\u043e", "\u0440"], ["key", "s"], ["\u043f\u0440\u0430", "\u0432"], ["\u30a4\u30ae", "\u30ea\u30b9"], ["F", "atal"], ["te", "ment"], ["\u8ca9", "\u58f2"], ["\u0442\u0443", "\u0440"], ["fl", "u"], [" ann", "\u00e9es"], ["\u5b66", "\u9662"], [" c", "md"], ["In", "s"], [" \u043d\u0430", "\u0437"], ["D", "er"], ["\u6839", "\u636e"], [" pro", "tected"], ["Aut", "h"], ["k", "nown"], ["l", "s"], ["\u304c", "\u767a"], [" \u0441", "\u043b\u0443"], [" c", "ould"], ["ur", "i"], [" dis", "play"], ["('", "#"], [" \u0413", "\u043e"], ["\u0440\u0430\u043d", "\u0446\u0443"], ["reg", "ister"], ["so", "ft"], ["\":[", "[\""], ["'", "))"], [" \u0420\u043e", "\u0441\u0441\u0438\u0438"], ["g", "ent"], ["\u5317", "\u90e8"], [" p", "la"], ["N", "ames"], ["\u041d", "\u0430"], [" in", "v"], [" \u0410", "\u043b\u0435\u043a\u0441"], [" aut", "hor"], ["c", "an"], ["}", "}"], ["\u4e4b", "\u540e"], ["am", "ment"], [" _", "."], [" \u0412", "\u0438"], [" ", "\u306e"], ["l", "ong"], [" P", "ort"], [" 199", "2"], [" f", "on"], ["%", "\u3002"], ["d", "raw"], ["\u3068\u306a", "\u308a"], ["\u3068\u306a", "\u3063\u3066\u3044\u308b"], ["\u81ea", "\u8eab"], ["(\"", "#"], [" fil", "ter"], ["att", "le"], [" ob", "tain"], [" ", "ip"], ["\u3057", "\u307e"], ["\u671f", "\u9593"], ["ail", "ure"], [" 199", "5"], ["by", "tes"], [" em", "pty"], ["\"],", "[\""], [" dep", "uis"], ["S", "end"], ["x", "b"], ["x", "c"], [" o", "pt"], ["\u043a\u0430", "\u0437\u0430"], ["add", "ress"], [" 198", "9"], [" 20", "21"], ["\u51fa", "\u6f14"], ["\u91d1", "\u5c5e"], [" s", "ocial"], [" pro", "perty"], ["htt", "ps"], ["\u591a\u304f", "\u306e"], [")", "),"], ["st", "it"], [" N", "OT"], [" V", "or"], ["ac", "ity"], ["'", "."], ["l", "at"], [" w", "orld"], ["id", "en"], ["port", "ed"], [" cons", "ole"], ["Th", "read"], ["apt", "er"], ["S", "up"], ["\u8868", "\u73fe"], [" an", "c"], [" dies", "er"], ["H", "TTP"], ["k", "m"], ["\u516c", "\u958b"], [" A", "ust"], ["IN", "D"], ["\u306b", "\u5165"], [" o", "\u00f9"], [" \u044d", "\u043b\u0435"], ["sw", "itch"], ["t", "mp"], [" 5", "0"], ["el", "n"], ["\u0442\u0435\u043b\u044c", "\u043d\u043e"], [" \u043e\u0442", "\u043d\u043e"], ["\u3068\u547c\u3070", "\u308c\u308b"], [" ", ")."], ["b", "um"], ["\u0432", "\u0440\u043e"], ["\u5b89", "\u5168"], [" e", "mp"], ["ock", "er"], ["atur", "es"], ["Pl", "ugin"], ["7", "3"], ["\u4e00", "\u90e8"], ["\u75c5", "\u6bd2"], [" h", "andle"], ["B", "A"], ["ore", "d"], [" \u0431\u043e", "\u043b\u0435\u0435"], [" k\u00f6n", "nen"], ["/", ">"], ["\u5de5", "\u4e1a"], ["\u5fb7", "\u570b"], ["fa", "hr"], ["\"]", "],"], ["pass", "word"], ["g", "ed"], ["con", "f"], ["\u5206", "\u985e"], ["\u6230", "\u722d"], [" '", "/"], ["O", "L"], ["r", "ift"], ["\u5171", "\u4ea7"], ["H", "ost"], ["ation", "ale"], ["\u30ea\u30fc", "\u30b0"], ["\u96fb", "\u8a71"], [" E", "T"], ["\u5171\u548c", "\u570b"], ["\u4efb", "\u4f55"], [" !", "=="], [" col", "umn"], [" n", "\u00e9"], ["bo", "ok"], ["\u30a6", "\u30f3"], ["\u5929", "\u7687"], ["\u671d", "\u9bae"], [" p", "uis"], [" \u0432", "\u043b\u0430"], [" M", "ed"], [" pro", "f"], ["ach", "ed"], [" 199", "3"], [" \u0434\u0435", "\u044f"], ["point", "s"], [" pers", "onn"], ["\u5185", "\u5bb9"], ["or", "ie"], ["end", "if"], [" el", "le"], ["ION", "S"], ["\u8fd9", "\u4e2a"], ["in", "z"], [" M", "on"], ["\u0440\u0438", "\u0441\u0430"], ["ach", "t"], ["\u7b2c\u4e8c", "\u6b21"], ["Inter", "face"], ["P", "RE"], ["\u30d5\u30a1", "\u30f3"], ["N", "ext"], ["c", "el"], ["\u0447", "\u043d\u043e"], ["\u5b9a", "\u7684"], ["am", "ent"], ["\u3059\u308b", "\u3068"], ["ure", "d"], [" \u0421", "\u0430"], ["he", "ad"], [" f", "oot"], ["au", "d"], [" Fran", "k"], ["V", "ar"], ["\u5f53", "\u65f6"], [" d", "one"], [" S", "k"], ["ra", "ch"], ["I", "f"], ["i", "or"], ["\u95dc", "\u4fc2"], [" N", "ational"], ["\u0442\u0430", "\u043b\u044c"], [" 20", "22"], [" ph", "ys"], ["D", "ocument"], [" spec", "ified"], ["\u5de5", "\u696d"], ["ir", "c"], [" d\u00e9", "velop"], [" det", "ails"], ["\u6700", "\u5f8c"], [" a", "pr\u00e8s"], [" n", "et"], [" Un", "ited"], [" dies", "e"], ["\u4e0d", "\u80fd"], ["\u5e1d", "\u570b"], ["\u0440\u043e\u0432", "\u0430\u043d"], ["model", "s"], ["\u5ba3", "\u5e03"], ["\u94c1", "\u8def"], ["der", "n"], [" plus", "ieurs"], ["Group", "Name"], ["t", "ml"], ["w", "s"], ["\u30de", "\u30eb"], ["\u56e0", "\u4e3a"], ["\u88fd", "\u4f5c"], [" \"", ","], [" des", "cription"], ["197", "0"], ["an", "de"], ["L", "icense"], ["S", "er"], ["\u00e4", "s"], ["Param", "eter"], ["rid", "ge"], ["fin", "ition"], ["\u904b\u52d5", "\u54e1"], ["\u8fd9", "\u4e00"], ["ri", "cht"], ["199", "5"], [" \u0441\u0430", "\u043c\u043e"], [" ", "\u044e"], ["D", "IT"], ["s", "ave"], ["w", "ays"], ["\u0439", "\u0441\u043a\u0438\u0439"], ["\u51fa", "\u73b0"], ["\u958b", "\u50ac"], [" c", "lose"], [" s", "ince"], [" E", "s"], [" \u00bb", ","], ["I", "F"], ["O", "M"], ["R", "et"], [" C", "or"], ["em", "pty"], ["\u0440\u0430\u043d\u0446\u0443", "\u0437"], [".", ")"], ["\u306a", "\u3089"], ["it", "ter"], [" v", "o"], [" De", "utsch"], ["\u5173", "\u7cfb"], [" de", "c"], [" \u0435", "\u0451"], [" tem", "plate"], [" ", "\u0436"], [" P", "art"], ["\u0435\u043c", "\u043e"], ["\u0442\u0443", "\u0440\u0430"], ["\u5217", "\u8868"], ["\u5927", "\u81e3"], ["ire", "d"], ["PE", "CT"], ["\u5973", "\u5b50"], [" {", "\""], ["d", "f"], ["p", "ers"], [" l", "ors"], ["c", "ss"], ["\u30d3", "\u30e5\u30fc"], ["\u5fb7", "\u56fd"], [" d", "ro"], ["ra", "h"], ["ne", "x"], [" gover", "n"], ["\u30b6", "\u30fc"], ["\u6708", "\u306b"], ["\u8bb8", "\u591a"], [" re", "move"], [" \u0443", "\u0447"], [" gr", "and"], ["r", "ant"], ["\u63a5", "\u53d7"], [" m", "y"], ["\u0441\u0442", "\u0430\u043d"], ["ain", "es"], [" qu", "ant"], ["\u3068\u3057\u3066", "\u306f"], ["lection", "s"], ["Q", "L"], ["\u51fa", "\u8eab"], ["el", "d"], [" el", "if"], ["s", "ole"], ["\u0431", "\u0435\u0440"], ["\u308f", "\u308c\u305f"], [" Ex", "ception"], ["L", "ong"], ["\u30cb", "\u30a2"], [" m", "ov"], ["Log", "ger"], [" off", "ic"], ["\u3002", "\u300d"], ["\u4ee5", "\u524d"], [" T", "ype"], [" orig", "inal"], ["a", "\u00ee"], ["\u4e4b", "\u95f4"], ["\u6b27", "\u6d32"], ["\u7d42", "\u4e86"], ["le", "y"], [" s", "mall"], ["\u5929", "\u6587"], ["\u5efa", "\u7bc9"], [" H", "ol"], [" differ", "ent"], ["S", "erv"], ["\u898f", "\u6a21"], ["eg", "en"], ["ste", "in"], ["T", "ask"], ["w", "ar"], ["z", "ent"], [" c", "ro"], ["ra", "f"], [" r", "\u00e9s"], ["col", "umn"], ["ism", "us"], ["imest", "amp"], ["r", "\u00e4"], ["\u53ea", "\u6709"], ["im", "ple"], [" j", "u"], ["\u0434\u0435", "\u0439"], [" cont", "inue"], ["lect", "ron"], ["iron", "ment"], [" ", "\u65e5\u672c"], ["G", "e"], ["\u0442", "\u0440\u0438"], ["ut", "f"], [" N", "o"], ["yth", "on"], [" TO", "DO"], ["N", "T"], ["S", "cript"], ["\u5909", "\u66f4"], ["\u0440\u0430", "\u043a"], [" war", "en"], [" ac", "count"], ["m", "ode"], ["\u0435", "\u043e"], ["\u30b8", "\u30a2"], ["\u88fd", "\u9020"], ["or", "en"], [" s", "rc"], ["\u305f\u3060", "\u3057"], ["n", "amespace"], ["\uff09", "\uff1a"], ["Pro", "file"], ["ah", "n"], ["\u30e1", "\u30f3"], ["\u5143", "\u524d"], [" f", "rame"], [" pl", "an"], ["\u307b", "\u304b"], ["\u9886", "\u5bfc"], [" I", "D"], ["urs", "or"], ["\u30c3", "\u30b7\u30e5"], [" w", "ait"], [" 196", "0"], ["\u5b66", "\u5bb6"], [" g", "es"], [" In", "ter"], ["pa", "che"], ["\u5927", "\u591a"], ["al", "i"], [" direct", "ory"], ["\u30c7\u30b6", "\u30a4\u30f3"], [" m", "ultip"], [" th", "\u00e9"], ["pl", "ugin"], ["\u552f", "\u4e00"], ["ess", "en"], ["isp", "iel"], ["(", "!"], ["\u4e4b", "\u5f8c"], ["199", "6"], [" \u0444", "\u043e\u0440"], [" jed", "och"], [" c", "in"], [" '", "."], [" 198", "6"], ["iter", "ator"], ["\u3055\u3089", "\u306b"], ["\u0440", "\u0435\u043d"], ["\u64cd", "\u4f5c"], ["))", ")"], [" \u043e\u0431", "\u0449\u0435"], ["T", "x"], ["\u5341", "\u4e8c"], ["al", "ys"], [" a", "ccess"], ["ge", "x"], [" D", "o"], [" D", "is"], [" writ", "ing"], ["F", "C"], ["d", "at"], ["u", "it"], ["\u72b9", "\u592a"], ["\n            ", "     "], [" \u00e9", "c"], [" \u0412", "\u0430"], [" sein", "er"], ["\u00f4", "t"], ["\u043c", "\u0435\u0442"], ["Ex", "ec"], [" app", "lic"], ["u", "pe"], ["\u8003", "\u3048"], [" \u043e\u0441", "\u043d\u043e"], ["\u81ea\u5df1", "\u7684"], ["\u30d3", "\u30b9"], ["\u540d", "\u79f0"], [" s", "he"], ["us", "es"], [" \u00e9", "l"], ["OR", "T"], [" 194", "5"], ["\u0431", "\u0440\u0430"], ["\u0438", "\u0442"], [" l", "arg"], ["am", "en"], [" pe", "u"], [" produ", "ct"], ["\u043f\u0440\u0435", "\u0434\u0435"], [" li", "ke"], [" A", "c"], [" C", "al"], [" D", "E"], ["ens", "ions"], ["199", "4"], [" per", "form"], [" \u0433\u043e\u0441\u0443\u0434\u0430\u0440", "\u0441\u0442\u0432\u0435\u043d"], ["m", "ut"], ["\u0442\u0435", "\u043b\u044f"], [" part", "ie"], ["net", "work"], ["D", "P"], [" WARRANT", "IES"], ["\u9805", "\u76ee"], ["ig", "t"], [" St", "ates"], ["to", "ken"], ["\u51fa\u7248", "\u793e"], [" \u044f\u043d", "\u0432\u0430"], ["N", "O"], ["\u00f6", "glich"], [" \u043e\u0442", "\u043a\u0440\u044b"], [" \u00c9", "t"], [" ", "che"], [" P", "er"], [" ge", "gen"], [" zwe", "i"], ["\u30e2", "\u30f3"], ["\u4e5f", "\u6709"], [" L", "O"], [" \u0430\u0432", "\u0442\u043e"], ["a", "iled"], ["\u3048", "\u3070"], ["\u4fe1", "\u4ef0"], ["\u662f", "\u5728"], ["ur", "b"], [" w", "idth"], [" mod", "ify"], ["call", "back"], ["\u306b\u5bfe", "\u3057\u3066"], [" Y", "ork"], ["\u6570", "\u636e"], [" 2", "3"], ["St", "yle"], ["ag", "ne"], ["Com", "p"], ["\u043b\u0438", "\u044f"], ["\u0432\u043e", "\u0434\u0438"], ["set", "s"], ["des", "c"], ["n", "ung"], ["\u306b", "\u3066"], [" h", "ash"], [" \u0441", "\u043b\u043e"], [" it", "er"], [" \u0434\u043e", "\u043b"], ["g", "s"], ["\u3068", "\u3093"], ["\u73b0", "\u4ee3"], ["ins", "ert"], [" \u0441\u0442\u0440\u0430", "\u043d\u044b"], ["\u306e", "\u3088\u3046\u306b"], [" ass", "oci"], ["\u5f15", "\u304d"], ["\u69cb", "\u9020"], ["In", "valid"], ["iss", "enschaft"], [" ", "\u043b\u0430"], ["g", "or"], ["\u304c", "\u884c"], ["und", "le"], ["gr", "amm"], ["AB", "LE"], ["ri", "ve"], [" M", "at"], ["\u30fc", "\u30ab\u30fc"], ["\u5929", "\u6d25"], [" C", "heck"], ["ill", "es"], [" Err", "or"], ["\u0444", "\u043e"], ["\u4e0a", "\u306e"], [" f", "act"], [" \u0422", "\u0430"], ["\u7b2c\u4e00", "\u6b21"], ["u", "\u00df"], ["ic", "ally"], [" \u041a", "\u0438"], [" d\u00e9", "c"], ["\u0447", "\u0435\u043d\u0438\u044f"], ["\u30d1", "\u30f3"], ["\u5411", "\u3051"], ["ult", "i"], [" 198", "8"], ["\u30b9\u30bf", "\u30f3"], ["j", "ob"], ["\u53ce", "\u9332"], [" in", "cre"], [" \u0446", "\u0435\u043d\u0442"], ["b", "es"], ["\u53d1", "\u751f"], ["(\"", "%"], ["\u043d\u0438", "\u0439"], ["\u0447\u0435", "\u0441\u043a\u043e\u0433\u043e"], ["S", "cope"], [" s", "pace"], [" n", "ames"], ["P", "layer"], [" repr", "\u00e9s"], ["L", "ast"], ["P", "S"], ["\u308f", "\u305b"], ["\u30e6", "\u30fc"], ["\u901f", "\u5ea6"], ["ic", "ation"], [" poss", "ible"], ["ch", "ron"], [" w", "ant"], ["ip", "z"], [" En", "glish"], ["cent", "er"], [" \u0434\u0435\u044f", "\u0442\u0435\u043b\u044c"], [")", "("], ["F", "S"], ["s", "ort"], ["w", "ick"], ["ial", "e"], [" \u0421", "\u0438"], [" \u751f", "\u5e74"], ["F", "lags"], ["n", "ess"], ["\u0444", "\u0435"], ["\u0447", "\u0435\u043d\u0438\u0435"], ["im", "p"], ["\u30b8", "\u30e5"], ["\u30ed", "\u30c3"], ["\u540c", "\u6027"], ["ur", "ing"], ["us", "ammen"], ["ab", "ility"], [" sh", "ort"], ["esch", "ichte"], ["dis", "play"], ["\u30a2", "\u30af"], ["ur", "t"], [" b", "ro"], ["im", "ary"], ["Fil", "es"], ["i", "ally"], ["ip", "s"], ["vo", "ir"], ["\u5982", "\u679c"], ["\u7279", "\u306b"], [" W", "elt"], [" \u0440\u0430\u0437", "\u0432\u0438"], ["\u83b7", "\u5f97"], [" D", "on"], ["\u30df", "\u30e5\u30fc"], ["\u00e9", "m"], ["\u7f85", "\u65af"], [" ge", "w"], ["C", "re"], ["o", "ption"], ["\u682a", "\u5f0f"], [" o", "wn"], [" A", "pache"], [" B", "el"], [" h", "andler"], [" reg", "ion"], [" ", "\u043b\u044e"], ["A", "b"], ["f", "d"], ["\u306b", "\u767b\u5834\u3059\u308b"], ["om", "en"], ["\u00fc", "h"], ["\u0441", "\u043b\u0430"], ["\u30ac", "\u30f3"], [" R", "ob"], [" gr", "\u00f6\u00df"], ["h", "\u00e4"], ["or", "es"], ["\u0441\u043e", "\u0431"], ["\u30c7\u30a3", "\u30a2"], ["ograph", "ie"], ["icro", "soft"], ["b", "ot"], ["r", "ics"], ["\u3092", "\u542b"], ["\u97f3", "\u4e50"], ["ang", "le"], ["\u3088\u3046", "\u306b\u306a\u3063\u305f"], ["\u7d71", "\u9818"], ["In", "teger"], ["au", "er"], [" 198", "4"], ["b", "ut"], ["|", "|"], ["\u30c7", "\u30f3"], ["\u0434\u0438", "\u0438"], ["198", "9"], [" \u0414", "\u043e"], ["r", "t"], ["\u0437", "\u0434\u0430"], ["\u3057", "\u306a\u3044"], ["\u4e00", "\u76f4"], ["\u043a\u0438", "\u0445"], ["action", "s"], [" base", "d"], ["R", "ange"], ["em", "ple"], ["Field", "s"], ["proto", "buf"], [" sw", "itch"], [" c", "ity"], [" ye", "ars"], ["\u3092\u6301", "\u3064"], ["\u5206", "\u6790"], ["\u5e02", "\u5834"], ["\uff0c", "\u300a"], ["\u0442\u044c", "\u0441\u044f"], ["Val", "ues"], ["M", "at"], ["r", "and"], ["en", "ne"], [" s", "yst"], ["ede", "ut"], ["aut", "orest"], ["\u53d6", "\u5f97"], ["\u043d\u0438", "\u043a\u043e\u0432"], ["Pro", "ject"], ["\u00e4n", "d"], ["et", "en"], [" J", "ul"], ["und", "s"], ["AT", "ION"], ["C", "M"], ["H", "andle"], ["r", "ate"], ["s", "cription"], ["\u5408", "\u4f5c"], ["\u0435\u043d", "\u043e"], ["\u0447\u0435", "\u0441\u043a\u0438\u0435"], ["++", ";"], [" \u0410\u043b\u0435\u043a\u0441", "\u0430\u043d\u0434"], ["J", "ob"], ["b", "urg"], ["u", "j"], ["and", "id"], [" he", "ader"], [" ab", "s"], [" prem", "i\u00e8re"], [" ", "\u5c0f"], ["\u0441", "\u043d\u043e"], ["\u53c2", "\u7167"], ["\u65b9", "\u8a00"], [" s", "ession"], [" R", "E"], [" \u0441\u0443", "\u0449\u0435"], ["f", "\u00e9r"], [" s", "um"], [" St", "a"], ["En", "v"], [" \u0441\u043e", "\u0441\u0442\u043e\u044f"], ["Com", "ponent"], ["\u4e2d\u5171", "\u4e2d\u592e"], [" ", "64"], ["E", "ach"], ["n", "p"], [" C", "l"], ["\u3057", "\u304f"], ["er", "ing"], ["per", "iment"], ["c", "loud"], [" se", "ine"], [" cont", "re"], [" 198", "5"], [" \u0420", "\u0430"], ["\u0440\u043e", "\u0432\u0430"], ["('", "/"], [" provid", "ed"], ["t", "rack"], [" T", "ext"], [" M", "ich"], [" 2", "7"], ["\u3057\u3066", "\u304a\u308a"], [" \u0414", "\u0436"], ["Dis", "play"], ["\u30bd\u30d5\u30c8", "\u30a6\u30a7\u30a2"], [" Brit", "ish"], ["D", "est"], ["\u5404", "\u5730"], ["\u72b6", "\u614b"], ["\u8db3", "\u7403"], ["le", "vel"], [" S", "aint"], [" by", "tes"], ["\u4e16\u754c", "\u5927"], [" col", "or"], ["J", "son"], ["d", "ocument"], ["\u3092", "\u4f7f"], ["\u570b", "\u6c11"], ["ist", "ration"], [" th", "ree"], ["em", "on"], ["\u0440\u0438", "\u043e"], [" U", "m"], ["\u0441\u043a\u0443", "\u044e"], ["A", "I"], ["\u30d0", "\u30f3"], ["\u9996", "\u90fd"], [" 2", "2"], [" he", "ight"], [" >>", ">"], [" EX", "PECT"], ["\u308c", "\u3066\u3044\u308b"], ["\u53d1", "\u73b0"], ["en", "en"], [" \u0430\u0432", "\u0433\u0443"], [" hat", "te"], [" ", "\u0416"], ["h", "\u00f6"], ["\u30c3", "\u30c1"], [" K", "re"], [" ", "rom"], ["0", "64"], ["u", "en"], ["A", "RE"], ["h", "ide"], ["\u5b66", "\u751f"], ["\u6b50", "\u6d32"], ["id", "d"], ["\u4e86", "\u4e00"], ["\u6d41", "\u884c"], [" A", "V"], ["ist", "oire"], [" \u043a\u043e\u043c", "\u043f"], ["k", "l"], ["u", "ge"], [" re", "al"], ["og", "n"], [" diff", "\u00e9r"], [" Return", "s"], ["\u30a6", "\u30b9"], [" to", "ur"], ["At", "tr"], ["m", "eta"], ["\u304c", "\u3042\u308a"], ["\u6b64", "\u5916"], ["\u897f", "\u73ed"], [" s", "ans"], ["ed", "er"], ["ut", "er"], [" g", "ot"], [" E", "m"], ["\u0434\u043e", "\u043c"], [" ap", "pe"], ["Loc", "al"], ["\u0436", "\u0435\u043d\u0438\u044f"], ["St", "orage"], [" \u0434", "\u0435\u0439"], [" \u043d\u0435", "\u043c\u0435"], ["\"", "}"], ["y", "e"], ["\u306b", "\u3042\u308b"], [" b", "ar"], ["au", "pt"], ["Id", "ent"], ["\u897f\u73ed", "\u7259"], ["!", "!"], [" g", "ibt"], [" 198", "7"], [" ye", "ar"], [",", "\""], ["o", "z"], ["\u30d3", "\u30a2"], ["\u30d9", "\u30fc\u30b9"], ["\u5168", "\u7403"], ["\u65f6", "\u95f4"], ["im", "ension"], [" Ar", "t"], ["M", "ac"], ["\u539f", "\u4f5c"], ["st", "op"], [" m", "en"], ["ann", "er"], ["\u0432\u0435", "\u0441\u0442"], ["ix", "ed"], ["cont", "inue"], ["AS", "K"], ["\u5927", "\u7d71\u9818"], ["om", "ent"], ["ac", "count"], [" 198", "2"], [" \u00bb", "."], ["n", "ames"], ["em", "p"], ["\u043b\u0435", "\u0432"], ["Set", "tings"], [" dis", "c"], ["v", "t"], ["\u65e9", "\u671f"], [" s", "ou"], ["\u043d\u0438", "\u043a\u0438"], [" In", "t"], ["\u0447\u0435", "\u0441\u043a\u0438\u0439"], ["Pack", "age"], ["N", "d"], ["g", "ol"], ["\u65e5", "\u306e"], ["\u751a", "\u81f3"], ["\u884c", "\u661f"], ["ex", "ample"], ["']", ")"], ["N", "amespace"], ["\u043a\u043e", "\u043b\u043e"], ["\u0442\u043e", "\u0440\u0430"], ["\u0435\u043c", "\u0443"], ["i\u00e8", "res"], ["0000000000000000", "0000000000000000"], ["T", "op"], ["\u043b", "\u043b\u0438"], ["\u9053", "\u8def"], ["en", "de"], ["\u3068\u3044", "\u3063\u305f"], [" ad", "min"], ["\u306a\u304c", "\u3089"], ["\u500b", "\u4eba"], ["\u767c", "\u73fe"], ["\u806f", "\u5408"], [" d", "own"], ["an", "y"], ["an", "im"], ["199", "1"], ["D", "et"], ["L", "ock"], ["\u00f6", "s"], ["\u6a5f", "\u69cb"], [" s", "ys"], [" D", "i"], [" G", "o"], ["\u043c\u0438", "\u043d\u0438"], ["pon", "s"], [" av", "ailable"], ["P", "olicy"], ["t", "z"], ["\u884c", "\u70ba"], [" al", "ready"], [" Jahr", "hundert"], ["ott", "om"], ["\u6cd5", "\u9662"], ["De", "f"], ["ren", "ch"], [" \u043f\u0438\u0441\u0430", "\u0442\u0435\u043b\u044c"], ["\u30c8", "\u30e9"], ["\u7684", "\u662f"], ["\u901a", "\u904e"], ["199", "2"], [" $", "("], [" \u0430\u043a\u0442", "\u0440\u0438\u0441\u0430"], ["C", "urrent"], [" b", "as"], [" B", "ru"], [" V", "al"], [" polit", "ique"], [" cre", "ated"], ["ART", "IC"], [" ", "\u65b0"], ["u", "ve"], ["or", "te"], ["ass", "er"], [" again", "st"], ["\u30a2", "\u30d5"], ["\u30b8", "\u30f3"], ["\u30bf", "\u30f3"], [" not", "amment"], ["\u305f\u3081", "\u306e"], ["uts", "chen"], ["R", "el"], ["\u30aa", "\u30ea"], ["\u30b1", "\u30c3\u30c8"], ["\u57fa", "\u7763"], [" un", "til"], ["Pro", "cess"], [" mod", "ern"], ["\u0433\u0440\u0430", "\u0444\u0438"], [" \u0444\u0438", "\u043b\u043e\u0441\u043e"], [" d", "\u00e9s"], ["se", "q"], ["il", "t"], [" con", "c"], ["\n        ", "\n       "], [" ", "\u043b\u0435\u0442"], ["\u5df2", "\u7ecf"], ["\u767c", "\u751f"], [" C", "o"], ["up", "le"], [" St", "ate"], ["UL", "AR"], ["\u30a4", "\u30e9"], ["\u6587", "\u5eab"], ["\u89e3", "\u653e"], ["\u0442\u043e", "\u0440\u044b"], [" Le", "ipz"], ["T", "rack"], ["\u3092", "\u7528"], ["\u82f1", "\u8a9e"], [" S", "er"], [" N", "ame"], ["ac", "es"], ["ERR", "OR"], ["\u5230", "\u4e86"], ["\u5bfe", "\u5fdc"], ["re", "qu"], ["om", "b"], ["hal", "ten"], ["n", "on"], [" M", "ath"], ["\u043b\u0430", "\u0433\u0430"], ["ud", "io"], ["Pro", "perties"], ["ran", "de"], ["zeich", "net"], ["U", "ID"], ["\u5408", "\u8846"], ["\u5c0d", "\u65bc"], ["\u6bd4", "\u8f03"], ["\uff09", "\uff08"], ["it", "ude"], [" p", "attern"], [" g", "l"], ["ition", "s"], [" right", "s"], ["ed", "s"], [" U", "p"], ["\u53c2\u8003", "\u6587\u732e"], ["ri", "er"], ["fer", "ences"], ["C", "lick"], [" c", "el"], ["ib", "ility"], [" \u041b", "\u0430"], ["Pref", "ix"], ["\u00e4", "uf"], [" c", "ulture"], ["ri", "p"], ["um", "er"], [" \u044f\u043d\u0432\u0430", "\u0440\u044f"], ["B", "ar"], ["at", "ors"], ["\u043a\u043e", "\u043b\u0430"], [" G", "ro"], ["\u0434\u0435", "\u043b\u044c"], [" import", "ant"], ["rag", "ment"], ["f", "ra"], [" w", "eb"], [" \u043f\u0440\u0435", "\u0437\u0438"], ["\u3053\u3068\u304c", "\u3067\u304d\u308b"], ["v", "a"], [" g", "ouver"], [" to", "ut"], [" D", "ata"], [" al", "le"], [" \u0433", "\u0430"], [" \u0442\u043e", "\u043b\u044c\u043a\u043e"], [" Jahr", "en"], ["Loc", "ation"], ["c", "opy"], ["s", "ession"], ["\u8cc7", "\u6599"], ["\u9ad8", "\u7b49"], [" \u043d\u0435\u043c\u0435", "\u0446"], ["v", "m"], ["\u043b", "\u0451"], ["\u65af", "\u5766"], [" M", "ac"], ["Sub", "Element"], [" Jah", "re"], ["\u00f6", "ff"], ["es", "se"], [" s", "itu"], ["item", "s"], ["Mod", "ule"], ["\u539f", "\u56e0"], [" U", "ser"], ["\u7248", "\u672c"], ["un", "signed"], ["\u0446\u0438", "\u044e"], ["K", "e"], ["R", "ender"], ["j", "ava"], ["z", "er"], ["\u6027", "\u7684"], ["se", "mb"], [" \u043e", "\u043a"], [" \u043e", "\u0440\u0433"], [" R", "ed"], ["par", "er"], ["By", "te"], ["IG", "HT"], [" ", "),"], ["a", "um"], ["\u3092", "\u898b"], ["\u30ea", "\u30f3\u30b0"], ["\u69cb", "\u6210"], [" 2", "8"], [" R", "oman"], [" \u0442\u0435", "\u0430\u0442"], [" ac", "cept"], [" \u043f\u0430", "\u043c\u044f"], ["\u30dd\u30fc", "\u30c4"], ["B", "uild"], ["\u660e", "\u6cbb"], ["ro", "du"], [" w", "ieder"], ["ir", "k"], [" ", "\u00e4"], ["L", "I"], ["om", "item"], [" j", "av"], [" \u0444", "\u0440\u0430\u043d\u0446\u0443\u0437"], ["omitem", "pty"], ["z", "w"], ["\u5316", "\u5b66"], ["(\"", "/"], ["H", "istory"], ["n", "is"], [" B", "en"], [" D", "ate"], [" G", "u"], ["Nd", "Ex"], ["\u3002", "\u300c"], ["\u666e", "\u53ca"], [" s", "ingle"], ["com", "e"], ["\u0442\u0435\u043b\u044c", "\u0441\u0442\u0432\u043e"], ["Select", "or"], [" \u0440\u043e\u0441\u0441\u0438\u0439", "\u0441\u043a\u0438\u0439"], ["G", "ET"], ["\u30d7", "\u30e9"], ["\u0441\u0442", "\u043e\u0432"], ["pro", "file"], ["ER", "T"], ["var", "i"], ["FA", "ULT"], ["ed", "it"], [" 2", "6"], [" \u0432\u043e", "\u0435\u043d"], [" Ber", "lin"], ["\u571f", "\u5730"], ["us", "qu"], [" return", "ed"], [" beg", "in"], ["rior", "ity"], ["A", "ST"], ["H", "ttp"], ["U", "RE"], ["\u304b", "\u3064"], ["\u304b\u3089", "\u306f"], [" \u0424", "\u0440\u0430\u043d"], ["\u30c1", "\u30fc\u30e0"], ["\u7f85", "\u99ac"], [" p", "y"], [" M", "od"], [" L", "ib"], [" \u043d\u0430", "\u0440\u043e\u0434"], [" \u0421", "\u043e\u0432"], [" \u043e\u0431", "\u043e"], ["NE", "SS"], [" ih", "re"], ["b", "ild"], ["r", "s"], [" c", "as"], ["est", "ion"], [" \u0432", "\u0441"], [" for", "ce"], ["\u3057\u305f", "\u304c"], ["\u3053\u3068", "\u3082"], [" use", "ful"], ["un", "ktion"], ["\u0440\u0435", "\u0437"], ["ip", "p"], ["pro", "perty"], [" 198", "1"], [" r\u00e9", "al"], ["IS", "BN"], ["PO", "SE"], [" hab", "en"], [" foot", "ball"], ["st", "ore"], ["\u3067\u306f", "\u306a\u304f"], ["198", "7"], [" \u0420", "\u0443"], ["\u306b\u306a", "\u308a"], [" \u751f\u5e74", "\u4e0d\u660e"], ["v", "as"], ["an", "el"], [" c", "y"], ["ER", "CH"], [" \u0440\u0430", "\u0439"], [" ser", "ies"], ["ERCH", "ANT"], ["\u4f5c", "\u70ba"], [" T", "o"], [" P", "UR"], ["\u0442\u0438", "\u043d"], ["HT", "ML"], ["E", "L"], ["j", "et"], ["r", "andom"], [" wh", "at"], ["ac", "c"], [" add", "ition"], [" \u00e9t", "ait"], ["\u30a2\u30e1\u30ea\u30ab", "\u5408\u8846"], ["Call", "back"], ["\u3061", "\u3083"], ["\u541b", "\u4e3b"], ["\u9996", "\u76f8"], ["ent", "ion"], [" der", "n"], ["12", "8"], ["RO", "M"], ["arb", "eit"], ["\u3092\u884c", "\u3046"], ["P", "D"], ["\u65f6", "\u4ee3"], ["\u751f", "\u4ea7"], ["\uff09", "\u300d"], [" l", "at"], ["IT", "NESS"], [" 198", "3"], [" rep", "resent"], [">", ">"], ["\u7d71", "\u6cbb"], [" m", "ot"], ["\t\t", "\t"], [" e", "urop"], ["L", "en"], ["\u0435", "\u043b\u044c"], ["\u0451", "\u043b"], ["in", "ary"], [" d", "id"], [" le", "g"], ["ARTIC", "ULAR"], ["+", "\""], ["S", "Y"], ["b", "le"], ["\u0421", "\u043c"], ["\u4e3b", "\u6559"], ["\u82cf", "\u8054"], [" se", "ver"], [" E", "d"], [" cont", "rol"], ["fil", "ename"], ["\u5171\u4ea7", "\u515a"], ["ERCHANT", "ABILITY"], ["c", "ing"], ["\u7279", "\u6b8a"], ["\u8a2d", "\u5b9a"], ["\u8d77", "\u3053"], ["\u043d\u043e", "\u043c\u0443"], ["\u043d\u0435", "\u0435"], ["\u306e", "\u3088\u3046\u306a"], ["ic", "ate"], [" P", "ARTICULAR"], ["\u3067\u306f", "\u306a\u3044"], [" \u0442\u0435", "\u043e"], [" PUR", "POSE"], ["R", "C"], ["{", "})"], ["\u5f88", "\u591a"], ["\u897f", "\u4e9a"], ["S", "H"], [" f", "ull"], ["Trans", "action"], ["i", "ol"], ["em", "ail"], ["ple", "te"], ["li", "er"], ["\u044e\u0449\u0438", "\u0445"], [" sett", "ings"], ["S", "D"], ["\u30b7", "\u30a7"], ["\u8a2d", "\u7f6e"], ["am", "ples"], ["ze", "ug"], [" pop", "ul"], ["\u00f6", "l"], [" n", "ature"], ["des", "cription"], ["\u30b5\u30fc", "\u30d3\u30b9"], ["A", "fter"], ["\u753b", "\u5bb6"], ["\u7ec6", "\u80de"], [" c", "la"], [" al", "lem"], ["\u0441\u0442\u0430", "\u043d\u043e\u0432"], ["c", "our"], ["\u30b9", "\u30dd\u30fc\u30c4"], ["\u529f", "\u80fd"], ["iv", "id"], [" \u0444", "\u0435\u0432"], ["oh", "l"], ["d", "ated"], ["\u9019", "\u500b"], ["198", "8"], [" \u0411", "\u0430"], [" bec", "ame"], ["\u043a\u043e\u043d\u043e", "\u043c\u0438"], ["X", "ml"], ["\u5bb6", "\u5ead"], ["\u666e", "\u901a"], [" be", "k"], ["aut", "o"], ["Ar", "t"], ["cod", "er"], ["\u9996", "\u6b21"], [" B", "udd"], [" M", "al"], [" con", "ditions"], ["ight", "s"], [" Re", "ad"], ["\u4e0d\u540c", "\u7684"], ["u", "sed"], ["\u519b", "\u4e8b"], ["\u5730", "\u7406"], ["et", "es"], ["\u043b\u0438", "\u0433\u0438"], [" O", "per"], ["199", "3"], [" param", "eters"], [" \u043c\u0430\u0440", "\u0442\u0430"], ["n", "ah"], ["\u5c3c", "\u4e9a"], ["ent", "lich"], [" E", "le"], [" K", "IND"], [" \u0443", "\u0447\u0430"], ["\u30b9\u30fc", "\u30d1\u30fc"], ["\u4fdd", "\u62a4"], ["\u5927", "\u90e8\u5206"], [" g", "ame"], [" F", "ITNESS"], ["\u306a\u3069", "\u304c"], [" \u043c\u0430", "\u044f"], ["Sc", "ale"], ["4", "00"], ["th", "en"], [" H", "TTP"], ["Par", "ent"], [" Bund", "es"], ["\u30df\u30e5\u30fc", "\u30b8"], ["\u6587", "\u4ef6"], ["\u904a", "\u6232"], ["\u96fb", "\u6c17"], [" \u0430", "\u043f\u0440\u0435"], ["R", "ect"], ["\u0449", "\u0435\u0439"], ["\u3048", "\u3066"], ["al", "en"], [" m", "er"], [" H", "and"], ["au", "g"], ["\u0446\u0438", "\u0439"], ["25", "6"], ["uer", "re"], ["\u3055\u305b", "\u308b"], [" ", "\u30a8"], ["\u5bb6", "\u65cf"], [" \u0441", "\u0435\u043d\u0442"], [" O", "pen"], [" perm", "issions"], ["c", "li"], ["\u00e4", "d"], ["\u4e66", "\u8bb0"], ["\u4ea7", "\u751f"], ["ing", "er"], [" la", "y"], ["i\u00e8", "me"], [" \u043a\u043e\u0442\u043e", "\u0440\u043e"], ["use", "um"], [" intern", "ational"], ["F", "ailed"], ["g", "ra"], ["r", "ent"], ["\u4e0a", "\u3052"], ["ac", "y"], [" \u043c\u0438", "\u0440\u0430"], [" jav", "ax"], [" ", "ign"], ["G", "o"], ["\u0428", "\u0410"], ["\u0437", "\u044f"], ["\u30cf", "\u30f3"], ["ak", "t"], ["\u540c", "\u69d8"], ["is", "er"], ["amil", "y"], ["\u7f8e", "\u5143"], [" s", "ens"], ["ist", "en"], [" con", "vert"], ["\u3053\u3068", "\u3067"], ["\u00e9r", "ic"], [" aut", "res"], [" \u043a\u043e\u0442\u043e\u0440\u044b", "\u0435"], [" ", "\u4e2d"], ["S", "ync"], ["\u041a", "\u0430"], ["ir", "m"], [" x", "ml"], [" pr\u00e9s", "ident"], [" \u0438\u044e", "\u043b\u044f"], [" \u0438\u0441\u0442\u043e", "\u0440\u0438"], ["gor", "ith"], ["S", "k"], ["_", ";"], ["n", "d"], ["s", "ign"], ["\u0445", "\u043e\u0432"], ["he", "mat"], ["ens", "chen"], ["a", "o"], ["g", "an"], ["\u6708", "\u53f7"], [" f", "\u00fchr"], [" m", "ass"], ["ist", "ent"], [" 4", "0"], [" \u041b", "\u0438"], ["Oper", "ation"], ["\u30fc", "\u30de"], ["\u0435\u043d", "\u044b"], ["ord", "ing"], ["IN", "E"], [" Deutsch", "land"], ["P", "tr"], ["\u0432", "\u043b\u0435\u043d"], ["\u7f57", "\u9a6c"], [" Ar", "beit"], [" cent", "ury"], ["Vol", "ume"], ["B", "C"], ["it", "ect"], [" P", "ress"], ["\u0432\u0438", "\u0441\u0438"], ["\u00e4hr", "end"], ["KE", "Y"], [".", "*"], [" \u041f", "\u0440\u0438"], ["Ch", "anged"], ["\u00c9", "t"], ["\u0441", "\u0441\u0430"], ["it", "ive"], ["ro", "s"], [" b", "ere"], ["ess", "er"], [" \u0442\u043e", "\u043c"], ["D", "own"], ["h", "an"], ["\u0443", "\u0434\u043e"], ["\u5e73", "\u65b9"], [" \u0412", "\u0435\u043b\u0438"], ["\u0432\u0448\u0438", "\u0439"], ["Ed", "it"], ["alys", "is"], ["k", "re"], [" size", "of"], [" \u043a\u043e\u0442\u043e\u0440\u044b", "\u0439"], [" \u0430\u0432\u0433\u0443", "\u0441\u0442\u0430"], ["O", "ption"], ["\u56fd", "\u52a1"], ["\u751f", "\u547d"], ["te", "gr"], ["\u0447\u0438", "\u0442\u0430"], ["BU", "G"], [">", "();"], ["I", "t"], ["T", "itle"], ["\u0432", "\u0430\u043d\u0438\u0435"], ["\u3079", "\u3066"], ["\u65b0", "\u7684"], ["\u963f", "\u62c9"], [" f", "ond"], ["ie", "f"], [" \u0442", "\u044b"], ["Col", "umn"], ["TE", "ST"], ["\u30ec", "\u30fc\u30b9"], ["\u592a", "\u90ce"], ["\u6700", "\u65e9"], ["\u6709", "\u4e00"], ["\u738b", "\u661f"], ["\u9664", "\u4e86"], ["\u9762", "\u79ef"], ["un", "st"], [" b", "r"], ["ist", "ance"], [" at", "om"], ["ran", "k"], ["G", "B"], ["\u30bb", "\u30c3\u30c8"], [" \u041a", "\u043e\u043d"], [" fa", "iled"], [" Z", "e"], ["Tem", "plate"], ["f", "lag"], ["h", "andle"], ["\u30d3", "\u30fc"], ["oc", "us"], [" U", "RL"], [" \u0434\u0435", "\u043a\u0430"], ["F", "L"], ["\u043a", "\u0441\u0438"], ["\u308a", "\u306e"], ["\u30e8", "\u30fc"], ["\u4e4b", "\u524d"], ["\u4eba", "\u304c"], ["il", "es"], ["est", "e"], ["\u043d\u0438", "\u043c"], [" ch", "o"], ["UR", "I"], ["II", "I"], ["C", "ert"], ["\u3068", "\u8a00"], ["\u7406", "\u8bba"], [" M", "art"], [" K", "ar"], [" \u0413", "\u0430"], ["\u7f8e", "\u8853"], ["198", "6"], ["P", "lay"], ["w", "in"], ["\u589e", "\u957f"], [" C", "re"], [" M", "ERCHANTABILITY"], [" g", "ra"], ["li", "k"], ["P", "ool"], ["\u4e8c", "\u4e16"], ["\u7537", "\u5b50"], ["de", "vice"], ["im", "pl"], [" \u0413", "\u0435"], [" arg", "uments"], ["D", "ebug"], ["P", "ers"], ["m", "ann"], ["\u53e6", "\u5916"], ["\u5efa", "\u7b51"], [" g", "lobal"], [" se", "arch"], ["\u0442\u0438", "\u0439"], ["))", ");"], [" with", "in"], ["app", "ly"], ["o", "x"], ["\u5217", "\u8eca"], ["\u7d71", "\u4e00"], [" ex", "ception"], ["ay", "load"], [" AV", "X"], ["\u043b", "\u0451\u043d"], ["\u30c8", "\u30eb"], ["\u5305", "\u542b"], ["\u5f8c", "\u4f86"], ["\u8fd9", "\u79cd"], ["ur", "a"], [" m", "achine"], ["ne", "h"], [" \u0444\u0435\u0432", "\u0440\u0430"], ["M", "sg"], ["S", "ign"], ["r", "iff"], ["\u0447", "\u043d\u044b\u0445"], [" \u0434", "\u0430\u043d"], [" Ar", "ch"], [" \u0432\u0435", "\u043a\u0430"], ["\u0436\u0434", "\u0435\u043d\u0438\u044f"], [" \u043d\u0430", "\u0437\u044b\u0432\u0430"], [" <", "-"], [" by", "te"], ["Ex", "pect"], [" pers", "on"], ["W", "ork"], ["\u5e74", "\u9593"], [" c", "rit"], [" b", "ien"], ["ol", "ution"], ["pon", "ents"], [" Pro", "du"], ["\u00e4", "ter"], ["\u044c", "\u044f"], ["\u62c5", "\u5f53"], [" \u0441", "\u043b\u0435"], [" 3", "2"], [" char", "acter"], ["k", "wargs"], ["\u51e6", "\u7406"], [" C", "ent"], [" u", "i"], ["\u73fe\u5728", "\u306e"], [" \u0430\u043c\u0435\u0440\u0438\u043a\u0430\u043d", "\u0441\u043a\u0438\u0439"], ["\u3068", "\u304d"], ["\u7537", "\u6027"], [" pro", "m"], ["\u0432\u043e", "\u0435"], ["\u306b\u767b\u5834\u3059\u308b", "\u30ad\u30e3\u30e9\u30af\u30bf\u30fc"], ["de", "pend"], ["im", "at"], [" D", "av"], ["St", "ats"], ["l", "ers"], ["z", "ial"], [" b", "i"], [" M", "et"], ["Re", "quire"], ["ex", "port"], ["pre", "fix"], ["Ass", "ert"], ["M", "ask"], ["\u7cbe", "\u795e"], [" pro", "to"], [" [", "\""], [" \u043a", "\u043b\u0430"], [" object", "s"], ["irt", "schaft"], ["R", "aw"], ["\u8ba1", "\u7b97"], [" p", "at"], [" s", "ent"], ["\u043b\u0438", "\u0447\u0438"], [" \u0440\u0435", "\u043b\u0438\u0433\u0438"], ["\u30a2\u30eb", "\u30d0"], ["uck", "et"], ["\u30d7", "\u30ec"], ["\u8def", "\u7dda"], [" t", "ask"], ["st", "ack"], [" 19", "50"], ["\u043b\u0438", "\u043d"], [" \u044d", "\u0442\u0438"], [" \u0433", "\u0440\u0443\u043f"], [" \u0442\u0435", "\u043b\u0435"], ["Equal", "s"], [" cons", "ider"], ["\u0435\u043d\u0435", "\u0440\u0430"], [" \u0438\u044e", "\u043d\u044f"], ["d", "ay"], ["g", "raph"], ["v", "or"], ["\u4fc4", "\u7f85\u65af"], ["or", "ph"], [" b", "uf"], ["19", "60"], [" F", "e"], [" F", "rench"], ["\u0440\u0435", "\u0432"], ["\u043b\u043e", "\u043c"], [" \u0447\u0435\u043b\u043e\u0432\u0435", "\u043a"], ["\u0446", "\u0435\u0432"], [" l", "and"], [" h", "tml"], ["\u306a\u3069", "\u3092"], [" 197", "9"], ["aw", "s"], [" \u0447\u0430", "\u0441\u0442\u0438"], ["\u306b\u3064\u3044\u3066", "\u306f"], ["\u30af", "\u30b9"], ["\u4e00", "\u4e16"], ["un", "ch"], [" v", "ert"], [" \"", "-"], ["ik", "er"], [" 197", "2"], ["\u5b58\u5728", "\u3059\u308b"], ["\u0437\u043e", "\u0432\u0430"], ["\u4f7f", "\u5f97"], [" j", "ob"], [" 197", "3"], ["U", "D"], ["h", "pp"], ["\u30ae", "\u30e3"], ["\u4e4b", "\u9593"], ["if", "i"], [" In", "c"], ["\u307e\u3067", "\u306e"], [" ", "\u0442\u0438"], ["\u306e", "\u3067"], ["\u30b7", "\u30f3\u30b0"], ["\u52d5", "\u7269"], [" d", "ig"], [" WARRANT", "Y"], [" ", "\u306f"], ["h", "ol"], ["x", "d"], ["\u0447", "\u043d\u043e\u0439"], ["\u603b", "\u4eba\u53e3"], ["\u7af6", "\u6280"], ["\n\t", " "], [" com", "ponent"], ["\u3060", "\u304c"], ["\u6839", "\u64da"], ["\u8b70", "\u54e1"], ["ell", "t"], ["IN", "T"], ["m", "ake"], ["{", "},"], ["ich", "er"], ["co", "ver"], ["lip", "se"], ["\u0438", "\u043c"], ["\u6d3b", "\u52a8"], ["is", "en"], [" M", "enschen"], [" \u043c", "\u043d\u043e"], ["\u6559", "\u6388"], ["if", "orm"], [" \u0421", "\u0428\u0410"], ["\u3068\u3057\u3066", "\u306e"], [" 197", "8"], ["<", "<"], ["L", "ICENSE"], ["\u305e", "\u308c"], ["il", "la"], ["ad", "ing"], [" st", "ill"], [" \u0443", "\u043d\u0438"], ["iss", "ing"], ["\u0442\u0443", "\u0440\u044b"], ["el", "ine"], [" e", "arly"], ["\u3053\u3068", "\u306f"], [" def", "ined"], [" ag", "reed"], ["\u30b8\u30a7", "\u30af\u30c8"], [" \u043a\u0443", "\u043b\u044c"], ["R", "ed"], ["c", "a"], ["\u0443", "\u044e"], ["\u4f5b", "\u6559"], ["le", "v"], ["ist", "ic"], [" '", "\\"], [" log", "ger"], ["D", "L"], ["D", "uration"], ["\u0436", "\u0435\u043d\u0438\u0435"], [" B", "et"], ["\u305d\u308c", "\u305e\u308c"], ["c", "d"], ["\u5b98", "\u65b9"], [" c", "ache"], ["fer", "red"], [" \u043f\u0440\u0438", "\u043d\u044f"], ["aut", "res"], ["\u00e4n", "g"], ["\u3068\u3082", "\u306b"], [" Aust", "ral"], ["\u516c", "\u5171"], ["\u96d1", "\u8a8c"], [" S", "al"], ["\u043a\u043e", "\u0433\u043e"], [" com", "b"], ["und", "en"], ["l", "imit"], ["\u5c3c", "\u4e9e"], ["ar", "r"], ["\u0442\u0438", "\u0438"], ["Q", "U"], ["in", "i"], [" S", "up"], ["\u91cd\u8981", "\u7684"], [" \u043d\u0430\u0441\u0435", "\u043b\u0435\u043d\u0438\u044f"], ["F", "loat"], ["[", ":"], ["\u535a", "\u7269"], ["\u5c0e", "\u5165"], ["\u7f57", "\u65af"], ["\u8b70", "\u9662"], [" f", "em"], ["bo", "ve"], ["To", "ol"], [" Eur", "op"], ["l", "ines"], ["\u041f", "\u0440\u0438"], ["\u3046", "\u3061"], ["\u5143", "\u5e74"], ["\u8fd1", "\u4ee3"], ["at", "re"], ["res", "pond"], [" W", "indow"], ["\u00e9r", "ation"], ["Pack", "et"], ["\u0445\u043e\u0434", "\u044f"], ["----------------------------------------------------------------", "--------"], ["Iter", "ator"], ["\u7522", "\u751f"], ["et", "ime"], [" in", "flu"], [" \u0432", "\u0430"], ["\u0440\u0430", "\u0432"], ["Le", "ft"], [" \u043e\u0431\u043b\u0430", "\u0441\u0442\u0438"], ["\u0448", "\u0435\u043d\u0438\u044f"], ["\u307e", "\u308b"], ["\u4e3b", "\u5f35"], ["\u65b9", "\u5411"], [" de", "pend"], [" B", "ase"], [" com", "mer"], [" \u0441\u0442", "\u0440\u043e"], ["\u30a2\u30a4", "\u30c9\u30eb"], ["\u30e9", "\u30b8\u30aa"], ["\u6a5f", "\u95a2"], [" J", "an"], ["\u043f\u0438", "\u0441"], ["\u4fdd", "\u8b77"], ["\u7981", "\u6b62"], ["\uff0c", "\u201c"], [" t", "ri"], [" \u043e", "\u0441\u0442\u0430"], [" \u043e", "\u043a\u0442"], ["C", "ore"], ["W", "allet"], ["\u30ae", "\u30fc"], ["in", "er"], [" t", "ak"], [" n", "etwork"], [" A", "ct"], [" \u043e\u0440\u0433", "\u0430\u043d\u0438"], ["\u0431", "\u0443\u0440"], ["\u30c8", "\u30ea"], ["\u7ed3", "\u6784"], ["\u904b", "\u8ee2"], [" and", "eren"], [" 197", "6"], ["l", "ad"], ["\u30b8", "\u30fc"], ["\u30ed", "\u30c3\u30af"], [" p", "od"], ["iel", "le"], ["\u0440\u0443", "\u043a"], [" er", "st"], ["org", "an"], ["Reg", "ion"], ["aiss", "ance"], ["C", "A"], ["i", "os"], ["\u00e9", "ra"], ["\u0437", "\u0430\u043d"], ["\u307b", "\u3069"], [" m", "ag"], [" S", "outh"], [" of", "ten"], ["\u043d\u0430", "\u043a\u043e"], [" 197", "1"], ["\u653f\u6cbb", "\u4eba\u7269"], ["Im", "pl"], ["CH", "E"], [" loc", "ation"], [" point", "s"], ["K", "ind"], ["\u4f5c", "\u8005"], ["un", "kt"], [" qu", "al"], ["rie", "f"], ["iert", "en"], ["\u548c", "\u5e73"], ["\u7535", "\u89c6"], ["\u7a2e", "\u985e"], ["\u0448\u0430", "\u044f"], ["\u30ea\u30f3", "\u30af"], [" hel", "p"], ["v", "c"], ["\u62e5", "\u6709"], ["\u6700", "\u521d"], ["\u751f", "\u7523"], [" a", "bove"], ["ul", "er"], [" B", "AS"], [" j", "usqu"], ["\u043f\u0430", "\u0434"], ["\u4e0d", "\u53ef"], [" W", "eb"], ["i", "ans"], [" f", "lag"], [" F", "re"], ["og", "gle"], ["user", "name"], ["\u043a", "\u043b\u0430"], ["\u4e24", "\u4e2a"], ["\u8a95", "\u751f"], [" s", "om"], [" F", "ra"], ["fa", "ke"], [" 197", "5"], ["uz", "z"], ["D", "VD"], ["s", "ide"], ["\u30aa", "\u30d6"], ["\u30db", "\u30fc\u30e0"], ["\u897f", "\u90e8"], ["\u0441\u0442", "\u0440\u0435"], [" I", "O"], [" G", "ener"], ["\u0440\u0435", "\u0434\u0438"], [" at", "tr"], ["\u30c6\u30a3", "\u30fc"], ["exec", "ute"], ["P", "e"], ["g", "it"], ["{", "{"], ["\u201d", "\uff08"], ["\u3092", "\u3082"], [" C", "e"], ["que", "ue"], ["ste", "ad"], [" \u0436\u0438", "\u0437"], ["Met", "adata"], ["D", "as"], ["\u00ea", "te"], ["\u7a0b", "\u5e8f"], ["er", "d"], ["li", "de"], ["ier", "re"], ["sh", "ape"], ["194", "9"], ["iet", "y"], ["N", "e"], ["N", "il"], ["\u76f4", "\u5230"], ["if", "est"], ["ge", "w"], ["pon", "der"], ["\u30ba", "\u30f3"], ["\u5341", "\u5206"], ["ou", "ch"], ["ib", "li"], [" so", "it"], ["ster", "dam"], [" \u0441\u043e\u0441\u0442\u0430", "\u0432\u043b\u044f"], ["\u306b\u95a2", "\u3059\u308b"], ["f", "\u00fc"], ["\u3053", "\u308d"], ["\u7528", "\u4e8e"], ["\u904e", "\u53bb"], ["19", "50"], [" E", "lement"], ["\u0442\u043e", "\u0439"], ["\u0441\u0442\u0438", "\u0442\u0443"], [" su", "iv"], [" lang", "ue"], [" El", "le"], ["\u5efa", "\u8bbe"], [" re", "m"], [" h", "tt"], [" com", "pos"], ["\u3082\u306e", "\u306e"], ["hal", "b"], ["\u4ee5", "\u6765"], ["\u516c", "\u5f0f"], ["\u547d", "\u4ee4"], ["\u63b2", "\u8f09"], [" t", "x"], [" v", "ie"], ["ad", "a"], ["\u6700", "\u5927\u7684"], ["\u7a7a", "\u6e2f"], ["cl", "ar"], ["log", "ger"], ["\u0436", "\u0434\u0430"], ["\u5341", "\u4e00"], ["\u7368", "\u7acb"], [" p", "et"], [" p", "resent"], [" \u043e", "\u043f\u0440\u0435\u0434\u0435"], ["198", "4"], ["Se", "cond"], ["\u30c7\u30a3", "\u30b9\u30af"], [" gover", "ning"], [".", "\"\"\""], ["a", "que"], ["\u30d4", "\u30fc"], ["\u592a", "\u5e73"], ["\u5feb", "\u901f"], ["\u898f", "\u683c"], [" m", "ort"], [" be", "h"], ["Ex", "p"], [" 197", "4"], [" 196", "8"], ["\u7528", "\u306e"], ["\u7535", "\u5f71"], [" C", "a"], [" '", "<"], [" te", "am"], [" mus", "ic"], ["\u5927", "\u9646"], [" f", "est"], [" o", "pp"], [" M", "ap"], [" th", "ose"], [" En", "t"], ["\u044e\u0449\u0438", "\u0435"], ["\u5973", "\u6f14\u54e1"], [" s", "\u00e9"], [" (", "\u00ab"], [" 1", "000"], [" re", "dist"], [" \u0432\u044b", "\u0441\u043e"], ["\u043f\u043e\u0440", "\u0442"], ["\u4f0a", "\u65af"], ["\u5236", "\u5b9a"], ["\u897f", "\u65b9"], ["ple", "x"], [" En", "g"], ["\u044e\u0449\u0438", "\u0439"], [" \u0441\u0435\u043d\u0442", "\u044f\u0431\u0440\u044f"], [" ", "\u5c71"], [" f", "our"], ["ut", "ure"], [" D", "an"], [" cons", "id"], [" Pl", "an"], [" \u0444\u0435\u0432\u0440\u0430", "\u043b\u044f"], ["\u30c7", "\u30b8"], ["\u30ed", "\u30f3"], ["ran", "ch"], [" comp", "liance"], ["Des", "c"], ["O", "p"], ["W", "e"], [" wh", "ether"], [" \u043a", "\u0440\u0443\u043f"], [" const", "ruct"], ["nap", "sh"], ["w", "idget"], ["\u5f00", "\u53d1"], ["\u7269", "\u8a9e"], [" pre", "fix"], [" method", "s"], ["lie", "\u00df"], [" orig", "in"], ["\u30b5\u30c3\u30ab\u30fc", "\u9078\u624b"], ["t", "d"], ["\u0442", "\u0440\u043e"], ["\u5408", "\u308f\u305b"], ["\u76f8", "\u4e92"], ["us", "ion"], ["id", "den"], ["ord", "s"], [" d\u00e9", "par"], [" \u0442\u0435", "\u043c"], [" lo", "ok"], [" Jap", "an"], [" applic", "able"], ["\u3055", "\u3093"], ["\u306a", "\u308a"], ["\u5bfe", "\u8c61"], ["ar", "th"], ["\u043c\u043e", "\u0436"], [" 6", "0"], ["Se", "arch"], [" key", "s"], ["h\u00e4", "lt"], [" ", "\u0433\u0438"], ["\u4f53", "\u306e"], ["\u57fa", "\u790e"], ["ch", "o"], ["rom", "e"], ["ell", "schaft"], [" \u0418", "\u043d"], ["194", "5"], [" \u0430\u043f\u0440\u0435", "\u043b\u044f"], ["$", "{"], ["C", "al"], ["O", "ne"], ["\u4eac", "\u6210"], ["\u8a18", "\u5ff5"], [" s", "oci"], [" K", "ing"], [" pre", "vious"], ["itt", "ed"], [" \u0447\u0435", "\u043c\u043f\u0438"], [" \u00c9t", "ats"], [" gouver", "nement"], [" ", "\u043d"], [" en", "core"], ["Sch", "ema"], ["\u96d6", "\u7136"], [" com", "ment"], [" 196", "7"], ["p", "x"], ["\u642d", "\u8f09"], ["\u7528", "\u3044"], [" d", "onn"], ["        ", "      "], [" l", "itt"], [" \u043f", "\u043b\u043e"], ["In", "d"], ["put", "er"], ["198", "5"], ["Rem", "ove"], [" mo", "ins"], ["h", "alt"], ["\u671f", "\u95f4"], [" l", "icense"], ["ab", "or"], ["P", "H"], ["\u308c", "\u3066"], ["\u5efa", "\u8a2d"], ["\u811a", "\u6ce8"], ["\u91cd", "\u65b0"], [" T", "ra"], [" k", "wargs"], ["R", "ule"], ["b", "orn"], ["\u0442", "\u044f"], ["\u5e0c", "\u671b"], ["err", "ors"], [" 3", "1"], [")", "\","], ["y", "a"], ["\u30a2", "\u30ca"], ["\u30bb", "\u30eb"], ["\u7279", "\u5b9a"], ["bo", "olean"], [" log", "ging"], [" su", "ite"], ["\u043e", "\u043b\u043e"], ["\u3044", "\u306f"], ["\u30c9", "\u30e9\u30a4"], ["\u30dc", "\u30fc"], ["at", "om"], [" st", "rict"], ["\u0440\u0438", "\u0441\u0442\u0438"], ["\u0435\u0432", "\u0435\u0440"], [" model", "s"], [" \u00dc", "ber"], ["\u30cf", "\u30a4"], [" ra", "d"], ["Des", "cription"], [" \u044d\u043b\u0435", "\u043a\u0442"], ["C", "S"], ["D", "S"], ["u", "uid"], ["\u30e1", "\u30c7\u30a3\u30a2"], [" d", "ict"], ["Th", "is"], ["\u30b7\u30e3", "\u30eb"], ["\u30b3\u30df", "\u30c3\u30af"], ["y", "r"], ["\u0433", "\u0435\u043d"], ["\u800c", "\u4e14"], ["\u9053", "\u5fb7"], ["art", "en"], ["198", "3"], [" but", "ton"], ["J", "S"], ["\u516c", "\u8def"], ["\u5e74", "\u524d"], ["\u5e74", "\u5ea6"], ["al", "f"], [" \u0441", "\u0440\u0435\u0434"], [" X", "ML"], [" fa", "ce"], ["\u0449\u0430", "\u044f"], ["T", "imer"], ["V", "M"], ["t", "ra"], [" qu", "el"], [" \u0433\u043e", "\u0434"], ["En", "um"], ["\u043d\u043e\u0441\u0442\u044c", "\u044e"], [" pass", "word"], ["\u043b\u043e\u0433\u0438", "\u0438"], [" \u0440\u0443\u0441", "\u0441\u043a\u0438\u0439"], ["F", "irst"], ["x", "x"], ["\u57fa", "\u5730"], ["\u7570", "\u306a\u308b"], [" g", "rande"], [" to", "us"], [" pro", "perties"], ["pro", "p"], ["ST", "R"], ["197", "9"], ["\u95a2\u9023", "\u9805\u76ee"], [" ", "\u30de"], ["\u5e74", "\u304b\u3089"], ["if", "s"], [" \"", "%"], ["\u043b\u0435", "\u0437"], ["\u0440\u0430\u043d", "\u0441"], ["ribut", "ion"], ["not", "ation"], ["ade", "m"], ["s", "d"], ["\u30ef", "\u30fc"], ["\u88fd", "\u54c1"], [" p", "ou"], [" re", "v"], ["get", "Name"], ["val", "u"], [" An", "t"], [" av", "ant"], ["\u5ba3", "\u8a00"], [" d", "raw"], [" un", "defined"], ["um", "b"], ["\u0435\u0442", "\u0438"], ["app", "lication"], ["ement", "s"], ["c", "fg"], ["o", "pts"], ["\u8005", "\u304c"], ["am", "a"], ["ce", "m"], [" h", "ope"], ["age", "ment"], ["Con", "f"], ["En", "code"], [" 196", "9"], ["\u307e\u305f", "\u306f"], ["l", "im"], ["\u308b", "\u3068"], ["or", "ge"], ["ab", "il"], [" pl", "ugin"], ["bo", "se"], ["L", "at"], ["\u7406", "\u7531"], ["\u8cbf", "\u6613"], [" b", "en"], ["av", "ig"], ["\u0432\u0438", "\u043d"], [" config", "uration"], [" implement", "s"], ["omet", "ry"], ["M", "A"], ["i", "xt"], ["\u307b", "\u3068\u3093"], ["\u8ba1", "\u5212"], [" h", "istory"], [" r", "ule"], [" []", ";"], [" fil", "ename"], ["\u0449\u0435", "\u0435"], [" att", "ribute"], ["\u307b\u3068\u3093", "\u3069"], ["C", "md"], ["J", "ava"], ["g", "ame"], ["\u79fb", "\u6c11"], ["on", "ly"], ["ro", "t"], [" m", "ed"], ["\u0440\u0435", "\u0439"], [" col", "l"], [" act", "iv"], [" \u0430\u043d", "\u0433\u043b\u0438"], ["Mem", "ory"], ["N", "et"], ["\u0441", "\u043b\u0443"], ["\u5229", "\u4e9a"], ["\u897f", "\u4e9e"], [" f", "ac"], ["        ", "     "], ["ge", "ben"], ["\u043b\u044c", "\u0442\u0430"], [" \u041f", "\u0435\u0440"], ["cre", "t"], ["\u30b7\u30fc", "\u30ba\u30f3"], [" \u043f\u043e\u043b\u0443", "\u0447\u0438"], ["L", "ang"], ["n", "il"], ["\u898f", "\u5b9a"], ["av", "ing"], ["\u0448\u0438", "\u0445"], ["med", "i"], ["\u8054\u5408", "\u56fd"], [" repr\u00e9s", "ent"], ["C", "ap"], ["\u306e", "\u5927"], [" a", "ff"], ["il", "y"], [" de", "ath"], ["fa", "ces"], ["ah", "len"], ["\u30a4\u30f3", "\u30bf\u30fc"], [" CON", "DIT"], ["d", "r"], ["ce", "ed"], ["ist", "an"], ["ind", "er"], [" \u0440\u0430\u0441", "\u043f\u043e"], [" BAS", "IS"], ["s", "m"], ["\u5173", "\u4e8e"], ["\u7b2c", "\u56db"], [" de", "vice"], ["ist", "ics"], [" P", "e"], ["\u3053\u3068", "\u304b\u3089"], [" ver", "wend"], ["1", "000"], ["D", "el"], ["t", "ing"], ["t", "ab"], ["\u30af", "\u30b7\u30e7\u30f3"], ["\u61b2", "\u6cd5"], [" o", "pts"], ["con", "v"], [" \u0434", "\u0432\u0438"], [" Q", "String"], [" tem", "ps"], [" ", "\u9ad8"], ["e", "q"], ["\u5168", "\u3066"], [" d", "ue"], ["et", "ary"], [" f", "ois"], ["St", "ruct"], [" \u043a", "\u0440\u0430"], [" event", "s"], ["\u5834\u5408", "\u306f"], ["EV", "EX"], [" Leipz", "ig"], ["1", "01"], ["\u6709", "\u9650"], ["\u6e05", "\u671d"], [" c", "ur"], [" f", "ig"], ["ick", "s"], ["B", "al"], ["\u30d5", "\u30ec"], ["\u30ef", "\u30fc\u30af"], ["\u8fd8", "\u6709"], [" re", "lease"], ["ge", "me"], [" 2", "9"], [" [", "],"], ["row", "n"], [" trans", "l"], ["Sh", "ort"], [" ind", "ust"], [" nou", "ve"], [" CONDIT", "IONS"], [" ", "ess"], ["b", "res"], ["\u53e4", "\u5178"], ["\u6216", "\u8005"], ["\u8ddd", "\u96e2"], [" M", "ax"], ["ub", "ern"], ["end", "ing"], ["fo", "is"], [" tra", "v"], ["abe", "i"], ["\u30ca", "\u30a4\u30c8"], ["\u81fa", "\u5317"], [" ind", "ivid"], [" redist", "ribute"], ["\u30e1", "\u30f3\u30c8"], ["\u7d44", "\u307f"], ["st", "off"], [" c", "ustom"], [" C", "D"], ["())", ");"], ["\u4ed6", "\u5728"], ["rom", "ise"], [" \u0435", "\u0441\u0442\u044c"], ["play", "er"], ["mar", "shal"], [" Dies", "e"], ["idd", "le"], [" sever", "al"], ["g", "ar"], ["g", "lied"], ["i", "j"], ["\u5341", "\u4e09"], ["\u5df2", "\u7d93"], ["\u79d1", "\u5b78"], [" ar", "ound"], [" perm", "et"], [")", ")."], [" s", "i\u00e8"], [" H", "owever"], ["\u0432\u0430", "\u043b\u0438"], ["sh", "ip"], ["vel", "le"], ["B", "it"], ["\u308f", "\u308a"], ["\u534a", "\u5cf6"], ["al", "ign"], [" re", "port"], ["ad", "s"], [" License", "d"], [" trans", "port"], ["object", "s"], ["W", "h"], ["a", "ute"], ["\u0448", "\u0435\u043d\u0438\u0435"], ["\u53e6", "\u4e00"], ["\u5c55", "\u958b"], ["        ", "       "], [" P", "aul"], ["for", "ce"], ["pre", "c"], ["\u00e4n", "der"], [" tem", "p"], ["\u30c7\u30b8", "\u30bf\u30eb"], ["t", "xt"], ["\u3001", "\u201c"], ["\n            ", "  "], [" z", "e"], [" Ph", "il"], ["N", "D"], ["\u9818", "\u57df"], [" d", "ir"], ["re", "ib"], [" v", "erschied"], ["lic", "it"], [" \u044d", "\u043a\u0441"], ["f", "lags"], ["\u0420", "\u043e"], ["\u50b3", "\u7d71"], ["\u5206", "\u5e03"], ["\u5206", "\u91ce"], ["an", "a"], [" t", "\u00e9l\u00e9"], [" n", "ord"], [" {", "};"], ["im", "g"], [" \"", "."], ["lo", "ss"], [" R", "uss"], ["St", "at"], [" k", "onn"], ["197", "8"], [" util", "is"], ["\u308f\u308c", "\u3066\u3044\u308b"], ["3", "00"], ["\u00e8", "res"], ["\u306e", "\u767a"], ["\u7ec4", "\u6210"], [" k", "omm"], ["log", "in"], ["\u0441\u0442\u0432\u043e", "\u043c"], [" \u0437", "\u0435\u043c"], [" weit", "er"], ["\u4f4d", "\u65bc"], ["\u6c11", "\u56fd"], [" s", "i"], ["ap", "on"], ["ant", "es"], [" H", "amb"], [" $", "."], [" \u0442", "\u0440\u0430"], ["\u3067\u304d", "\u306a\u3044"], [" don", "c"], [",", "-"], ["B", "l"], ["H", "K"], ["I", "ME"], ["\u533a", "\u57df"], ["\u5bf9", "\u4e8e"], ["om", "me"], [" C", "lass"], ["Re", "ce"], [" In", "it"], ["po", "sed"], [" 197", "7"], [" ", "\uff1a"], ["=", "%"], ["P", "o"], ["\u0438", "\u043b\u0438"], ["\u5e73", "\u539f"], ["\u8fdb", "\u5165"], ["id", "x"], [" H", "istory"], [" ex", "emple"], ["\u043b\u0435", "\u043c"], [" \u0438\u0437", "\u0432\u0435\u0441\u0442"], [" \u0447\u0430", "\u0441\u0442\u044c"], [" \u043c\u043e\u0436", "\u0435\u0442"], ["\u043d", "\u044c"], ["\u0448", "\u043e"], ["\u6587", "\u5b78"], ["\u0442\u0438", "\u0435"], [" \u0442\u043e", "\u0440"], [" \u0442", "\u0440\u0435"], ["\u4eba\u53e3", "\u4e3a"], ["iter", "atur"], [" \u0445", "\u0430"], ["\u0435", "\u0434\u0438\u043d"], ["\u540e", "\u6765"], ["\u5f53", "\u521d"], [" s", "cope"], [" m", "oment"], ["\u0432\u043e", "\u043b\u044e"], ["sh", "ared"], [" he", "ute"], [" 196", "6"], ["\u30e9\u30a4", "\u30c0\u30fc"], ["'", "}"], ["A", "v"], ["D", "R"], ["f", "ull"], ["av", "ed"], ["Des", "criptor"], ["\u3089", "\u305a"], ["\u4e26", "\u4e14"], ["\u81ea", "\u5206"], ["re", "a"], ["\u043b\u0438", "\u0441\u0442"], [" act", "ive"], ["\u043a\u043b\u044e", "\u0447\u0430"], ["\u30a2\u30eb\u30d0", "\u30e0"], ["\"", "+"], ["V", "ector"], ["\u30eb", "\u30fc"], ["\u7ed3", "\u675f"], ["\u8eca", "\u4e21"], [" p", "\u00e9ri"], [" 19", "64"], ["ON", "E"], ["sch", "ema"], ["\u30fc\u30eb", "\u30c9"], [" request", "s"], ["T", "ra"], ["\u3053", "\u3046"], ["\u5357", "\u5317"], ["\u58f0", "\u512a"], ["\u673a", "\u6784"], ["in", "ner"], [" d", "r"], [" se", "par"], [" L", "ond"], [" for", "me"], ["Th", "at"], ["\u30ed\u30fc", "\u30de"], ["\u043a", "\u0440\u0435"], ["\u5c45", "\u4f4f"], ["\u904e", "\u7a0b"], ["ag", "ed"], ["\u043d\u0438", "\u043c\u0430"], ["com", "ponent"], ["string", "s"], [" sh", "ift"], [" \u0441\u0438\u0441\u0442", "\u0435\u043c"], [" \u0442\u0435\u0440\u0440\u0438\u0442\u043e", "\u0440\u0438\u0438"], ["e", "ff"], ["\u30e5", "\u30a2"], ["\u4fdd", "\u6301"], ["\u5de6", "\u53f3"], ["um", "es"], ["\n\n", "\n   "], ["os", "h"], ["\n                            ", "       "], [" produ", "ction"], ["F", "M"], ["l", "le"], ["x", "a"], ["\u57fa", "\u7840"], [" se", "hr"], ["ex", "it"], ["str", "ument"], ["af", "ter"], ["stell", "ung"], ["FI", "LE"], ["\u3092", "\u4f7f\u7528"], ["\u6a5f", "\u5668"], ["\u963f", "\u723e"], [" R", "\u00e9"], ["ke", "hr"], ["kt", "ur"], ["\u30d5\u30a1", "\u30a4\u30eb"], ["\u30c9\u30e9", "\u30de"], ["b", "au"], ["\u30b9", "\u30b1"], ["\u4f26", "\u6566"], ["\u51b3", "\u5b9a"], ["st", "ract"], ["\u043d\u043e", "\u0432\u0438"], [" P", "al"], ["\u0433\u043e", "\u0432"], [" sel", "on"], ["\u0448", "\u0435\u0439"], ["\u6700", "\u3082"], ["\u6b66", "\u5668"], ["\u6b96", "\u6c11"], ["in", "o"], [" d", "f"], [" K", "ey"], [" \u0410", "\u0432"], [" `", "`"], [" syst", "\u00e8me"], ["c", "ert"], ["s", "cript"], ["\u4eba", "\u7c7b"], ["in", "ess"], [" D", "ans"], ["th", "ough"], [" Th", "ere"], [" war", "rant"], ["ME", "M"], ["Sh", "ow"], ["P", "R"], ["b", "ed"], ["\u4eba", "\u9593"], ["\u516c", "\u5712"], ["\u5c5e", "\u4e8e"], ["\u6f14", "\u51fa"], ["\u7279", "\u5fb4"], ["\u96c6", "\u4e2d"], [" d", "at"], ["----", "--"], [" G", "er"], [" be", "zeichnet"], [" cont", "ains"], [" Fl", "or"], ["f", "ang"], ["t", "ree"], ["\u5168", "\u90e8"], [" M", "ark"], [" \u0434", "\u0443"], [" \u0434", "\u0432\u0443"], [" pro", "gress"], [" instance", "of"], ["\u0444", "\u0435\u0440"], ["\u30d0", "\u30eb"], ["\u6761", "\u4ef6"], ["\u8ecc", "\u9053"], ["\n    ", "      "], [" p", "riv"], [" c", "op"], ["land", "s"], [" mem", "ory"], ["\u5171", "\u6709"], ["\u5b81", "\u6ce2"], ["\u043b\u043e", "\u0436\u0435\u043d"], [" Gr", "und"], [" \u0445", "\u0443\u0434\u043e"], ["A", "cc"], ["\u662f", "\u7531"], ["\u8005", "\u306f"], [" 19", "30"], ["\u043d\u0435", "\u0433\u043e"], [" const", "it"], ["198", "2"], [" 194", "4"], ["\u5927\u304d", "\u306a"], ["sup", "er"], ["ptem", "ber"], ["L", "L"], ["R", "ole"], ["W", "ait"], ["\u30c0", "\u30f3"], [" re", "ference"], [" an", "other"], [" are", "a"], [" Th", "ese"], ["AT", "A"], ["OR", "Y"], [" best", "e"], ["\u043b", "\u043b\u0435"], ["\u044f", "\u0432\u0438"], ["\u7c92", "\u5b50"], ["st", "ats"], ["qu", "ent"], [" I", "II"], ["Aut", "hor"], ["frame", "work"], [" \u0430\u043a\u0442", "\u0451\u0440"], [" \u0434\u0435\u043a\u0430", "\u0431\u0440\u044f"], ["A", "ME"], ["\u7523", "\u696d"], ["\u7684", "\u4e3b\u8981"], [" s", "oll"], [" g", "raph"], [" tra", "ck"], [" \u043d\u043e", "\u044f\u0431\u0440\u044f"], [" \u043f\u0435", "\u0440\u0438\u043e"], ["ubern", "etes"], ["\u00e9", "ment"], [" S", "ub"], [" M", "ittel"], [" \u041a", "\u0443"], ["\u0432\u044b", "\u043c"], ["result", "s"], ["_", "("], ["\u30bb", "\u30b9"], ["\u51fa", "\u6765"], ["\u57fa", "\u56e0"], ["\u671d", "\u65e5"], [" d", "ay"], [" f", "ort"], [" b", "esch"], ["ri", "que"], ["ass", "en"], [" met", "adata"], [" ke", "ine"], ["J", "R"], ["M", "ENT"], ["T", "race"], ["c", "raft"], ["h", "\u00f6r"], ["\u0442", "\u0430\u043d"], ["\u044c", "\u0435"], ["\u5207", "\u308a"], ["ic", "les"], [" M", "ay"], [" En", "tw"], ["A", "CT"], [" re", "main"], [" C", "ode"], ["od", "ing"], [" per", "iod"], ["Act", "ive"], ["F", "ound"], [" d", "atabase"], [" s", "l"], ["()", "))"], [" g", "esch"], ["\u0432\u043e", "\u0437"], [" partic", "ul"], ["\u30c7", "\u30aa"], ["\u6307", "\u51fa"], ["\u6807", "\u51c6"], ["st", "adt"], [" g", "leich"], [" N", "O"], [" ", "\n "], ["J", "oin"], ["S", "O"], ["\u53bb", "\u4e16"], ["qu", "er"], ["vent", "ion"], ["oul", "ouse"], [" \u044d", "\u043a\u043e\u043d\u043e\u043c\u0438"], ["\u0433\u0440\u0430", "\u043c"], [" \u043e\u043a\u0442", "\u044f\u0431\u0440\u044f"], ["n", "a"], ["\u30eb", "\u30e0"], ["\u4ecd", "\u7136"], ["\u5408", "\u4f75"], [" \u043e", "\u0434\u0438\u043d"], ["con", "nection"], ["\u043a\u0430", "\u0445"], ["ific", "ate"], [" cor", "respond"], ["\u6f14", "\u594f"], ["\u043b\u044c", "\u043d\u043e"], [" er", "sten"], [" sp", "\u00e4ter"], ["\u30c1\u30e3", "\u30f3"], [" \u043a\u043e\u0442\u043e\u0440\u044b", "\u0445"], ["/", "{"], ["\u4eba", "\u5de5"], [" w", "en"], [" ein", "z"], [" 196", "5"], ["\u0431\u0438", "\u0440"], ["fol", "g"], ["\u3092\u53d7", "\u3051"], [" ", "\u30aa"], ["H", "as"], ["S", "ocket"], ["\u969b", "\u306b"], [" c", "ause"], ["ur", "ity"], ["as", "ure"], [" un", "signed"], ["fo", "und"], ["\u0430\u043d\u0438", "\u0435\u043c"], [" d\u00e9", "but"], ["Ch", "ain"], ["\u306b\u304a\u3044\u3066", "\u306f"], ["\u56fd\u52a1", "\u9662"], ["\u306e", "\u304c"], ["\u30e4", "\u30fc"], [" S", "el"], [" L", "eb"], [" pr", "\u00e9c"], ["\u043c\u0435\u043d", "\u0442\u0430"], ["Or", "der"], [" includ", "ed"], ["S", "w"], ["W", "OR"], ["d", "st"], ["\u7537", "\u6f14\u54e1"], [" B", "eg"], ["uil", "t"], ["IV", "E"], [" Window", "s"], ["g", "reg"], ["\u652f", "\u63f4"], ["et", "zt"], [" l", "iv"], ["iv", "il"], [" St", "ud"], [" \u043a", "\u0440\u0438"], ["IB", "UT"], ["F", "lag"], ["c", "n"], ["\u6570", "\u5b66"], [" l", "ow"], [" \u0441", "\u0447\u0438\u0442\u0430"], [" r", "andom"], ["pl", "ot"], [" \u0442\u043e", "\u0433\u043e"], ["\u00fcn", "d"], ["apt", "ure"], [" d\u00e9velop", "pe"], ["napsh", "ot"], ["o", "i"], ["\u30a2", "\u30e9"], ["\u30ec", "\u30f3\u30c8"], ["\u4eba", "\u6c17"], [" E", "xt"], [" F", "I"], [" ex", "ists"], [" ma", "k"], ["ail", "le"], [" 196", "3"], ["anc", "er"], ["On", "ly"], ["Hel", "per"], [" warrant", "y"], ["G", "E"], ["\u30f4", "\u30a7"], ["\u5c0f", "\u5b66"], [" re", "du"], [" A", "g"], [" I", "P"], ["Re", "pository"], ["pr", "il"], ["\u304c", "\u767b\u5834"], [" O", "S"], [" \u041a", "\u0430\u0440"], ["H", "z"], ["\u30cf", "\u30fc\u30c9"], ["\u9ad8", "\u3044"], [" t", "ree"], [" R", "em"], ["\u043b\u0438", "\u0447\u0435"], ["ec", "lipse"], [" \u041c", "\u0435"], [" \u044d\u0442\u043e", "\u0433\u043e"], [".", ":"], ["F", "ake"], ["P", "ol"], ["\u70ba", "\u4e86"], [" n", "ormal"], [" g", "el"], ["\u043d\u0430", "\u0440\u043e\u0434"], [" \u043e", "\u043a\u043e\u043b\u043e"], ["Re", "ference"], [" ver", "b"], ["i", "ke"], ["\u306e", "\u3082\u306e"], ["\u884c", "\u52d5"], ["\u043a\u0438", "\u0435"], ["\u0442\u0435", "\u0433\u043e"], ["\u043c\u044b", "\u0448"], ["\u0437\u0443", "\u043b\u044c\u0442\u0430"], [" ", "],"], ["S", "te"], ["\u304c", "\u3042\u3063\u305f"], ["\u30dd", "\u30fc\u30c8"], ["\u6e38", "\u620f"], [" t", "it"], [" and", "er"], [" res", "erved"], ["P", "op"], ["w", "ise"], ["\u7535", "\u5b50"], ["\u821e", "\u53f0"], [" f", "ake"], [" W", "hen"], ["],", "["], [" test", "s"], ["\u0441\u0442\u0443", "\u043f"], ["\u30ea", "\u30aa"], ["\u4e16", "\u4ee3"], ["\u4e8b", "\u52d9"], [" s", "ix"], ["th", "at"], [" \u043c", "\u043d\u043e\u0433\u043e"], ["State", "ment"], [" dam", "it"], ["F", "OR"], ["i", "as"], ["p", "lace"], ["w", "d"], ["\u00e4", "\u00df"], ["\u043b", "\u043d"], ["\u62c9", "\u4e01"], ["\u69d8", "\u3005"], ["\u8bbe", "\u8ba1"], [" \u0415", "\u0432\u0440\u043e"], ["\u7406", "\u89e3"], ["st", "at"], [" w", "ay"], [" v", "ery"], [" \u043e", "\u0441\u0442\u0440\u043e"], [" sch", "ema"], ["Act", "ivity"], ["\u59d4\u54e1", "\u6703"], ["G", "O"], ["G", "r"], ["\u6210", "\u5458"], ["\u7de8", "\u96c6"], ["ic", "o"], [" m", "ont"], [" S", "pe"], [" P", "at"], [" G", "roup"], [" N", "orth"], ["cl", "es"], ["\u7814\u7a76", "\u6240"], [" 195", "8"], ["y", "les"], ["\u00f4", "le"], ["\u5b57", "\u6bcd"], ["ist", "ence"], [" ", "\u00fc"], ["\u307e", "\u307e"], ["\u5ec3", "\u6b62"], ["\u7a7a", "\u9593"], [" v", "iel"], [" j", "Query"], [" \u0432\u043e\u0439", "\u043d\u044b"], ["produ", "ct"], [" Up", "date"], [" pou", "voir"], ["F", "ailure"], ["\u0442", "\u0432\u0435\u0440"], ["\u540d", "\u524d"], ["\u5730", "\u4e0b"], [" P", "op"], ["\u043d\u0438", "\u0445"], [" param", "eter"], [" allow", "ed"], ["\u30b8\u30e3\u30f3", "\u30d7"], ["B", "ound"], ["s", "pace"], ["\u0444", "\u0440\u0438"], ["\u0441\u043a\u0438", "\u043c\u0438"], ["\u0442\u0438", "\u043a"], ["Col", "lection"], ["M", "B"], ["\u7edf", "\u6cbb"], ["ar", "a"], [" et", "c"], ["fa", "il"], ["lich", "er"], ["\u30b7\u30e3", "\u30f3"], [" cor", "rect"], [" sim", "il"], [" fr", "ont"], ["\u60c5", "\u51b5"], ["\u673a", "\u573a"], [" a", "mount"], [" b", "it"], ["cont", "rol"], [" nombre", "ux"], [" Dav", "id"], ["D", "raw"], ["\u0434", "\u0435\u043d\u0442"], ["\u4fe1", "\u606f"], ["se", "c"], [" f", "ont"], ["ate",
[...]
