{"type": "standard", "pattern": "gpt2", "alphabet": ["\t", "\n", " ", "!", "\"", "#", "$", "%", "&", "'", "(", ")", "*", "+", ",", "-", ".", "/", "0", "1", "2", "3", "4", "5", "6", "7", "8", "9", ":", ";", "<", "=", ">", "?", "@", "A", "B", "C", "D", "E", "F", "G", "H", "I", "J", "K", "L", "M", "N", "O", "P", "Q", "R", "S", "T", "U", "V", "W", "X", "Y", "Z", "[", "\\", "]", "^", "_", "a", "b", "c", "d", "e", "f", "g", "h", "i", "j", "k", "l", "m", "n", "o", "p", "q", "r", "s", "t", "u", "v", "w", "x", "y", "z", "{", "|", "}", "~", "\u00a0", "\u00a3", "\u00b0", "\u00b1", "\u00b5", "\u00b7", "\u00bb", "\u00bd", "\u00c1", "\u00c4", "\u00c5", "\u00c6", "\u00c7", "\u00c9", "\u00d3", "\u00d6", "\u00d7", "\u00d8", "\u00dc", "\u00df", "\u00e0", "\u00e1", "\u00e2", "\u00e3", "\u00e4", "\u00e5", "\u00e6", "\u00e7", "\u00e8", "\u00e9", "\u00ea", "\u00eb", "\u00ec", "\u00ed", "\u00ee", "\u00ef", "\u00f0", "\u00f1", "\u00f2", "\u00f3", "\u00f4", "\u00f5", "\u00f6", "\u00f8", "\u00f9", "\u00fa", "\u00fb", "\u00fc", "\u00fd", "\u0100", "\u0101", "\u0103", "\u0107", "\u010c", "\u010d", "\u0113", "\u0117", "\u0119", "\u011b", "\u011f", "\u012b", "\u0130", "\u0131", "\u0141", "\u0142", "\u0144", "\u014c", "\u014d", "\u0151", "\u0159", "\u015a", "\u015b", "\u015e", "\u015f", "\u0160", "\u0161", "\u016b", "\u017d", "\u017e", "\u0219", "\u021b", "\u0259", "\u025b", "\u02bb", "\u02bc", "\u02be", "\u02bf", "\u0391", "\u0394", "\u0399", "\u03a3", "\u03a9", "\u03ac", "\u03ad", "\u03ae", "\u03af", "\u03b1", "\u03b2", "\u03b3", "\u03b4", "\u03b5", "\u03b7", "\u03b8", "\u03b9", "\u03ba", "\u03bb", "\u03bc", "\u03bd", "\u03be", "\u03bf", "\u03c0", "\u03c1", "\u03c2", "\u03c3", "\u03c4", "\u03c5", "\u03c6", "\u03c7", "\u03c9", "\u03cc", "\u03cd", "\u0410", "\u0411", "\u0412", "\u041a", "\u041c", "\u041f", "\u0421", "\u0430", "\u0431", "\u0432", "\u0433", "\u0434", "\u0435", "\u0437", "\u0438", "\u0439", "\u043a", "\u043b", "\u043c", "\u043d", "\u043e", "\u043f", "\u0440", "\u0441", "\u0442", "\u0443", "\u0445", "\u0446", "\u0447", "\u0448", "\u044a", "\u044b", "\u044c", "\u044f", "\u0561", "\u05bc", "\u05d0", "\u05d1", "\u05d3", "\u05d4", "\u05d5", "\u05d9", "\u05db", "\u05dc", "\u05de", "\u05e0", "\u05e2", "\u05e4", "\u05e8", "\u05e9", "\u05ea", "\u0627", "\u0628", "\u0629", "\u062a", "\u062d", "\u062f", "\u0631", "\u0633", "\u0639", "\u0641", "\u0642", "\u0643", "\u0644", "\u0645", "\u0646", "\u0648", "\u064a", "\u1e07", "\u1e0d", "\u1e24", "\u1e25", "\u1e2b", "\u1e43", "\u1e45", "\u1e47", "\u1e5b", "\u1e63", "\u1e6c", "\u1e6d", "\u1e6f", "\u1f00", "\u1f08", "\u2009", "\u2013", "\u2014", "\u2018", "\u2019", "\u201c", "\u201d", "\u2020", "\u2022", "\u2026", "\u2032", "\u2033", "\u20ac", "\u2190", "\u2192", "\u2212", "\u221e", "\u2234", "\u2248", "\u2264", "\u2265", "\u22c5", "\u2881", "\u28f4", "\u28ff"], "merges": [[" ", "t"], [" ", "a"], ["h", "e"], ["i", "n"], ["e", "r"], [" t", "he"], ["o", "n"], ["r", "e"], [" ", "o"], ["a", "n"], ["a", "t"], ["e", "n"], [" ", "s"], ["e", "d"], ["i", "s"], ["e", "s"], ["i", "t"], ["o", "r"], [" ", "w"], [" o", "f"], ["a", "l"], [" ", "c"], [" a", "n"], ["a", "r"], [" ", "b"], [" ", "in"], ["i", "c"], [" ", "f"], [" ", "p"], [" an", "d"], ["in", "g"], ["i", "on"], ["a", "s"], ["r", "o"], [" ", "m"], [" ", "A"], [" t", "o"], [" ", "d"], ["l", "e"], [" ", "h"], ["o", "u"], ["en", "t"], ["o", "m"], ["s", "t"], [" ", "re"], ["i", "l"], ["c", "t"], ["e", "l"], [" ", "T"], [" ", "S"], [" ", "l"], ["o", "l"], [" ", "e"], [" t", "h"], [" ", "1"], [" ", "B"], [" ", "n"], ["u", "s"], [" ", "C"], ["a", "m"], [" ", "("], ["u", "r"], ["c", "h"], ["l", "y"], ["e", "t"], ["a", "d"], ["at", "ion"], ["i", "d"], ["i", "m"], ["i", "v"], ["c", "e"], ["u", "n"], ["o", "t"], [" ", "is"], ["u", "t"], ["i", "g"], [" ", "M"], [" a", "s"], [" b", "e"], ["i", "r"], [" f", "or"], [" ", "I"], [" ", "g"], ["r", "a"], ["is", "t"], ["er", "s"], [" ", "on"], ["u", "l"], [" w", "as"], ["it", "h"], [" ", "P"], [" T", "he"], ["o", "w"], ["he", "r"], ["t", "er"], ["e", "m"], [" s", "t"], [" a", "l"], [" w", "ith"], [" ", "H"], ["o", "s"], ["a", "y"], ["t", "h"], [" c", "on"], [" b", "y"], [" 1", "9"], [" th", "at"], ["v", "er"], ["an", "d"], [" w", "h"], ["u", "m"], [" ", "R"], [" ", "G"], [" ", "E"], ["i", "an"], ["o", "p"], [" ", "2"], [" ", "D"], ["o", "d"], [" ", "F"], ["'", "s"], [" p", "ro"], [" ", "L"], ["a", "g"], ["es", "t"], ["a", "v"], ["r", "i"], ["a", "c"], [" ", "v"], [" o", "r"], [" d", "e"], [" ", "W"], ["ro", "m"], [" c", "om"], [" ", "\""], ["i", "f"], [" ", "it"], ["a", "in"], ["a", "b"], ["re", "s"], [" a", "t"], [" ", "N"], [" s", "u"], ["it", "y"], [" a", "re"], ["i", "es"], [" f", "rom"], ["p", "e"], ["0", "0"], [" ", "J"], [" e", "x"], ["at", "e"], ["u", "d"], ["ou", "n"], [" ", "he"], ["or", "t"], ["an", "t"], ["ic", "h"], ["q", "u"], ["o", "c"], ["l", "d"], ["es", "s"], ["al", "l"], [" s", "e"], ["i", "a"], [" I", "n"], [" ", "r"], ["ar", "t"], ["o", "re"], ["ic", "al"], ["il", "l"], [" h", "is"], ["s", "e"], ["p", "p"], ["p", "t"], ["iv", "e"], ["ig", "h"], [" ", "O"], ["i", "al"], [" ", "\u2013"], ["ar", "d"], ["at", "ed"], ["o", "g"], ["b", "er"], ["m", "ent"], [" ", "un"], ["is", "h"], ["e", "w"], ["m", "er"], ["a", "k"], ["g", "h"], ["er", "e"], [" wh", "ich"], [" ", "us"], [" ", "U"], ["t", "her"], ["ct", "ion"], ["o", "st"], ["u", "re"], [" p", "l"], ["in", "e"], [" c", "h"], ["ar", "y"], [" w", "ere"], ["g", "e"], ["el", "l"], ["i", "p"], ["en", "d"], [" ", "K"], ["as", "t"], ["T", "he"], ["av", "e"], ["r", "it"], ["o", "v"], ["ou", "r"], ["c", "l"], ["s", "o"], ["d", "u"], [" n", "ot"], ["1", "9"], [" a", "r"], [")", ","], ["p", "er"], [" ", "le"], ["on", "g"], [" com", "p"], ["r", "an"], ["am", "e"], ["ou", "s"], ["or", "d"], ["e", "ct"], ["c", "c"], ["ic", "an"], [" 2", "0"], ["igh", "t"], [" ", "k"], ["u", "p"], ["e", "ar"], ["i", "re"], ["\n", " "], ["it", "ion"], ["om", "e"], ["a", "p"], ["u", "st"], ["f", "f"], ["i", "z"], [" al", "so"], [" S", "t"], ["u", "b"], ["i", "b"], [" h", "ave"], [" s", "h"], ["ul", "t"], [" C", "h"], ["d", "er"], [" A", "l"], [" con", "t"], [" A", "n"], ["r", "y"], [" ", " "], ["ation", "s"], [" in", "t"], ["as", "s"], [" h", "ad"], ["ig", "n"], ["ac", "k"], ["en", "ce"], ["p", "h"], ["id", "e"], [" a", "d"], ["i", "e"], ["u", "e"], ["ag", "e"], ["he", "n"], [" h", "as"], ["er", "m"], [" a", "b"], ["f", "er"], [" it", "s"], [" ", "V"], ["p", "l"], [" ", "y"], ["or", "y"], [" the", "ir"], ["ir", "st"], [" A", "mer"], ["al", "ly"], ["o", "k"], ["a", "re"], [" b", "ut"], ["ou", "ld"], ["ter", "n"], [" w", "or"], ["at", "er"], [" re", "s"], [" c", "l"], ["re", "e"], [" p", "art"], ["r", "u"], [" o", "ther"], [" al", "l"], [" A", "r"], [")", "."], ["c", "es"], ["a", "ct"], ["an", "g"], ["el", "y"], [" T", "h"], [" ", "im"], [" f", "irst"], [" d", "is"], ["at", "es"], [" m", "an"], ["cl", "ud"], ["t", "s"], [" th", "is"], ["c", "on"], ["ol", "l"], [" U", "n"], ["en", "s"], ["ou", "t"], ["a", "ch"], [" Amer", "ican"], ["im", "e"], ["ion", "s"], ["a", "ce"], [" 1", "8"], [" be", "en"], ["f", "ter"], ["I", "n"], ["res", "s"], ["ow", "n"], [" on", "e"], ["or", "m"], ["re", "n"], ["p", "ort"], [" be", "c"], ["he", "d"], [" c", "an"], [" 2", "00"], ["un", "d"], ["o", "ver"], ["oun", "t"], ["k", "s"], ["oun", "d"], [" t", "e"], ["ab", "le"], ["w", "o"], [" ", "en"], ["i", "le"], ["r", "ic"], ["u", "gh"], ["t", "e"], ["er", "v"], [" in", "clud"], [" wh", "o"], [" p", "er"], [" 20", "1"], ["i", "k"], ["r", "on"], ["c", "ed"], [" ", "ro"], [" p", "re"], [" com", "m"], ["ol", "og"], [" d", "es"], ["ic", "e"], ["as", "e"], [" a", "g"], ["v", "el"], ["is", "m"], ["g", "l"], ["an", "ce"], ["ation", "al"], [" s", "p"], ["ou", "gh"], ["ent", "s"], [" s", "c"], ["or", "s"], [" I", "t"], [" n", "e"], ["at", "h"], ["w", "e"], [" H", "e"], ["it", "e"], [" s", "y"], ["ur", "ing"], ["e", "p"], [" us", "ed"], [" s", "pe"], [" su", "ch"], ["os", "e"], [" c", "ent"], [" ", "j"], ["l", "es"], [" pl", "ay"], ["it", "ed"], ["ad", "e"], [" t", "wo"], [" y", "ear"], [" for", "m"], ["an", "s"], [" m", "ost"], ["i", "ed"], [" m", "ore"], [" E", "n"], [" the", "y"], [" e", "v"], [" con", "s"], [" re", "c"], [" ", "3"], ["ub", "l"], ["ul", "ar"], [" int", "o"], ["n", "e"], ["ur", "y"], ["am", "p"], [" re", "l"], ["a", "w"], ["a", "us"], ["o", "b"], ["re", "at"], ["ic", "s"], [" a", "c"], ["ri", "b"], [" a", "m"], [" m", "e"], [" ", "\n"], [" pro", "du"], [" o", "ver"], ["is", "s"], [" a", "ct"], ["on", "e"], [" a", "fter"], [" g", "ro"], [" th", "an"], ["u", "al"], ["ing", "s"], ["o", "in"], ["w", "n"], ["f", "t"], [" at", "t"], [" b", "et"], ["y", "s"], ["o", "od"], ["ar", "k"], [" re", "g"], [" 19", "9"], ["i", "ous"], ["l", "and"], [" e", "le"], ["a", "h"], ["en", "er"], ["ol", "d"], ["he", "re"], ["t", "ed"], ["as", "ed"], [" A", "s"], ["ro", "ugh"], [" o", "ut"], ["ran", "s"], [" p", "h"], ["on", "s"], ["ar", "s"], [" w", "ould"], [" p", "ol"], ["o", "ok"], [" a", "pp"], ["ot", "h"], [" k", "n"], ["re", "d"], [" s", "ome"], [" t", "ime"], [" S", "e"], ["we", "en"], ["a", "il"], ["ar", "g"], [" ", "ra"], [" su", "b"], [" n", "um"], [" on", "ly"], ["at", "t"], [" e", "ar"], ["al", "s"], ["f", "orm"], [" ", "Y"], ["in", "d"], [" m", "od"], ["u", "g"], ["if", "ic"], ["iv", "ers"], [" p", "r"], ["he", "s"], ["at", "ive"], [" p", "e"], [" un", "der"], ["2", "0"], [" a", "cc"], [" bet", "ween"], ["ur", "n"], [" s", "o"], [" Th", "is"], ["st", "em"], ["g", "an"], [" ", "up"], [" w", "hen"], [" n", "ew"], [" En", "gl"], [" ", "her"], ["ist", "s"], ["t", "en"], ["il", "d"], [" t", "r"], ["ic", "t"], [" h", "im"], ["er", "n"], ["r", "al"], ["on", "d"], ["i", "et"], [" in", "ter"], ["o", "h"], ["in", "ce"], [" f", "l"], ["r", "am"], ["\"", "."], [" the", "re"], [" ", "4"], ["it", "ies"], ["c", "re"], [" 19", "8"], [" of", "f"], ["e", "g"], [" m", "ay"], ["w", "ard"], ["i", "um"], ["or", "n"], [" the", "m"], ["\"", ","], [" as", "s"], ["erm", "an"], [" man", "y"], ["op", "le"], ["o", "y"], [" c", "ol"], ["e", "ver"], [" t", "rans"], [" A", "t"], [" de", "f"], [" p", "op"], ["ar", "ch"], ["u", "c"], ["j", "ect"], ["v", "e"], ["vel", "op"], ["i", "o"], [" in", "d"], ["1", "8"], [" w", "e"], [" ", "qu"], [" spe", "c"], ["is", "hed"], ["i", "x"], [" 19", "7"], [" d", "if"], ["at", "ing"], ["over", "n"], [" p", "res"], [" wor", "k"], [" ab", "out"], ["a", "j"], [" us", "e"], [" D", "e"], ["u", "ro"], [" c", "all"], [" d", "uring"], ["id", "ent"], [" C", "om"], [" ", "5"], [" th", "rough"], ["er", "ed"], ["t", "on"], [" sy", "stem"], [" re", "m"], [" e", "m"], [" b", "l"], ["in", "es"], [" p", "os"], ["oll", "ow"], [" p", "ubl"], [" v", "ar"], [" A", "m"], ["in", "s"], ["le", "x"], ["ak", "e"], [" f", "ound"], ["i", "ent"], ["ut", "h"], [" o", "b"], ["ay", "s"], ["h", "ip"], [" su", "pp"], ["ut", "ion"], [" year", "s"], [" B", "rit"], [" kn", "own"], ["il", "m"], ["c", "ent"], [" w", "here"], [" d", "o"], ["l", "l"], [" m", "et"], ["b", "all"], [" in", "v"], ["il", "y"], ["ow", "er"], [" w", "rit"], ["ver", "y"], ["u", "res"], ["us", "s"], [" g", "ener"], [" c", "ount"], ["ou", "th"], [" t", "ra"], ["m", "an"], ["oc", "k"], [" a", "p"], ["aus", "e"], [" de", "velop"], ["f", "ore"], ["ce", "pt"], ["ang", "u"], [" pro", "v"], ["ct", "ed"], [" s", "et"], [" h", "ist"], ["if", "e"], ["t", "he"], [" 19", "6"], [" N", "ew"], [" in", "f"], ["in", "al"], ["ik", "e"], ["e", "c"], ["i", "er"], [" c", "o"], ["iz", "ed"], ["ow", "ever"], [" A", "p"], [" cent", "ury"], ["ro", "und"], ["em", "ber"], [" ag", "ain"], ["con", "d"], [" the", "se"], ["ian", "s"], [" ar", "t"], ["is", "e"], ["u", "ally"], [" in", "st"], [" s", "ur"], [" n", "o"], ["ib", "le"], ["00", "0"], ["i", "el"], [" G", "erman"], ["u", "ch"], ["olog", "y"], [" f", "ollow"], [" l", "ater"], ["o", "ot"], ["er", "t"], ["ical", "ly"], ["it", "s"], [" ad", "d"], [" s", "erv"], [" m", "ade"], ["or", "th"], ["ur", "al"], ["at", "ure"], [" be", "ing"], [" d", "ist"], [" Engl", "ish"], ["c", "ess"], [" ex", "p"], [" b", "u"], [" I", "s"], ["he", "m"], ["a", "z"], ["om", "an"], [" S", "p"], [" num", "ber"], ["a", "x"], [".", "\""], [" ", "est"], [" ", "6"], [" w", "ell"], [" Un", "ited"], ["r", "ist"], [" pe", "ople"], [" e", "ff"], ["at", "her"], ["ic", "k"], [" 1", "7"], [" re", "t"], ["\n ", "\n "], [" f", "e"], [" L", "e"], [" includ", "ing"], [" th", "ree"], ["ment", "s"], ["a", "pt"], ["ra", "ph"], [" call", "ed"], [" im", "p"], ["ction", "s"], [" A", "f"], [" wh", "ile"], [" C", "on"], [" s", "ign"], [" ex", "t"], [" b", "oth"], [" f", "ilm"], ["em", "ent"], ["ro", "s"], [" the", "n"], ["ot", "her"], ["am", "es"], [" an", "t"], [" l", "oc"], ["k", "e"], [" dif", "fer"], [" ", "end"], [" bec", "ame"], ["or", "k"], [" g", "overn"], ["y", "p"], [" c", "ity"], [" W", "ar"], [" A", "ust"], [" pol", "it"], [" m", "ain"], [" ", "ent"], ["ro", "p"], [" gro", "up"], ["al", "e"], [" st", "ud"], ["en", "ces"], ["il", "ity"], [" h", "igh"], [" m", "on"], ["u", "es"], [" an", "y"], [" re", "p"], [" l", "angu"], [" A", "d"], ["c", "ial"], ["iv", "ed"], [" S", "c"], ["v", "ed"], [" d", "ire"], ["e", "x"], [" s", "ing"], ["ag", "es"], ["im", "es"], [" In", "d"], ["em", "b"], [" ", "Z"], ["c", "k"], ["an", "y"], [" ear", "ly"], [" c", "re"], ["uro", "pe"], [" m", "ov"], [" R", "e"], ["el", "f"], [" s", "im"], ["ant", "s"], [" c", "ar"], [" J", "oh"], ["aj", "or"], ["is", "ion"], [" b", "el"], ["el", "s"], [" ", "7"], [" or", "ig"], [" s", "m"], [" ch", "ar"], ["ra", "ct"], ["a", "ir"], [" de", "p"], [" wor", "ld"], ["ers", "on"], [" Brit", "ish"], [" a", "ir"], ["o", "ol"], [" m", "us"], ["a", "e"], [" S", "h"], ["c", "y"], [" le", "ad"], [" se", "ver"], [" 19", "4"], ["an", "n"], ["t", "y"], ["f", "ul"], [" ", "ed"], [" t", "erm"], [" A", "b"], [" ", "."], [" de", "c"], [" F", "or"], ["ain", "ed"], [" F", "ran"], ["en", "n"], ["in", "ist"], [" B", "l"], [" se", "cond"], [" part", "ic"], [" res", "ult"], ["or", "ld"], ["in", "a"], [" St", "ates"], [" E", "urope"], [" l", "ong"], ["iel", "d"], ["ul", "ation"], [" Joh", "n"], [" des", "c"], ["l", "ed"], [" I", "I"], ["ord", "ing"], ["ivers", "ity"], [" con", "st"], [" ap", "pe"], ["t", "ing"], ["o", "x"], ["i", "am"], ["ren", "ch"], ["i", "ew"], [" cont", "in"], ["er", "ies"], ["as", "h"], [" c", "ould"], [" Ch", "rist"], [" l", "arg"], [" s", "ame"], [" s", "ch"], [" w", "ar"], [" des", "ign"], ["t", "il"], ["cc", "ess"], [" P", "ro"], [" f", "am"], [" s", "he"], [" again", "st"], ["in", "n"], ["in", "ed"], ["iv", "es"], ["ut", "e"], ["an", "ge"], [" o", "per"], ["en", "e"], [" of", "ten"], ["an", "k"], [" ", ","], ["i", "us"], [" st", "ate"], [" a", "uth"], [" cons", "id"], ["at", "ic"], ["y", "l"], ["ur", "ch"], [" n", "ame"], [" supp", "ort"], [" s", "l"], [" 1", "6"], ["g", "y"], ["ion", "al"], ["m", "y"], ["v", "ent"], ["ill", "ion"], [" o", "cc"], ["ber", "t"], ["om", "et"], ["ain", "s"], ["are", "d"], [" be", "fore"], [" m", "ed"], ["os", "ed"], ["y", "n"], ["th", "ough"], ["amp", "le"], ["og", "raph"], ["ir", "d"], [" 1", "5"], [" o", "wn"], [" comm", "on"], [" ", "8"], [" f", "our"], [" dis", "c"], [" m", "ajor"], ["it", "al"], ["ar", "ge"], ["b", "le"], ["s", "on"], ["ch", "n"], ["i", "od"], [" b", "ro"], ["A", "n"], [" 19", "5"], ["w", "ay"], [" P", "h"], [" W", "orld"], [" A", "lex"], [" w", "ill"], [" l", "and"], [" O", "n"], [" F", "rench"], ["ab", "l"], ["a", "id"], ["op", "h"], [" sm", "all"], ["oin", "t"], [" sever", "al"], [" bec", "ause"], [" in", "cre"], ["iv", "er"], ["ire", "d"], [" C", "l"], ["ak", "ing"], [" ", "if"], [" B", "r"], [" s", "ince"], [" G", "ree"], ["is", "ed"], ["id", "es"], [" An", "d"], ["r", "ing"], ["iv", "ely"], [" re", "f"], ["le", "y"], [" 1", "0"], ["ar", "m"], ["l", "u"], ["x", "t"], ["il", "it"], ["v", "en"], [" e", "ach"], [" b", "ack"], [" su", "ccess"], ["act", "er"], [" in", "s"], ["t", "o"], [" differ", "ent"], ["in", "c"], [" eff", "ect"], ["as", "on"], ["ct", "or"], [" un", "til"], ["att", "le"], ["ition", "s"], [" tr", "ad"], [" h", "um"], [" play", "er"], [" pro", "g"], ["ic", "a"], ["ar", "l"], [" govern", "ment"], [" l", "arge"], [" m", "at"], ["id", "ed"], ["u", "ed"], ["i", "qu"], [" ex", "ample"], ["e", "y"], ["en", "g"], [" de", "ath"], [" auth", "or"], [" 19", "3"], [" b", "as"], [" d", "et"], ["iss", "ion"], ["and", "er"], ["  ", "  "], [" b", "ook"], [" p", "o"], ["ra", "b"], ["con", "om"], [" publ", "ic"], ["ru", "ct"], [" im", "port"], [" C", "an"], ["tern", "ational"], [" E", "m"], [" c", "ap"], ["e", "e"], [" l", "ife"], ["et", "s"], ["ro", "du"], [" H", "owever"], ["oc", "i"], [" M", "ar"], [" cont", "ro"], [" S", "ch"], [" W", "h"], ["ul", "l"], [" th", "ough"], ["y", "m"], [" includ", "e"], ["1", "7"], [" ", "9"], [" l", "aw"], [" all", "ow"], ["ic", "es"], [" Un", "iversity"], [" sh", "ow"], ["at", "or"], [" n", "ear"], ["i", "ence"], [" rec", "ord"], ["v", "ers"], [" m", "in"], [" e", "qu"], ["p", "or"], ["if", "ied"], [" d", "id"], ["ou", "se"], [" O", "r"], [" per", "iod"], ["1", "6"], ["iz", "e"], [" re", "fer"], ["iet", "y"], [" ", "'"], ["ro", "w"], ["r", "ation"], [" A", "g"], ["ri", "es"], ["ri", "pt"], [" f", "oot"], [" v", "al"], [" a", "round"], ["le", "ct"], ["r", "ad"], ["ra", "ft"], [" o", "p"], [" C", "ol"], [" est", "abl"], ["er", "y"], [" f", "un"], [" R", "oman"], ["a", "im"], [" c", "ult"], ["a", "u"], ["am", "ed"], ["ug", "ust"], ["ros", "s"], [" p", "ower"], [" Com", "m"], ["iv", "ing"], ["e", "b"], ["2", "00"], [" re", "qu"], [" pos", "s"], [" th", "ose"], ["res", "ent"], ["m", "ed"], [" or", "gan"], [" p", "erson"], [" m", "ar"], [" am", "ong"], ["iv", "al"], ["re", "w"], [" v", "ers"], ["il", "ar"], [" re", "le"], ["ic", "ian"], [" B", "ar"], [" st", "r"], ["iv", "en"], [" P", "r"], ["om", "en"], [" te", "am"], ["n", "er"], [" b", "od"], [" cl", "ass"], ["pe", "ct"], [" b", "ased"], [" desc", "rib"], [" c", "or"], ["g", "ed"], [" comm", "un"], [" count", "ry"], ["c", "om"], [" l", "ike"], ["le", "t"], [" R", "uss"], ["p", "ar"], [" The", "y"], [" l", "it"], [" le", "g"], [" mod", "ern"], [" app", "ro"], [" or", "der"], [" hist", "or"], [" Aust", "ral"], ["om", "in"], [" langu", "age"], [" K", "ing"], ["ot", "t"], [" s", "eries"], [" con", "f"], [" 19", "2"], [" d", "iv"], ["end", "ed"], [" r", "un"], [" ", "Q"], [" ex", "pl"], ["ov", "e"], [" B", "e"], ["id", "s"], [" pro", "cess"], ["ac", "ed"], [" are", "a"], ["un", "e"], [" M", "us"], ["at", "ely"], [" n", "on"], ["1", "5"], [" ev", "en"], ["av", "ing"], ["ri", "ed"], ["y", "d"], [" S", "outh"], ["n", "ess"], ["ag", "ue"], ["1", "0"], [" pro", "p"], [" an", "n"], [" ex", "per"], [" m", "uch"], [" w", "ord"], ["ic", "ial"], ["ent", "ly"], ["iz", "ation"], ["g", "g"], ["o", "le"], ["r", "is"], ["ol", "ution"], [" A", "ugust"], ["olog", "ical"], ["un", "g"], [" p", "ass"], ["t", "le"], [" r", "ight"], [" be", "gan"], [" inf", "lu"], ["in", "k"], ["b", "y"], ["tern", "al"], ["ur", "ther"], [" A", "ir"], ["os", "s"], ["19", "9"], [".", "."], ["ilit", "ary"], [" prog", "ram"], [" 1", "2"], [" ele", "ct"], ["a", "i"], [" bel", "ie"], [" N", "ational"], [" c", "ur"], [" s", "oc"], [" g", "u"], ["oll", "o"], ["A", "l"], [" o", "pp"], [" m", "ark"], [" per", "form"], [" d", "ue"], [" U", "S"], [" te", "chn"], ["as", "es"], [" B", "C"], [" with", "in"], [" en", "g"], ["r", "id"], [" w", "ater"], [" pop", "ulation"], [" f", "in"], [" ret", "urn"], ["ard", "s"], [" e", "conom"], [" d", "r"], [" 1", "4"], ["l", "in"], [" t", "em"], ["ud", "d"], ["v", "es"], [" a", "st"], ["re", "ad"], [" us", "ing"], ["t", "ic"], [" ", "very"], [" st", "and"], [" st", "at"], ["p", "le"], [" Gree", "k"], [" st", "ill"], [" ad", "v"], [" foot", "ball"], [" l", "a"], ["emb", "ers"], [" follow", "ing"], ["a", "f"], ["es", "tern"], [" t", "yp"], [" re", "st"], [" P", "l"], ["il", "os"], [" hist", "ory"], [" a", "v"], [" Al", "l"], [" pro", "m"], [" ar", "ch"], ["c", "hes"], ["an", "e"], ["en", "se"], [" re", "ce"], [" C", "ar"], [" G", "e"], ["c", "er"], [" pop", "ular"], ["r", "ian"], [" N", "orth"], ["on", "y"], [" A", "rab"], ["ep", "end"], [" h", "and"], [" re", "v"], [" n", "ow"], ["ent", "ial"], [" The", "se"], ["1", "2"], [" b", "ase"], [" l", "ast"], [" comp", "ut"], ["ol", "ic"], [" C", "ent"], ["c", "raft"], ["d", "e"], [" b", "us"], [" sim", "ilar"], [" ", "es"], [" gener", "al"], ["g", "er"], [" in", "du"], [" l", "ed"], [" re", "port"], [" pres", "ent"], ["c", "ing"], [" 1", "3"], [" consid", "ered"], ["b", "an"], [" pl", "ace"], [" p", "ar"], [" b", "i"], ["ad", "em"], [" t", "er"], [" r", "ad"], ["g", "en"], ["m", "s"], [" v", "is"], ["d", "om"], [" st", "art"], ["z", "e"], ["R", "e"], ["l", "ine"], [" al", "ong"], [" char", "acter"], ["a", "pp"], ["ition", "al"], ["t", "al"], [" mus", "ic"], [" op", "en"], [" re", "ad"], ["es", "e"], [" f", "act"], [" res", "p"], ["l", "ic"], [" g", "reat"], [" h", "ome"], ["land", "s"], ["1", "4"], [" sch", "ool"], [" 20", "2"], [" c", "our"], ["it", "es"], ["al", "th"], ["al", "ity"], ["al", "es"], ["1", "3"], ["il", "t"], ["ot", "s"], [" B", "y"], ["19", "8"], ["ar", "ian"], [" Y", "ork"], [" B", "el"], [" The", "re"], [" import", "ant"], ["ed", "er"], [" sh", "ort"], [" o", "ld"], [" c", "rit"], ["a", "ur"], ["id", "d"], ["19", "7"], [" d", "em"], [" l", "ine"], ["ist", "ic"], [" W", "ill"], [" he", "ad"], ["ward", "s"], ["ab", "ly"], ["et", "er"], [" It", "al"], ["em", "pt"], [" ch", "ild"], [" l", "ess"], [" var", "ious"], [" Ap", "ollo"], ["r", "and"], ["cc", "ording"], ["ren", "t"], ["or", "ies"], ["p", "ut"], [" g", "l"], ["c", "ient"], ["p", "ire"], [" fam", "ily"], ["d", "ay"], [" partic", "ular"], [" hum", "an"], ["i", "or"], [" a", "ff"], ["as", "ter"], [" wh", "at"], [" bu", "ild"], [" in", "c"], [" an", "im"], [" H", "is"], ["at", "a"], ["t", "t"], [" s", "aid"], [" m", "embers"], [" ph", "ys"], ["u", "le"], ["re", "m"], [" h", "ig"], [" att", "ack"], [" Can", "ad"], ["at", "s"], [" M", "ay"], [" As", "s"], ["ur", "g"], ["al", "d"], ["um", "ent"], ["e", "le"], ["od", "e"], ["at", "ter"], ["ro", "te"], [" an", "other"], ["in", "ess"], ["it", "her"], [" H", "er"], [" orig", "in"], [" le", "ft"], [" com", "b"], ["re", "ed"], [" f", "ore"], ["\n", "\n"], ["ra", "y"], [" publ", "ished"], ["rib", "ut"], [" E", "d"], ["e", "an"], [" ob", "s"], ["ag", "n"], ["z", "er"], [" p", "ort"], [" ", "ident"], ["am", "b"], [" p", "at"], ["ap", "an"], [" s", "our"], [" s", "k"], [" G", "od"], [" an", "al"], [" g", "iven"], [" spec", "ies"], [" s", "ol"], [" cl", "aim"], ["c", "he"], ["i", "ber"], [" g", "o"], ["ur", "s"], [" he", "l"], [" for", "mer"], ["st", "er"], ["udd", "h"], ["an", "u"], [" con", "d"], [" rep", "resent"], [" k", "ill"], ["b", "it"], ["c", "o"], ["et", "her"], [" s", "omet"], [" develop", "ment"], [" e", "very"], [" n", "ational"], ["in", "ation"], [" m", "ilitary"], [" Ch", "urch"], ["w", "are"], [" p", "ract"], [" g", "ame"], ["h", "od"], ["r", "il"], [" dire", "ct"], [" bec", "ome"], [" p", "oint"], ["E", "x"], [" b", "o"], ["e", "ad"], [" A", "fter"], ["ra", "in"], ["op", "s"], [" ", "el"], ["re", "en"], [" int", "rodu"], [" with", "out"], [" m", "ake"], ["ain", "ing"], ["ure", "d"], [" to", "ok"], [" ", "ide"], [" m", "en"], ["a", "ut"], ["on", "t"], [" c", "amp"], [" re", "pl"], ["n", "t"], ["h", "am"], [" reg", "ion"], [" d", "own"], [" pro", "t"], [" sing", "le"], [" includ", "ed"], ["l", "ess"], [" f", "ew"], [" B", "er"], [" develop", "ed"], ["ent", "ion"], ["ra", "g"], ["ak", "es"], ["an", "ces"], [" be", "g"], [" l", "ow"], [" st", "ruct"], [" bod", "y"], ["as", "tern"], ["cent", "ury"], [" larg", "est"], ["a", "ugh"], ["m", "en"], [" B", "o"], [" ar", "g"], ["ert", "ain"], [" act", "iv"], [" rel", "ig"], [" st", "ates"], ["on", "es"], [" sp", "ace"], ["i", "pp"], ["pe", "cial"], [" polit", "ician"], ["w", "rit"], [" R", "o"], [" v", "iew"], [" ex", "ist"], [" f", "ield"], [" me", "an"], [" p", "ain"], [".", ","], ["ograph", "y"], [" c", "aus"], [" n", "amed"], ["ore", "d"], [" l", "im"], [" l", "ate"], ["a", "ul"], ["ific", "ant"], ["le", "ar"], [" ne", "ed"], [" w", "rote"], ["est", "s"], ["m", "ost"], [" al", "b"], [" P", "ol"], [" k", "ing"], [" D", "av"], [" J", "u"], [" g", "en"], [" produ", "ct"], [" pr", "im"], [" pro", "f"], [" he", "ld"], [" t", "reat"], [" B", "uddh"], ["l", "i"], [" d", "ay"], ["y", "le"], [" m", "ult"], ["al", "f"], ["our", "n"], [" col", "le"], [" s", "old"], ["an", "a"], ["fer", "ences"], [" 19", "0"], [" J", "apan"], [" c", "ell"], ["st", "it"], [" ev", "ent"], ["o", "on"], ["r", "ican"], [" off", "icial"], [" j", "ust"], [" sy", "m"], ["iv", "il"], [" A", "c"], [" ", "er"], [" indu", "st"], ["at", "ural"], [" su", "gg"], [" loc", "al"], ["est", "ed"], ["ru", "ction"], [" ad", "m"], [" t", "imes"], [" pro", "per"], [" l", "ight"], [" att", "empt"], [" s", "on"], ["ir", "on"], ["A", "mer"], [" wor", "ks"], [" in", "it"], [" Se", "pt"], [" pre", "v"], [" sign", "ificant"], [" N", "ov"], [" ass", "oci"], [" Christ", "ian"], ["19", "6"], [" ph", "ilos"], [" Europe", "an"], [" v", "ol"], [" polit", "ical"], [" h", "owever"], [" us", "ually"], [" w", "ay"], [" Engl", "and"], [" re", "du"], [" is", "s"], [" E", "x"], [" le", "vel"], [" r", "ul"], [" W", "est"], [" m", "y"], ["id", "ence"], ["i", "ation"], ["th", "s"], ["il", "le"], [" J", "ew"], [" c", "r"], [" Alex", "ander"], ["ent", "al"], [" Bl", "ack"], ["s", "h"], ["og", "n"], [" inv", "ol"], ["am", "a"], ["c", "ul"], [" Will", "iam"], ["s", "ide"], [" E", "ar"], ["in", "ks"], [" ", "$"], ["r", "ated"], [" S", "w"], ["b", "s"], [" t", "it"], [" orig", "inal"], [" establ", "ished"], ["in", "o"], [" ", "-"], ["ther", "n"], [" ch", "ang"], ["ist", "ory"], ["al", "k"], [" gro", "w"], [" comp", "le"], [" O", "ct"], ["5", "0"], [" a", "ut"], ["iv", "id"], ["ater", "ial"], [" A", "pp"], [" B", "ra"], [" Ge", "or"], ["c", "hed"], [" t", "urn"], ["ac", "es"], ["ab", "ility"], [" produ", "ction"], ["f", "ace"], ["Amer", "ican"], ["ro", "wn"], ["inn", "ing"], ["ar", "i"], [" Un", "ion"], ["w", "ays"], [" f", "ive"], ["m", "on"], ["op", "e"], [" al", "though"], ["ud", "e"], ["ak", "en"], [" te", "le"], ["O", "n"], ["her", "n"], [" P", "ar"], ["pl", "oy"], [" Ar", "t"], [" c", "ase"], ["b", "orn"], ["al", "t"], [" obs", "erv"], [" fun", "ction"], [" h", "aving"], ["ra", "p"], ["c", "her"], ["se", "qu"], ["end", "s"], ["et", "ic"], [" contro", "l"], ["y", "pe"], ["f", "or"], ["m", "ber"], ["ou", "thern"], [" 1", "1"], [" R", "ep"], ["ot", "e"], ["is", "on"], [" do", "es"], ["ac", "y"], [" th", "ird"], ["ond", "on"], [" produ", "ced"], [" se", "par"], ["an", "ish"], [" m", "ass"], [" de", "cl"], [" S", "ome"], ["e", "um"], [" man", "ag"], [" ob", "ject"], [" to", "p"], ["ri", "a"], ["ubl", "ic"], [" F", "l"], [" d", "est"], [" de", "v"], [" ed", "uc"], [" s", "ix"], ["qu", "e"], [" writ", "ten"], [" Sept", "ember"], ["en", "cy"], [" pro", "ble"], ["A", "s"], [" n", "orth"], ["it", "ive"], [" appe", "ar"], [" langu", "ages"], [" G", "u"], ["ort", "hern"], ["e", "k"], [" count", "ries"], [" re", "se"], [" sh", "ould"], [" bu", "ilt"], [" m", "illion"], [" C", "al"], [" group", "s"], ["c", "il"], ["os", "p"], [" c", "ame"], ["s", "c"], ["s", "elf"], [" s", "ong"], ["over", "ed"], ["n", "ing"], [" str", "ong"], ["form", "ation"], ["ab", "or"], [" d", "el"], ["anu", "ary"], [" m", "aterial"], [" S", "he"], ["in", "t"], [" hel", "p"], [" An", "t"], [" other", "s"], ["k", "a"], ["w", "h"], ["o", "ber"], [" s", "w"], ["ip", "s"], ["ivid", "ual"], ["1", "1"], ["at", "ures"], [" ind", "epend"], ["o", "f"], ["om", "s"], ["e", "h"], [" re", "al"], [" play", "ed"], [" t", "ake"], [" e", "p"], ["um", "b"], [" ", "X"], ["o", "ff"], [" system", "s"], [" the", "ory"], [" w", "omen"], ["Re", "ferences"], ["at", "in"], [" w", "on"], [" s", "ent"], [" describ", "ed"], ["re", "t"], [" L", "ondon"], [" Amer", "ica"], [" rel", "ations"], ["ce", "mber"], [" d", "er"], [" Ap", "ril"], [" l", "inks"], ["ist", "an"], ["ar", "a"], [" to", "tal"], [" stud", "y"], [" rele", "ased"], [" are", "as"], [" ro", "le"], [" M", "an"], ["ect", "ed"], [" trans", "l"], [" vers", "ion"], ["im", "ate"], [" Af", "rican"], [" Ju", "ly"], [" J", "anuary"], ["ra", "el"], ["et", "h"], ["l", "er"], ["l", "am"], [" M", "ed"], [" B", "ook"], ["ov", "iet"], [" Em", "pire"], [" alb", "um"], [" e", "ither"], [" M", "arch"], [" be", "h"], ["\n \n ", "\n \n "], ["pecial", "ly"], ["v", "al"], ["A", "S"], [" J", "une"], ["c", "le"], ["er", "ing"], [" p", "ost"], [" ter", "rit"], [" ", "&"], ["a", "pe"], [" se", "ason"], ["ific", "ation"], [" b", "and"], ["om", "b"], [" g", "ames"], [" D", "ay"], ["A", "r"], [" pre", "d"], [" De", "cember"], [" Oct", "ober"], [" to", "wn"], ["av", "y"], ["ric", "t"], ["m", "a"], ["v", "ision"], [" ", "0"], [" comp", "os"], ["oy", "al"], [" met", "hod"], [" ind", "ividual"], [" 18", "9"], [" Dav", "id"], [" p", "ri"], ["in", "ing"], [" E", "ast"], [" w", "id"], [" a", "ge"], [" s", "outh"], [" f", "re"], [" A", "ct"], [" In", "ternational"], [" comp", "any"], [" c", "are"], [" S", "u"], [" (", "\""], [" me", "as"], [" pos", "ition"], ["T", "h"], [" ar", "m"], [" P", "res"], ["ict", "ion"], [" f", "urther"], ["w", "ork"], [" r", "ange"], [" for", "ces"], ["idd", "le"], ["l", "ing"], [" bl", "ack"], [" la", "un"], ["I", "I"], [" b", "attle"], [" P", "art"], [" H", "ar"], [" Nov", "ember"], ["h", "ib"], [" serv", "ice"], [" bus", "iness"], ["re", "g"], ["en", "ced"], [" W", "hen"], [" somet", "imes"], [" m", "ust"], [" O", "ne"], ["it", "ect"], ["inc", "ip"], [" c", "ir"], [" soc", "ial"], ["us", "ed"], ["s", "p"], ["is", "c"], [" con", "c"], [" sing", "er"], [" ", "["], [" h", "alf"], ["end", "ing"], [" s", "ide"], [" Fran", "ce"], [" b", "all"], ["19", "4"], [" b", "re"], [" m", "ot"], ["ron", "t"], [" n", "ov"], [" ab", "s"], [" occ", "ur"], ["ac", "hed"], ["inist", "er"], [" d", "ied"], [" An", "g"], [" spec", "ial"], ["er", "gy"], ["as", "ing"], ["ie", "f"], [" s", "um"], [" S", "oviet"], ["ric", "k"], [" C", "ity"], [" Ph", "il"], ["p", "s"], ["at", "ors"], [" eng", "ine"], ["writ", "er"], ["ow", "s"], ["oun", "g"], ["ener", "al"], [" le", "ast"], [" 18", "6"], [" cre", "ated"], [" c", "al"], [" add", "ition"], [" C", "ath"], [" su", "ff"], [" Austral", "ian"], ["Ex", "ternal"], [" B", "en"], ["oun", "cil"], ["oun", "ced"], ["B", "C"], [" t", "w"], [" cur", "rent"], [" poss", "ible"], [" p", "ot"], [" g", "e"], ["ra", "w"], ["av", "es"], ["ot", "es"], [" contin", "ued"], [" es", "pecially"], [" Le", "ague"], [" lit", "er"], [" rece", "ived"], ["S", "ee"], [" n", "atural"], [" re", "n"], ["ourn", "al"], ["i", "ol"], [" German", "y"], [" At", "l"], ["c", "ript"], [" prev", "ious"], ["ad", "es"], [" comp", "et"], ["iqu", "e"], [" r", "ather"], [" A", "ccording"], [" act", "or"], ["yd", "ro"], ["m", "ing"], [" Ch", "ar"], [" f", "ood"], ["port", "s"], ["o", "id"], [" air", "craft"], ["b", "o"], [" an", "cient"], [" m", "er"], ["if", "y"], [" Ind", "ian"], [" sch", "ol"], [" h", "ow"], [" P", "ort"], [" f", "ather"], [" T", "ur"], [" E", "l"], [" football", "er"], ["g", "es"], [" h", "ost"], ["\n ", "\n"], ["ens", "ive"], [" f", "inal"], [" st", "yle"], ["ord", "er"], [" ne", "xt"], [" m", "aking"], ["b", "ers"], ["e", "f"], [" pro", "ject"], [" c", "hem"], ["in", "ary"], ["ress", "ed"], [" sc", "ient"], [" gener", "ally"], ["our", "s"], ["r", "ight"], [" 3", "0"], [" l", "ist"], [" Ear", "th"], [" ac", "id"], [" form", "s"], [" him", "self"], [" t", "ro"], [" f", "ail"], ["pl", "es"], [" t", "ri"], [" rec", "ogn"], [" Russ", "ian"], ["n", "ow"], ["ne", "y"], [" pl", "an"], [" H", "ol"], [" c", "apt"], [" Ar", "my"], [" def", "e"], [" child", "ren"], [" N", "e"], [" O", "ther"], [" ac", "cept"], ["u", "el"], [" a", "ver"], [" g", "ood"], [" form", "ed"], ["C", "h"], [" S", "y"], [" S", "oc"], ["2", "5"], ["ut", "ch"], ["u", "f"], [" part", "s"], [" d", "ata"], [" ar", "my"], [" dif", "f"], ["al", "i"], ["ch", "an"], ["em", "ents"], [" k", "e"], [" g", "od"], [" f", "ree"], ["im", "ately"], [" comm", "and"], [" c", "ertain"], [" ne", "ver"], [" init", "ial"], [" b", "ir"], [" tem", "per"], [" ast", "ron"], [" t", "ype"], [" av", "ail"], ["il", "es"], ["ib", "r"], [" st", "ar"], [" At", "hen"], [" se", "en"], [" imp", "ro"], [" h", "old"], [" C", "or"], [" f", "ig"], ["ric", "a"], ["it", "ted"], [" pr", "iv"], [" of", "fer"], [" 18", "8"], [" in", "ternational"], [" G", "reat"], ["st", "e"], [" reg", "ard"], [" pro", "b"], ["b", "ra"], ["ar", "ies"], [" m", "em"], [" mod", "el"], [" ", "ver"], ["ing", "u"], [" pro", "te"], ["y", "ch"], [" Ar", "ch"], [" l", "ik"], [" cap", "ital"], [" comput", "er"], [" ", "ill"], [" t", "est"], [" m", "iss"], [" 2", "5"], [" d", "ays"], [" en", "c"], ["\"", ")"], [" 201", "2"], ["it", "ch"], ["ing", "ton"], ["ress", "ion"], [" 201", "0"], [" rese", "arch"], [" n", "et"], [" part", "y"], ["us", "h"], [" follow", "ed"], ["ar", "n"], ["19", "3"], [" 201", "3"], ["gy", "pt"], [" o", "x"], ["ic", "le"], ["st", "on"], [" Com", "p"], ["ar", "ily"], [" p", "ur"], ["om", "p"], [" S", "m"], ["p", "ite"], [" through", "out"], [" Al", "bert"], [" ac", "adem"], [" Se", "a"], [" 18", "7"], [" cons", "ist"], ["t", "a"], ["ul", "f"], [" gro", "und"], ["ic", "ro"], [" b", "est"], [" sub", "ject"], [" pr", "incip"], [" c", "y"], [" te", "xt"], ["ce", "ed"], [" Af", "rica"], [" W", "estern"], [" me", "ans"], ["ight", "s"], ["pl", "ay"], [" ab", "ove"], ["k", "y"], [" B", "attle"], [" 201", "4"], [" de", "b"], [" d", "i"], [" King", "dom"], ["S", "t"], [" prof", "ess"], ["19", "5"], [" ev", "idence"], [" comp", "lex"], [" th", "us"], [" term", "s"], ["r", "ant"], [" st", "ory"], ["l", "ike"], [" w", "he"], [" bro", "ad"], [" success", "ful"], [" Ital", "ian"], [" al", "most"], [" App", "le"], ["b", "or"], ["it", "ude"], ["ru", "g"], ["ough", "t"], ["f", "ord"], [" t", "aken"], [" im", "m"], [" 200", "7"], ["i", "ers"], [" mark", "et"], [" d", "en"], [" D", "uring"], [" 199", "0"], [" up", "on"], [" arch", "itect"], ["b", "on"], [" h", "ard"], [" L", "atin"], ["re", "st"], [" num", "bers"], ["um", "e"], [" ", "z"], [" l", "ower"], ["ate", "g"], [" d", "ou"], [" P", "er"], [" P", "al"], ["he", "st"], [" M", "on"], [" ind", "ic"], [" hig", "her"], [" P", "aul"], ["pt", "ion"], ["eb", "ru"], ["he", "t"], [" for", "ce"], [" se", "x"], [" report", "ed"], [" C", "o"], [" v", "ict"], [" acc", "ording"], ["a", "ign"], [" ent", "ire"], [" Pres", "ident"], ["is", "ing"], [" re", "d"], [" su", "per"], [" stand", "ard"], [" col", "on"], ["rid", "ge"], ["ebru", "ary"], ["v", "iron"], [" though", "t"], ["l", "im"], ["ro", "y"], [" f", "ire"], [" bec", "om"], [" trad", "ition"], [" mat", "hem"], ["it", "u"], ["st", "and"], ["ain", "t"], ["ul", "g"], [" introdu", "ced"], [" f", "ar"], [" con", "n"], [" St", "ate"], [" e", "th"], [" avail", "able"], [" un", "ivers"], ["in", "ter"], [" se", "e"], ["ber", "g"], [" Austral", "ia"], [" Cath", "olic"], [" to", "g"], ["ad", "s"], ["a", "per"], [" ac", "ross"], [" Ind", "ia"], ["oph", "y"], [" H", "en"], ["at", "ively"], [" E", "gypt"], [" cult", "ure"], [" p", "ress"], [" P", "ress"], [" ch", "ange"], [" to", "ur"], ["ish", "ing"], [" so", "ft"], ["p", "ir"], [" 200", "9"], [" play", "ers"], [" ele", "ments"], [" tog", "ether"], [" W", "ith"], [" f", "ull"], [" M", "or"], [" pres", "ident"], [" mult", "ip"], ["a", "ction"], [" f", "em"], [" j", "oin"], ["re", "l"], [" e", "t"], [" cour", "t"], [" 200", "8"], ["a", "ff"], [" sur", "face"], [" fre", "qu"], [" f", "ac"], [" 201", "1"], ["cre", "t"], [" mean", "ing"], [" m", "other"], [" Sp", "anish"], [" aver", "age"], [" m", "ount"], [" Sc", "ott"], [" an", "g"], [" 200", "0"], ["U", "n"], [" K", "h"], [" loc", "ated"], [" m", "ember"], [" M", "c"], ["um", "ents"], [" D", "utch"], ["v", "ing"], ["he", "l"], ["it", "er"], [" l", "ost"], [" rel", "ated"], [" p", "oin"], [" cl", "os"], [" P", "e"], ["ch", "ie"], [" con", "cept"], [" mov", "ement"], [" f", "ri"], [" C", "ount"], ["op", "her"], [" comp", "an"], [" 200", "6"], [" found", "ed"], [" inst", "ead"], [" econom", "ic"], [" cent", "ral"], [" design", "ed"], ["A", "m"], [" F", "ebruary"], [" b", "ar"], [" f", "av"], [" m", "id"], [" Re", "v"], [" 2", "4"], [" An", "gl"], ["ound", "s"], [" A", "D"], ["le", "ment"], [" its", "elf"], [" 198", "0"], [" h", "ydro"], [" t", "re"], [" f", "ind"], ["ys", "is"], ["ar", "ia"], [" T", "e"], ["ist", "or"], [" Canad", "ian"], [" R", "iver"], [" ad", "op"], [" S", "pe"], [" 1", "00"], [" R", "ich"], [" J", "ames"], [" en", "ergy"], [" fe", "ature"], [" Atl", "ant"], [" wh", "ose"], [" cre", "w"], [" h", "ouse"], [" 197", "0"], [" det", "erm"], [" ev", "ents"], [" al", "tern"], [" sur", "v"], ["em", "s"], ["ul", "a"], ["per", "or"], [" word", "s"], [" R", "es"], ["in", "ct"], [" num", "er"], [" D", "es"], ["ut", "es"], [" res", "pect"], ["ic", "ult"], ["ap", "s"], [")", ";"], ["gh", "an"], ["ist", "ance"], ["un", "ic"], [" cl", "ub"], [" em", "ploy"], [" ex", "cept"], [" m", "ission"], ["s", "el"], ["u", "k"], [" val", "ue"], [" Geor", "ge"], [" c", "op"], [" p", "ers"], ["ix", "ed"], [" associ", "ated"], [" 201", "5"], ["am", "ples"], [" P", "ers"], [" P", "ark"], [" (", ")"], [" 200", "5"], [" relig", "ious"], ["A", "d"], ["at", "ory"], [" s", "ize"], ["n", "a"], ["ide", "o"], ["ic", "y"], [" H", "ouse"], [" G", "l"], [" Japan", "ese"], [" struct", "ure"], [" academ", "ic"], ["om", "m"], ["oc", "r"], ["rough", "t"], [" Wh", "ile"], [" f", "all"], [" m", "agn"], [" nov", "el"], [" st", "e"], [" influ", "ence"], [" l", "o"], [" g", "ave"], [" S", "an"], [" ne", "g"], [" film", "s"], ["i", "os"], [" t", "rib"], [" Alex", "and"], [" tele", "vision"], [" s", "er"], [" L", "ou"], [" incre", "ased"], ["ish", "op"], [" camp", "aign"], ["r", "ast"], [" rem", "ained"], [" refer", "red"], [" in", "formation"], [" ann", "ounced"], [" Al", "though"], [" int", "eg"], [" allow", "ed"], [" T", "r"], [" commun", "ity"], ["ur", "ies"], [" Is", "rael"], ["b", "e"], ["s", "en"], [" c", "ivil"], [" ab", "le"], [" on", "ce"], [" dire", "ctor"], [" bro", "ther"], [" adm", "inist"], ["n", "ot"], [" po", "et"], [" consid", "er"], [" acc", "ess"], [" 201", "7"], [" 201", "8"], ["3", "0"], ["a", "el"], ["ib", "ility"], [" appro", "x"], ["j", "an"], ["t", "ies"], [" act", "ress"], [" n", "orm"], [" or", "d"], ["n", "d"], [" d", "omin"], ["st", "ant"], ["ot", "ed"], [" inv", "est"], [" Fran", "k"], [" book", "s"], ["it", "ing"], [" 2", "1"], ["z", "il"], [" g", "re"], ["b", "ol"], [" l", "ack"], [" kn", "ow"], ["ines", "e"], [" wh", "ite"], ["The", "re"], ["ric", "ult"], [" exper", "im"], [" a", "chie"], ["ell", "ing"], [" f", "und"], [" f", "oc"], ["hip", "s"], ["med", "i"], [" base", "ball"], [" crit", "ic"], [" build", "ing"], [" c", "ost"], [" p", "ast"], [" y", "oung"], ["or", "ph"], [" d", "oc"], [" R", "oyal"], [" R", "eg"], ["arl", "iam"], [" f", "ight"], [" ex", "ec"], [" se", "c"], [" co", "ast"], [" Col", "le"], ["ou", "l"], [" n", "uc"], [" b", "orn"], [" B", "ur"], [" com", "mer"], [" 200", "1"], ["2", "1"], ["at", "ives"], [" s", "ite"], [" diff", "icult"], [" includ", "es"], [" Mus", "eum"], [" particular", "ly"], [" trad", "itional"], [" c", "ross"], [" est", "im"], [" fe", "atures"], [" larg", "er"], [" Char", "les"], ["viron", "ment"], ["os", "es"], ["os", "ition"], [" de", "g"], [" ant", "i"], [" belie", "ved"], [" re", "b"], [" n", "ames"], [" le", "t"], ["oun", "ter"], [" 20", "20"], [" Ro", "bert"], [" indust", "ry"], [" t", "en"], [" ar", "r"], [" sour", "ces"], ["un", "ar"], [" cir", "c"], [" w", "ent"], [" tr", "ade"], [" n", "orthern"], ["cl", "us"], ["n", "el"], ["o", "ice"], [" M", "art"], [" mov", "ed"], [" Part", "y"], [" tit", "le"], [" a", "way"], [" C", "ong"], [" D", "em"], [" start", "ed"], ["in", "i"], ["at", "al"], [" P", "ri"], [" N", "o"], [" St", "e"], [" effect", "s"], [" m", "ight"], ["ist", "ics"], [" con", "du"], [" As", "ia"], [" Ber", "lin"], [" G", "eneral"], [" per", "cent"], [" elect", "ron"], [" Arab", "ic"], ["arliam", "ent"], ["o", "res"], ["ri", "al"], [" cl", "ose"], [" main", "t"], [" p", "ut"], [" lead", "ing"], [" event", "ually"], ["one", "y"], [" ele", "ction"], [" h", "it"], ["am", "ent"], ["ut", "ions"], [" g", "un"], [" serv", "ed"], [" Is", "lam"], [" us", "es"], [" Ar", "men"], [" j", "ournal"], [".", ")"], [" al", "c"], [" r", "ate"], [" k", "ey"], [" c", "ities"], ["ol", "a"], [" 201", "6"], [" Z", "e"], ["b", "ased"], ["ir", "it"], [" c", "oll"], [" M", "ich"], [" Q", "u"], ["re", "am"], [" st", "ri"], [" inter", "p"], [" return", "ed"], ["v", "an"], ["ic", "les"], [" acc", "ount"], [" II", "I"], ["A", "t"], [" Al", "ban"], [" conc", "ern"], [" ", "ess"], ["u", "x"], ["ot", "ic"], [" lik", "ely"], ["ul", "ated"], [" ra", "il"], ["    ", "    "], [" m", "ach"], [" B", "ro"], [" is", "land"], [" produ", "cer"], [" serv", "ices"], [" kill", "ed"], ["i", "res"], ["om", "as"], [" s", "aw"], ["r", "ate"], [" 20", "19"], [" n", "ature"], ["ach", "ing"], [" me", "et"], [" spec", "ific"], ["ut", "ure"], ["ist", "er"], [" Sch", "ool"], ["l", "ier"], [" sc", "reen"], ["z", "a"], ["et", "t"], [" I", "m"], [" v", "iol"], [" ch", "urch"], [" Brit", "ain"], [" H", "igh"], ["k", "n"], ["r", "as"], ["en", "ed"], [" L", "a"], ["ele", "b"], ["ribut", "ed"], [" d", "augh"], [" G", "overn"], [" sour", "ce"], ["ro", "l"], [" R", "ed"], [" inst", "r"], [" common", "ly"], [" r", "ule"], [" 196", "0"], [" o", "il"], ["b", "urg"], [" b", "rought"], ["m", "ar"], [" s", "qu"], [" al", "g"], [" ro", "ck"], [" resp", "ons"], ["u", "ff"], ["om", "y"], [" M", "any"], [" W", "e"], [" prov", "ide"], [" P", "at"], ["19", "0"], ["e", "ction"], ["m", "in"], [" contin", "u"], [" typ", "es"], ["are", "nt"], [" ", "="], [" t", "arg"], ["an", "c"], [" f", "a"], [" trans", "port"], [" S", "er"], [" incre", "asing"], [" wid", "ely"], ["uf", "act"], [" T", "o"], [" S", "am"], [" c", "lear"], ["eng", "th"], [" c", "ause"], [" b", "att"], [" h", "on"], [" l", "og"], [" e", "ast"], [" B", "as"], ["ibr", "ary"], [" s", "elf"], [" Af", "ghan"], [" cond", "itions"], [" d", "ial"], [" app", "lic"], [" incre", "ase"], ["r", "or"], ["om", "er"], [" rem", "ains"], [" c", "ases"], ["il", "ities"], ["u", "pp"], ["um", "p"], [" grow", "th"], ["2", "2"], [" man", "ufact"], [" add", "ed"], [" sc", "ience"], [" prov", "ided"], [" ", "ur"], [" 200", "4"], [" bl", "ood"], [" commer", "cial"], ["id", "ing"], ["ell", "ed"], [" lit", "tle"], ["r", "im"], [" v", "eh"], [" sub", "sequ"], [" partic", "ip"], ["4", "0"], [" B", "os"], ["ut", "ed"], [" 2", "6"], [" requ", "ired"], ["y", "ear"], ["A", "fter"], [" t", "ax"], ["our", "t"], [" p", "en"], [" l", "ay"], [" I", "f"], ["th", "rop"], [" V", "ol"], [" reg", "ular"], [" def", "in"], [" Canad", "a"], [" M", "y"], [" M", "ost"], [" caus", "ed"], ["ic", "ient"], [" r", "is"], [" D", "an"], [" L", "ist"], [" most", "ly"], [" inter", "est"], [" s", "outhern"], ["it", "or"], [" l", "ive"], [" ph", "ot"], [" right", "s"], [" s", "al"], ["amp", "ions"], [" m", "ag"], [" J", "ack"], [" inst", "it"], [" Bra", "zil"], [" con", "cent"], [" territ", "ory"], [" compan", "ies"], [" l", "iving"], [" qu", "est"], ["ax", "im"], ["fer", "ence"], [" H", "istory"], [" ear", "lier"], [" mon", "ths"], [" const", "it"], [" Rep", "ublic"], [" al", "ways"], [" In", "stit"], [" out", "side"], [" B", "ell"], ["res", "p"], [" Hen", "ry"], [" B", "ulg"], [" Ch", "inese"], [" j", "ud"], ["..", "."], [" F", "irst"], [" lead", "ers"], [" typ", "ically"], ["rem", "e"], [" v", "ir"], ["con", "t"], [" Con", "t"], [" he", "alth"], [" spe", "ak"], [" record", "ed"], ["kn", "own"], [" produ", "ce"], [" fl", "ight"], ["O", "S"], [" al", "k"], [" educ", "ation"], ["an", "ks"], ["h", "ing"], [" s", "at"], [" dest", "roy"], ["2", "3"], [" M", "inister"], [" J", "er"], [" pl", "ant"], [" tra", "vel"], [" result", "s"], [" long", "er"], [" s", "ound"], [" histor", "ical"], ["o", "e"], ["g", "ian"], ["ag", "o"], [" me", "chan"], [" S", "l"], ["av", "al"], [" soft", "ware"], ["on", "a"], [" ne", "cess"], ["E", "n"], [" C", "ouncil"], [" Rich", "ard"], ["g", "round"], [" w", "est"], [" B", "ut"], [" them", "sel"], [" eff", "ort"], [" themsel", "ves"], [" e", "ight"], [" hig", "hest"], ["f", "l"], ["i", "j"], ["is", "l"], [" m", "ention"], ["s", "ych"], [" to", "wards"], ["ous", "ly"], [" Ac", "adem"], [" re", "ason"], ["od", "ern"], [" f", "le"], ["os", "aur"], [" var", "iety"], ["p", "ro"], [" bir", "th"], [" a", "ud"], ["and", "s"], [" G", "ro"], ["ran", "ch"], [" 5", "0"], [" product", "s"], [" pot", "ential"], [" c", "reat"], [" h", "om"], [" Ch", "ina"], ["wo", "od"], [" Lou", "is"], [" I", "ts"], ["rib", "ution"], ["por", "ary"], [" repl", "aced"], [" c", "eleb"], [" 2", "3"], [" l", "ines"], ["2", "4"], [" e", "mer"], [" g", "ra"], [" O", "ld"], ["ect", "s"], [" appe", "ared"], ["c", "ast"], ["ird", "s"], ["g", "in"], ["ag", "ed"], ["eder", "al"], ["y", "a"], [" Buddh", "a"], [" chang", "es"], ["F", "or"], [" d", "om"], ["ig", "u"], [" P", "eter"], [" 199", "9"], [" Al", "f"], [" ad", "apt"], [" writ", "ing"], ["z", "z"], [" s", "ay"], ["m", "illion"], [" g", "as"], ["ect", "or"], [" var", "i"], [" major", "ity"], ["ign", "ed"], [" disc", "overed"], [" se", "a"], [" pre", "vent"], [" 202", "1"], ["l", "ied"], [" c", "he"], [" st", "ated"], ["art", "ment"], [" dis", "e"], [" sp", "ok"], ["ph", "as"], ["ste", "in"], [" B", "at"], [" Jew", "ish"], ["resp", "ond"], [" A", "ward"], [" B", "ah"], ["ism", "s"], [" occ", "up"], [" Port", "ug"], [" tro", "ops"], ["i", "ences"], ["at", "ch"], ["as", "c"], [" schol", "ars"], ["o", "ch"], [" c", "over"], [" b", "or"], [" 4", "0"], ["air", "s"], [" a", "ward"], [" con", "ver"], [" anim", "als"], [" fore", "ign"], [" prim", "ary"], [" priv", "ate"], [" American", "s"], [" off", "ice"], [" read", "ing"], ["k", "et"], ["ab", "it"], ["p", "art"], [" com", "e"], [" S", "al"], [" ele", "ment"], ["s", "pe"], [" ant", "ib"], [" poin", "ts"], [" beg", "inning"], ["8", "0"], [" to", "o"], [" l", "oss"], [" Par", "is"], [" whe", "ther"], [" ac", "qu"], [" pre", "c"], [" l", "atter"], [" person", "al"], [" o", "pt"], ["it", "ar"], ["um", "n"], [" B", "ay"], [" wh", "om"], [" const", "ruction"], ["'", "t"], ["w", "ar"], ["as", "ion"], ["ith", "m"], [" w", "ife"], [" S", "im"], [" e", "as"], [" reg", "ions"], ["all", "ed"], [" lim", "ited"], ["f", "ield"], [" f", "ront"], [" f", "uture"], [" 200", "3"], [" B", "ab"], ["iv", "ity"], [" v", "ideo"], ["en", "es"], ["ph", "a"], [" Ital", "y"], [" proble", "ms"], [" M", "ass"], [" T", "rans"], [" V", "al"], [" cell", "s"], ["r", "ig"], ["op", "p"], [" a", "ction"], [" m", "ale"], ["im", "al"], ["pe", "cted"], [" econom", "y"], [" phys", "ical"], [" ", "i"], ["oun", "ts"], [" Th", "omas"], [" M", "et"], [" H", "ung"], ["if", "orn"], [" qu", "ant"], [" treat", "ment"], ["b", "ack"], ["ob", "al"], [" rad", "io"], [" proble", "m"], [" V", "ir"], [" bel", "ow"], [" anal", "ysis"], ["o", "z"], [" I", "r"], [" se", "ven"], [" small", "er"], ["ic", "o"], [" set", "t"], ["it", "t"], [" to", "day"], ["ou", "d"], ["ra", "ction"], [" direct", "ly"], ["N", "A"], [" Jew", "s"], ["i", "en"], [" d", "ig"], [" re", "ached"], [" v", "ia"], [" he", "av"], [" school", "s"], ["c", "el"], ["g", "o"], [" g", "ive"], ["ud", "a"], ["led", "ge"], [" Sm", "ith"], [" ", "|"], [" C", "a"], [" M", "e"], [" g", "rad"], [" cent", "uries"], [" def", "ined"], [" sym", "bol"], ["ill", "s"], [" un", "its"], [" A", "M"], [" W", "all"], [" a", "x"], ["act", "ers"], [" se", "qu"], ["b", "re"], ["i", "as"], ["al", "ing"], [" E", "astern"], ["read", "y"], [" Cent", "ral"], [" d", "am"], [" rem", "ov"], [" Ass", "oci"], ["on", "n"], ["on", "se"], [" H", "all"], [" U", "K"], [" prop", "osed"], [" writ", "ers"], ["e", "v"], ["ge", "bra"], [" work", "ing"], [" stud", "ies"], [" s", "itu"], [" Russ", "ia"], [" care", "er"], ["hes", "is"], ["ex", "t"], [" gre", "ater"], ["un", "t"], [" M", "oon"], [" 200", "2"], [" mar", "ried"], [" perform", "ed"], [" pract", "ice"], [" B", "al"], ["2", "7"], [" s", "il"], ["ar", "ing"], [" Con", "f"], [" Sw", "ed"], ["A", "M"], ["od", "y"], ["h", "a"], ["an", "ced"], [" p", "ath"], [" l", "ength"], [" D", "ep"], [" Soc", "iety"], [" prob", "ably"], [" spe", "ed"], [" n", "ar"], ["ur", "ity"], ["if", "t"], ["ord", "s"], [" daugh", "ter"], [" Academ", "y"], [" dist", "inct"], ["O", "ther"], ["i", "ated"], [" al", "le"], ["and", "ed"], [" Cong", "ress"], ["w", "est"], [" B", "ak"], [" r", "iver"], [" establ", "ish"], ["y", "r"], ["is", "ation"], [" As", "h"], [" cor", "respond"], [" invol", "ved"], [" pur", "p"], ["u", "ke"], ["id", "er"], ["ip", "l"], ["our", "ces"], [" near", "ly"], [" Mus", "lim"], [" er", "a"], [" requ", "ire"], [" comple", "te"], [" M", "al"], [" N", "or"], [" independ", "ent"], [" ", "+"], [" m", "ole"], [" en", "vironment"], [" origin", "ally"], ["ow", "ers"], [" rem", "ain"], [" lead", "er"], ["on", "st"], [" c", "it"], [" separ", "ate"], [" s", "ac"], [" rec", "ent"], ["uc", "k"], [" y", "ou"], [" bet", "ter"], ["iforn", "ia"], [" b", "ene"], [" st", "age"], [" rel", "atively"], [" support", "ed"], [" med", "ic"], [" net", "work"], [")", ":"], ["e", "ff"], ["n", "ia"], [" M", "iddle"], ["ann", "ed"], ["ly", "ing"], [" W", "il"], [" temper", "ature"], [" 202", "2"], [" al", "ready"], [" 199", "8"], [" philos", "opher"], [" manag", "er"], ["l", "or"], [" f", "ell"], [" A", "j"], [" ag", "ricult"], ["ash", "ington"], ["a", "res"], ["s", "ong"], ["m", "e"], ["v", "iew"], ["y", "er"], ["olog", "ist"], [" cult", "ural"], ["it", "z"], ["D", "uring"], ["on", "ic"], ["is", "ions"], [" A", "S"], [" at", "om"], [" larg", "ely"], [" char", "acters"], ["A", "ccording"], [" c", "ut"], [" A", "ber"], [" con", "qu"], ["ur", "ches"], ["est", "ival"], [" high", "ly"], [" disc", "uss"], [" let", "ter"], ["W", "h"], ["m", "et"], ["in", "ent"], [" S", "un"], ["iz", "ing"], [" proper", "ties"], [" ra", "p"], [" ob", "t"], [" estim", "ated"], [" Mich", "ael"], ["it", "te"], [" F", "rom"], [" L", "iber"], [" pl", "aced"], [" dis", "play"], ["6", "0"], ["H", "istory"], ["b", "ed"], ["an", "cial"], [" 2", "7"], ["b", "ai"], [" l", "ab"], ["ac", "hes"], ["ol", "es"], [" Colle", "ge"], ["al", "ed"], ["ri", "age"], [" approx", "imately"], ["m", "ad"], [" v", "ill"], [" dis", "p"], [" there", "fore"], [" Cal", "ifornia"], [" C", "ourt"], ["and", "a"], [" techn", "ology"], ["ian", "t"], ["ul", "pt"], ["ab", "les"], [" S", "ince"], [" e", "ver"], ["zer", "bai"], ["zerbai", "jan"], ["P", "h"], [" meas", "ure"], ["n", "ic"], ["or", "ks"], [" b", "ur"], [" l", "unar"], [" 199", "6"], [" Instit", "ute"], [" D", "el"], [" appe", "ars"], [" chem", "ical"], [" numer", "ous"], ["os", "ing"], [" ", "ens"], [" p", "ay"], ["op", "er"], [" met", "al"], [" car", "bon"], ["i", "ents"], ["er", "c"], [" g", "old"], [" st", "ation"], [" sur", "round"], ["a", "ult"], [" p", "ric"], [" d", "rug"], ["if", "orm"], [" un", "it"], [" law", "s"], ["stand", "ing"], [" w", "ind"], [" S", "en"], [" multip", "le"], ["ol", "it"], [" 2", "8"], [" St", "ud"], [" cent", "er"], [" am", "ount"], ["ast", "ic"], [" 2", "2"], ["pp", "ed"], [" spe", "ct"], [" rele", "ase"], [" ide", "a"], [" adop", "ted"], ["I", "t"], ["ut", "ive"], [" cont", "ains"], [" compos", "er"], ["A", "b"], ["o", "or"], ["or", "ial"], ["ol", "ved"], [" Is", "land"], ["cl", "es"], [" oper", "ations"], ["bo", "ard"], [" targ", "et"], [" s", "em"], ["is", "es"], [" th", "reat"], ["ens", "ion"], [" gu", "itar"], ["H", "e"], [" O", "ff"], [" mathem", "at"], [" w", "estern"], ["os", "is"], [" te", "x"], [" div", "ided"], [" colle", "ction"], [" g", "et"], [" so", "on"], [" h", "yp"], [" M", "ex"], [" stud", "ents"], ["I", "C"], ["k", "i"], ["r", "ative"], [" in", "j"], [" W", "ashington"], [" det", "ail"], [" w", "ide"], ["od", "es"], [" ele", "cted"], [" M", "ac"], [" R", "ome"], [" main", "ly"], ["vent", "ion"], [" perform", "ance"], [" d", "raw"], [" l", "ook"], [" med", "ia"], [" min", "or"], ["he", "ad"], [" pl", "ants"], ["oin", "ted"], ["vers", "e"], [" ra", "re"], [" w", "all"], [" J", "ose"], [" comp", "on"], ["ry", "ing"], [" 199", "7"], [" imp", "lement"], ["ic", "ated"], ["as", "ons"], ["ri", "f"], [" le", "ague"], [" rev", "iew"], [" pri", "or"], ["I", "s"], ["r", "d"], [" p", "sych"], ["ch", "ange"], ["ig", "en"], [" comp", "ared"], [" off", "ic"], ["h", "ood"], [" as", "k"], [" r", "ank"], [" O", "tt"], ["oc", "al"], [" doc", "ument"], ["m", "p"], [" w", "ood"], ["le", "cted"], [" sc", "ulpt"], [" set", "tle"], [" journal", "ist"], ["ol", "f"], [" M", "ont"], [" contro", "ll"], [" sugg", "ested"], [" Sy", "stem"], ["ent", "ed"], ["ian", "ce"], [" cent", "re"], ["w", "here"], [" c", "ust"], [" m", "om"], [" M", "ore"], ["fer", "red"], [" dis", "s"], [" en", "ough"], [" alg", "or"], ["i", "ro"], ["u", "it"], [" B", "rown"], [" M", "ah"], ["ap", "h"], ["oh", "ol"], [" writ", "er"], [" exp", "ans"], [" 195", "0"], [" bas", "is"], [" Scott", "ish"], ["on", "so"], [" b", "ound"], [" A", "v"], [" S", "outhern"], ["un", "ity"], [" cont", "em"], [" F", "ore"], ["ib", "ly"], [" im", "medi"], [" ne", "igh"], [" fam", "ous"], [" vict", "ory"], ["r", "ich"], [" b", "ank"], [" we", "ap"], [" Mart", "in"], ["D", "P"], ["h", "ol"], ["l", "ines"], [" s", "af"], [" d", "yn"], [" sc", "ript"], [" act", "ive"], ["id", "ents"], [" add", "itional"], ["b", "ro"], [" s", "ens"], [" 18", "5"], [" div", "ision"], ["t", "ime"], ["z", "ant"], ["ol", "k"], [" Rev", "olution"], ["d", "en"], [" f", "arm"], [" T", "er"], ["ol", "n"], ["am", "in"], [" sp", "irit"], [" 199", "2"], [" histor", "ian"], ["iqu", "es"], [" h", "ous"], [" st", "ars"], [" 199", "4"], [" Sc", "ot"], [" cre", "ate"], ["tt", "ers"], [" bre", "ak"], [" profess", "ional"], [" B", "ron"], [" M", "ount"], [" who", "le"], [" relations", "hip"], ["it", "ors"], [" pol", "icy"], [" m", "akes"], [" 18", "3"], [" D", "is"], [" open", "ed"], [" M", "ary"], [" can", "not"], ["ve", "y"], [" show", "s"], [" Bar", "b"], [" der", "ived"], ["c", "ies"], [" t", "ree"], [" c", "ard"], [" B", "ig"], [" C", "ivil"], [" In", "ter"], [" ag", "re"], [" Wh", "ite"], [" team", "s"], [" resp", "onse"], [" w", "ant"], ["ar", "ly"], [" b", "ond"], [" A", "zerbaijan"], ["song", "writer"], ["as", "k"], [" Q", "ue"], [" col", "or"], [" At", "ari"], [" For", "ce"], [" influ", "enced"], ["v", "ille"], [" th", "ous"], [" Sp", "ain"], ["w", "in"], [" sh", "own"], [" sp", "read"], [" claim", "ed"], [" beh", "ind"], ["c", "an"], ["ar", "us"], [" C", "ons"], [" R", "ad"], [" 199", "5"], [" fam", "il"], [" philos", "ophy"], ["e", "ch"], ["are", "n"], [" mem", "ory"], ["c", "ks"], [" n", "ation"], [" le", "tters"], [" sy", "n"], [" altern", "ative"], ["d", "am"], [" po", "or"], [" M", "ark"], ["over", "y"], [" qu", "ick"], [" work", "ed"], ["S", "M"], [" p", "un"], ["ir", "m"], [" not", "ed"], [" comple", "ted"], [" comp", "let"], [" 18", "4"], [" co", "ach"], [" Ar", "ist"], [" he", "avy"], [" ", "ice"], ["w", "ide"], ["al", "le"], [" c", "and"], [" S", "aint"], ["ial", "ly"], [" result", "ing"], [" scient", "ific"], [" Associ", "ation"], ["it", "a"], [" c", "ou"], [" h", "or"], [" B", "ol"], ["ollow", "ing"], ["2", "8"], [" tr", "ue"], ["li", "est"], ["w", "ith"], [" al", "gebra"], [" commun", "ic"], [" in", "n"], ["ic", "ted"], [" Fran", "c"], [" laun", "ch"], [" st", "ep"], [" comp", "ar"], [" belie", "f"], [" Athen", "s"], ["v", "a"], [" fore", "st"], ["D", "e"], ["ro", "d"], ["od", "ox"], ["ell", "ig"], [" sh", "ips"], ["18", "9"], [" sex", "ual"], ["ar", "ter"], [" e", "astern"], [" R", "ec"], [" activ", "ity"], ["p", "ress"], ["w", "ana"], ["re", "et"], [" in", "h"], [" d", "ate"], [" d", "one"], [" cl", "imate"], [" pres", "ence"], [" imp", "act"], [" es", "c"], ["b", "our"], [" s", "port"], ["ren", "g"], [" bene", "f"], [" L", "ibrary"], ["per", "ial"], [" pres", "erv"], [" fun", "ctions"], [" soc", "iety"], [" level", "s"], [" liter", "ature"], [" Tur", "k"], ["\"", "),"], ["n", "ed"], [" A", "I"], ["el", "a"], ["6", "7"], ["a", "ud"], ["l", "o"], [" m", "or"], [" G", "ra"], [" F", "re"], ["ost", "on"], [" exper", "ience"], [" c", "red"], [" d", "ram"], [" De", "f"], ["inc", "oln"], [" Dem", "ocr"], ["on", "ia"], [" ab", "ility"], [" 199", "1"], [" inc", "or"], [" rul", "es"], ["ul", "ations"], ["at", "o"], [" c", "ateg"], ["ro", "g"], [" Am", "az"], [" the", "ore"], [" b", "ox"], ["ol", "ar"], ["og", "rap"], [" dem", "onst"], [" prim", "arily"], ["\n", "\n "], ["it", "ation"], [" c", "ounter"], [" P", "o"], [" cont", "ract"], [" ass", "um"], [" build", "ings"], [" dou", "ble"], [" ris", "k"], [" tex", "ts"], [" cont", "ain"], ["wh", "ich"], [" press", "ure"], [" cit", "iz"], [" ", ":"], [" B", "ill"], [" art", "ists"], [" car", "ried"], [" sugg", "est"], ["g", "ing"], [" for", "ced"], ["az", "ine"], [" iss", "ue"], [" foc", "us"], ["augh", "t"], [" object", "s"], [" Comp", "any"], [" p", "ie"], [" d", "ed"], ["us", "e"], [" H", "istor"], [" Col", "umb"], [" bo", "ard"], ["he", "ast"], [" stat", "us"], [" join", "ed"], [",", "\""], [" b", "acter"], ["el", "es"], ["ur", "der"], [" M", "u"], [" cont", "rast"], [" John", "son"], [" ke", "ep"], ["7", "0"], [" A", "C"], ["am", "ine"], ["em", "it"], [" beh", "av"], ["en", "a"], [" e", "y"], [" R", "uth"], [" de", "cre"], [" fin", "ancial"], [" chang", "ed"], [" observ", "ed"], [" P", "et"], [" ex", "hib"], [" method", "s"], [" fail", "ed"], ["il", "s"], [" T", "est"], [" k", "ind"], [" am", "b"], [" Se", "cond"], [" Jose", "ph"], [" ", "ult"], [" b", "ra"], [" pl", "aces"], ["ec", "ause"], [" laun", "ched"], ["v", "in"], [" D", "iv"], [" ra", "ce"], [" bl", "ue"], ["2", "9"], [" s", "ense"], [" b", "inary"], [" A", "T"], [" B", "ible"], ["th", "odox"], [" cons", "um"], [" V", "ict"], [" res", "istance"], [" By", "zant"], [" expans", "ion"], ["if", "f"], ["ie", "val"], [" ear", "liest"], [" loc", "ation"], [" independ", "ence"], [" w", "in"], ["ak", "h"], ["ron", "e"], [" ident", "ified"], [" b", "apt"], [" In", "t"], [" dist", "ance"], ["Th", "is"], [" ", "/"], [" t", "aking"], [" 199", "3"], ["com", "p"], [" fem", "ale"], ["l", "ight"], ["in", "u"], ["er", "a"], [" L", "ord"], ["ear", "ch"], ["ans", "as"], [" defe", "ated"], ["unic", "ip"], ["u", "is"], [" B", "or"], ["ly", "mp"], [" G", "rand"], [" tra", "ining"], [" quest", "ion"], ["F", "urther"], [" T", "or"], [" C", "ap"], [" Bat", "man"], ["A", "T"], ["al", "o"], [" M", "il"], [" law", "yer"], [" Cent", "er"], [" se", "arch"], ["und", "red"], [" 193", "0"], [" need", "ed"], ["s", "s"], ["as", "ka"], ["i", "ot"], ["or", "ation"], [" c", "oin"], [" ro", "t"], [" st", "reng"], [" pass", "ed"], [" represent", "ed"], [" ", "ir"], ["p", "ly"], ["y", "ing"], [" c", "ode"], ["ro", "ll"], [" T", "ex"], [" S", "eries"], [" M", "iss"], [" material", "s"], [" accept", "ed"], [" Vir", "gin"], [" rap", "id"], [" g", "raph"], [" L", "aw"], [" l", "ink"], [" r", "ise"], [" 198", "9"], [" dec", "ided"], [" mach", "ine"], [" Conf", "eder"], ["r", "ine"], [" h", "ours"], ["ac", "c"], [" app", "ointed"], [" 196", "9"], [" relig", "ion"], [" Afghan", "istan"], ["id", "a"], [" mov", "e"], [" An", "n"], [" ro", "und"], [" mar", "riage"], [" iss", "ues"], [" B", "oston"], [" redu", "ced"], [" my", "th"], ["u", "ge"], [" n", "ight"], ["ens", "us"], [" const", "ant"], [" dise", "ase"], ["p", "r"], [" p", "erm"], [" re", "con"], [" He", "b"], [" ann", "ual"], [" sold", "iers"], ["F", "L"], [" l", "if"], [" O", "lymp"], [" comb", "ined"], [" Angl", "ican"], ["En", "gl"], ["C", "l"], [" F", "in"], [" y", "et"], [" reg", "ional"], [" pe", "ace"], [" sign", "ed"], ["m", "ark"], ["em", "is"], [" L", "incoln"], ["er", "o"], [" p", "hen"], [" or", "bit"], ["se", "c"], [" comp", "osed"], [" m", "ig"], [" h", "app"], [" T", "ra"], ["us", "al"], [" is", "lands"], [" sy", "nt"], [" mat", "ter"], [" leg", "al"], [" becom", "ing"], [" re", "ve"], [" 198", "6"], [" hum", "ans"], ["B", "y"], [" A", "ch"], ["n", "ers"], ["am", "m"], [" ch", "urches"], ["ult", "an"], ["ens", "ity"], ["ke", "y"], [" bas", "ic"], ["at", "re"], [" cand", "id"], ["2", "6"], ["7", "5"], ["c", "est"], [" l", "ived"], [" R", "ail"], [" we", "ight"], [" arg", "ued"], [" Ir", "ish"], ["a", "ctions"], ["r", "us"], ["w", "er"], [" N", "avy"], [" J", "ul"], [" r", "at"], [" int", "ended"], [" add", "ress"], [" Ab", "b"], [" Gree", "ce"], [" b", "omb"], ["le", "ction"], ["el", "t"], [" M", "a"], ["is", "her"], [" m", "icro"], [" alc", "ohol"], ["N", "otes"], [" an", "arch"], [" pr", "ison"], [" prov", "ince"], [" previous", "ly"], [" fig", "ure"], ["itte", "e"], [" b", "urn"], [" B", "ern"], ["ce", "an"], [" 2", "9"], [" turn", "ed"], [" sum", "mer"], [" mom", "ent"], [" t", "able"], ["um", "an"], [" mat", "ch"], ["ograp", "her"], ["y", "gen"], [" s", "us"], ["il", "ed"], ["ri", "ef"], [" se", "ction"], [" ch", "ief"], [" Ar", "g"], [" initial", "ly"], ["h", "i"], ["an", "es"], ["ig", "a"], [" Sh", "ah"], [" Pro", "t"], [" old", "er"], ["ket", "ball"], ["r", "ations"], ["u", "ild"], [" b", "illion"], [" fl", "u"], ["h", "old"], [" c", "ast"], [" A", "st"], ["ou", "red"], [" com", "ment"], ["iz", "ations"], ["ob", "ile"], [" four", "th"], [" author", "ity"], [" leg", "isl"], [" s", "pl"], [" D", "on"], [" de", "ep"], [" en", "em"], [" 6", "0"], [" sl", "ow"], [" techn", "iques"], ["w", "ell"], [" ass", "ist"], [" f", "if"], [" con", "ne"], ["6", "5"], [" o", "ur"], [" Pri", "ze"], [" t", "end"], [" m", "oney"], [" n", "it"], ["ell", "a"], [" cor", "re"], [" un", "c"], [" rem", "aining"], [" aut", "om"], [" Gro", "up"], [" S", "erv"], [" B", "ase"], [" 198", "8"], [" appear", "ance"], [" h", "arm"], ["ars", "h"], [" art", "ist"], ["cher", "s"], [" N", "orthern"], [" prov", "ides"], [" Is", "lands"], [" pain", "t"], [" individual", "s"], ["m", "ir"], [" t", "akes"], [" cons", "erv"], [" sub", "s"], [" equ", "al"], [" offer", "ed"], [" a", "im"], [" B", "apt"], [" for", "t"], [" proper", "ty"], ["t", "ical"], ["ent", "h"], ["ac", "ity"], [" mod", "els"], [" p", "aper"], [" P", "arliament"], [" Ar", "k"], [" respect", "ively"], ["re", "y"], [" B", "est"], [" be", "ar"], [" he", "art"], [" becom", "es"], [" batt", "les"], ["ed", "y"], [" p", "al"], [" p", "il"], [" al", "t"], [" ent", "ered"], [" oper", "ating"], [" interp", "ret"], ["r", "ass"], ["y", "al"], [" The", "ir"], ["ues", "e"], ["S", "ome"], ["b", "and"], [" b", "it"], ["ol", "s"], [" C", "arl"], [" con", "clud"], ["ill", "ed"], [" ear", "th"], [" ide", "as"], ["z", "en"], [" c", "ru"], ["im", "ens"], [" g", "rand"], [" O", "x"], ["ru", "cted"], [" gl", "obal"], [" deg", "ree"], [" A", "h"], ["am", "s"], [" de", "al"], [" cons", "ists"], [" appro", "ach"], [" fig", "ures"], [" b", "al"], [" b", "rain"], [" b", "order"], [" su", "c"], [" sh", "ip"], [" res", "erv"], [" poss", "ess"], ["ots", "wana"], ["b", "l"], ["an", "j"], [" G", "old"], [" v", "ary"], [" An", "other"], [" 198", "4"], [" dire", "cted"], [" attack", "s"], [" p", "it"], [" ch", "arg"], [" ", "x"], ["B", "A"], [" s", "ports"], ["ist", "ry"], [" ex", "c"], [" An", "ton"], [" we", "ek"], [" death", "s"], [" pat", "tern"], [" know", "ledge"], [" Ott", "oman"], ["al", "a"], [" ro", "ad"], [" mus", "ical"], [" val", "ues"], [" cal", "cul"], ["ed", "s"], ["ad", "ed"], ["ul", "ly"], [" ar", "ran"], [" sub", "st"], [" trans", "m"], [" Pr", "ime"], [" Pol", "ish"], [" ill", "ust"], [" mention", "ed"], [" D", "ou"], ["ia", "h"], [" Al", "aska"], [" des", "pite"], [" broad", "cast"], [" 19", "20"], [" Cl", "in"], ["an", "i"], [" re", "form"], [" n", "ative"], [" v", "an"], [" app", "arent"], [" run", "s"], [" activ", "ities"], ["Engl", "ish"], [" m", "iddle"], [" Pr", "ince"], ["ster", "dam"], [" fri", "end"], ["f", "ect"], [" re", "ign"], [" J", "ust"], ["ak", "er"], [" em", "phas"], [" B", "ank"], [" E", "r"], ["con", "s"], [" sp", "ent"], [" end", "ed"], [" Or", "thodox"], [" indust", "rial"], [" I", "ran"], [" record", "s"], [" quick", "ly"], ["d", "ess"], ["y", "th"], ["in", "em"], ["on", "ed"], [" E", "v"], ["An", "d"], ["ceed", "ed"], [" Heb", "rew"], ["P", "e"], ["al", "and"], [" re", "action"], [" R", "ob"], [" 197", "2"], ["emb", "ly"], [" prot", "ect"], ["osaur", "us"], ["W", "hen"], ["on", "ian"], [" an", "throp"], [" be", "aut"], ["og", "en"], [" 198", "5"], [" effect", "ive"], [" invest", "ig"], [" R", "om"], [" exist", "ence"], [" spok", "en"], [" c", "er"], [" g", "rant"], [" 198", "3"], [" class", "ical"], [" program", "s"], ["reed", "om"], [" song", "s"], [" respons", "ible"], [" ", "ut"], [" b", "ring"], [" M", "in"], [" ch", "all"], [" Cl", "ass"], [" contro", "vers"], [" allow", "ing"], ["im", "in"], ["al", "us"], ["op", "es"], [" sl", "ight"], [" Scot", "land"], ["ad", "a"], [" M", "ag"], ["ag", "ing"], [" se", "cret"], [" med", "ical"], [" Bel", "arus"], [" A", "k"], [" elect", "ric"], ["A", "R"], ["r", "ates"], ["on", "ym"], [" b", "irds"], [" n", "ob"], [" M", "ill"], [" st", "ra"], [" em", "peror"], [" decl", "ared"], [" ess", "ential"], [" fa", "ith"], [" b", "ishop"], ["ic", "it"], [" S", "ir"], [" l", "iber"], ["ri", "er"], ["ill", "ery"], [" ep", "is"], ["in", "et"], ["in", "ity"], ["ir", "ing"], ["est", "ic"], ["enn", "is"], [" frequ", "ently"], [" Te", "chn"], ["r", "m"], [" b", "ip"], [" A", "ud"], ["ou", "ra"], [" T", "reat"], ["ac", "her"], [" char", "ge"], [" dou", "b"], [" fav", "or"], ["r", "ical"], [" A", "ut"], [" B", "oth"], [" n", "ine"], [" ex", "amples"], [" play", "ing"], [" 198", "2"], [" 197", "4"], ["r", "um"], ["ul", "s"], [" anim", "al"], ["A", "D"], [" in", "ternal"], [" C", "amb"], [" \n", "\n"], [" occ", "urs"], [" king", "dom"], [" h", "undred"], [" B", "ang"], [" as", "pect"], [" J", "ean"], ["18", "8"], ["h", "us"], ["k", "en"], [" w", "inn"], [" A", "le"], [" d", "ark"], [" 198", "7"], [" vers", "ions"], [" present", "ed"], [" cond", "ition"], [" occur", "red"], ["9", "9"], [" re", "ject"], [" de", "ad"], ["ant", "age"], ["iz", "es"], ["ph", "ab"], ["ograph", "ic"], [" av", "oid"], [" instr", "ument"], [" incor", "por"], [" m", "ix"], ["ur", "t"], [" O", "per"], ["or", "ia"], [" J", "ud"], [" 3", "1"], ["angu", "age"], [" p", "le"], ["us", "cript"], [" on", "line"], [" pre", "m"], [" play", "s"], [" sim", "ply"], [" fri", "ends"], [" feature", "d"], [" ", ")"], ["ol", "is"], ["ill", "a"], [" dec", "ision"], ["ak", "istan"], [" comp", "ounds"], ["ub", "e"], [" cont", "aining"], [" im", "age"], [" Y", "ear"], ["AS", "A"], ["E", "arly"], ["in", "us"], ["in", "stein"], [" w", "inter"], ["se", "e"], [" ne", "ut"], [" app", "lied"], [" ra", "in"], [" dist", "ingu"], [" ext", "ended"], [" mon", "th"], [" dire", "ction"], [" allow", "s"], [" defin", "ition"], [" Alf", "red"], ["l", "s"], [" b", "atter"], [" 198", "1"], [" 197", "5"], [" mon", "arch"], [" ", "upp"], ["at", "ur"], [" f", "ederal"], [" d", "on"], ["us", "ion"], ["im", "ent"], [" g", "iving"], [" cont", "act"], [" form", "al"], ["enn", "a"], [" eth", "nic"], [" Islam", "ic"], [" Columb", "ia"], ["i", "i"], ["en", "h"], [" m", "is"], [" form", "ation"], [" necess", "ary"], ["B", "M"], ["O", "M"], ["l", "ict"], [" p", "p"], [" re", "pe"], [" se", "ctor"], [" Aust", "in"], [" dep", "end"], [" claim", "s"], ["osp", "ital"], [" astron", "aut"], ["r", "ong"], ["s", "hip"], ["um", "in"], [" Th", "us"], [" Ed", "ward"], ["ipl", "om"], ["r", "ants"], [" E", "p"], [" un", "d"], [" sh", "are"], [" 194", "0"], ["m", "ond"], [" th", "ings"], ["og", "y"], [" ext", "ra"], [" Count", "y"], ["g", "ar"], [" Al", "c"], [" pr", "in"], [" contin", "ue"], [" Franc", "is"], ["l", "a"], [" f", "ully"], [" T", "wo"], [" E", "lect"], [" im", "pl"], [" dist", "ribution"], [" order", "ed"], ["de", "en"], ["9", "0"], [" w", "oman"], [" T", "V"], ["ress", "ive"], [" 197", "9"], ["cept", "ion"], [" god", "dess"], [" regard", "ed"], [" Govern", "ment"], ["c", "ol"], [" S", "ar"], [" not", "able"], ["ord", "ers"], [" ac", "ids"], ["stit", "ution"], [" Bos", "nia"], [" constit", "ution"], [" citiz", "ens"], ["usal", "em"], ["A", "C"], ["ed", "a"], [" L", "ife"], ["ip", "ment"], [" part", "ies"], [" old", "est"], [" hyp", "ot"], ["en", "z"], [" ar", "bit"], [" 197", "6"], [" 197", "7"], [" ox", "ygen"], [" Portug", "uese"], [" com", "es"], [" not", "es"], [" govern", "or"], [" bel", "ong"], [" ed", "ition"], [" show", "ed"], [" equ", "ival"], [" nuc", "lear"], ["'", ","], ["\u00e1", "n"], ["er", "al"], [" an", "cest"], [" un", "s"], [" ro", "yal"], ["ubl", "ican"], [" land", "ing"], [" b", "ig"], [" D", "uke"], [" 196", "8"], [" mot", "ion"], [" Tex", "as"], ["clud", "ing"], [" 18", "0"], [" ag", "reed"], [" exp", "ressed"], [" mark", "ed"], ["3", "5"], ["le", "m"], [" T", "im"], [" M", "ad"], [" cont", "ribut"], [" And", "rew"], [" struct", "ures"], [" transl", "ation"], ["\"", ")."], ["O", "L"], ["m", "ore"], ["ab", "b"], ["ab", "ul"], [" Sc", "ience"], [" Em", "peror"], [" nuc", "le"], [" contem", "porary"], [" f", "ace"], ["if", "ically"], [" N", "ap"], [" O", "p"], [" commun", "ities"], [" architect", "ure"], [" Arist", "ot"], [" ", "iron"], [" s", "ites"], [" S", "ant"], [" (", "),"], [" J", "es"], ["end", "er"], ["ran", "ge"], [" Ch", "ampions"], [" pos", "itive"], [" sim", "ple"], [" Geor", "g"], [" mount", "ain"], [" hydro", "gen"], [" award", "ed"], ["E", "S"], ["o", "ir"], ["p", "ired"], ["it", "able"], [" e", "c"], [" C", "up"], [" 197", "1"], [" result", "ed"], [" ur", "ban"], [" Clin", "ton"], ["6", "4"], ["o", "o"], ["w", "ise"], ["in", "du"], [" b", "rief"], [" to", "ld"], [" l", "ove"], ["et", "te"], [" v", "ow"], [" 194", "5"], [" Dep", "artment"], ["le", "g"], [" C", "ast"], [" ad", "j"], [" spe", "ech"], ["uss", "els"], [" Or", "der"], [" magn", "itude"], [" medic", "ine"], ["ri", "e"], [" ex", "act"], [" Th", "at"], [" 17", "8"], ["ink", "ing"], [" Atlant", "a"], ["it", "ting"], [" H", "ill"], [" H", "aw"], [" L", "ab"], ["iet", "ies"], [" prom", "inent"], [" p", "ron"], [" act", "ually"], [" Am", "sterdam"], [" do", "ct"], [" ref", "ers"], ["i", "ary"], ["ar", "on"], ["om", "ers"], [" ex", "pected"], [" r", "ang"], [" K", "ore"], [" le", "aving"], [" desc", "ript"], [" Su", "per"], [" famil", "ies"], [" dis", "order"], [" m", "urder"], [" re", "ach"], [" g", "ives"], [" with", "d"], [" N", "ob"], [" BC", "E"], [" tre", "es"], ["h", "aps"], ["n", "am"], [" s", "un"], [" S", "ol"], [" opp", "osed"], [" Bel", "g"], ["M", "an"], [" d", "ro"], [" st", "ories"], [" me", "ant"], [" pain", "ter"], ["o", "is"], [" em", "b"], [" Jack", "son"], [" p", "urch"], [" S", "um"], [" M", "os"], [" K", "n"], [" pre", "p"], [" oper", "ation"], [" refer", "ence"], [" fin", "ally"], ["S", "e"], [" w", "inning"], ["il", "ing"], [" ad", "ult"], [" bl", "ock"], [" 8", "0"], [" Buddh", "ist"], [" ser", "ious"], ["ad", "ium"], ["art", "ers"], [" hand", "s"], [" fight", "ing"], ["B", "e"], ["O", "ne"], ["y", "an"], [" m", "axim"], [" m", "unicip"], [" B", "BC"], [" pos", "itions"], [" transl", "ated"], [" Byzant", "ine"], [" T", "al"], [" B", "otswana"], ["os", "en"], [" se", "em"], [" Con", "stant"], ["m", "osp"], ["at", "ers"], [" L", "and"], [" Ch", "ic"], [" fl", "ow"], [" bas", "ketball"], [" pass", "eng"], [" M", "ajor"], ["aw", "a"], [" m", "ess"], [" h", "ot"], [" P", "re"], [" N", "ations"], ["ast", "y"], [" 197", "8"], [" comput", "ers"], [" ask", "ed"], ["A", "p"], [" b", "ott"], [" re", "act"], ["ad", "d"], ["ag", "on"], [" follow", "s"], [" conf", "lict"], [" univers", "e"], [" squ", "are"], [" immedi", "ately"], ["Pe", "ople"], ["th", "ing"], [" D", "ist"], [" set", "s"], ["4", "7"], ["B", "S"], [" c", "ouncil"], [" p", "ack"], [" be", "ars"], ["os", "h"], ["ac", "ing"], ["ap", "ter"], ["rag", "on"], ["for", "ce"], ["r", "at"], ["av", "ed"], ["ru", "pt"], [" cour", "se"], ["ether", "lands"], [" Ze", "aland"], [" Jer", "usalem"], [" remov", "ed"], [" v", "ot"], [" mus", "eum"], [" ref", "lect"], [" upp", "er"], ["b", "ook"], ["t", "es"], [" T", "em"], [" S", "ur"], [" J", "o"], [" un", "iversity"], [" ch", "oice"], [" ext", "rem"], [" crit", "ical"], [" agre", "ement"], ["en", "ing"], ["ire", "ct"], [" Un", "der"], [" auth", "ors"], [" Art", "emis"], [" Alexand", "ra"], [" h", "un"], ["ol", "y"], [" H", "el"], [" D", "en"], [" pl", "anned"], ["ivers", "e"], ["\n \n \n \n ", "\n \n \n \n "], ["7", "8"], [" c", "art"], [" S", "ub"], [" be", "y"], [" P", "akistan"], [" con", "vers"], [" at", "oms"], [" effort", "s"], ["ic", "ed"], [" h", "y"], [" on", "es"], [" Ad", "d"], [" run", "ning"], [" belie", "ve"], [" applic", "ations"], ["i", "h"], [" w", "ays"], [" M", "er"], [" v", "on"], [" inter", "view"], [" inst", "ance"], [" vir", "t"], [" spirit", "ual"], [" complet", "ely"], [" bey", "ond"], [" f", "ixed"], [" un", "iform"], [" poss", "ibly"], ["k", "m"], ["k", "ins"], ["it", "zer"], [" c", "rick"], [" he", "ro"], [" V", "en"], ["form", "ed"], [" new", "sp"], [" col", "lect"], [" prov", "in"], [" min", "utes"], [" conn", "ected"], [" norm", "al"], [" Armen", "ia"], [" C", "am"], [" L", "ater"], [" pol", "y"], [" 196", "7"], [" purp", "ose"], [" le", "arn"], ["ock", "ey"], [" organ", "ization"], [" par", "alle"], [" help", "ed"], [" d", "iplom"], [" h", "ar"], ["ct", "ic"], [" n", "omin"], [" P", "ope"], [" over", "all"], [" ele", "ctions"], ["ann", "ing"], [" veh", "icle"], ["is", "hes"], [" w", "ear"], ["ut", "her"], [" L", "abor"], ["cl", "aim"], [" opp", "osition"], ["c", "ular"], ["\u00fc", "r"], [" c", "ry"], [" J", "ac"], [" Al", "b"], ["man", "n"], [" Mus", "ic"], [" Air", "port"], [" Pers", "ian"], [" fle", "et"], [" Div", "ision"], [" to", "ward"], [" n", "or"], [" 196", "6"], ["g", "ram"], ["s", "uch"], ["ct", "s"], [" P", "ac"], ["os", "m"], [" Ar", "m"], [" 197", "3"], [" tra", "ck"], [" ref", "used"], [" ins", "ide"], [" official", "ly"], [" Ox", "ford"], ["P", "ro"], [" A", "P"], ["st", "one"], [" import", "ance"], [" equ", "ipment"], [" arch", "ae"], [" Car", "ol"], ["ipp", "ed"], [" subsequ", "ently"], [" Bron", "x"], ["e", "es"], ["or", "a"], ["tern", "et"], ["velop", "ment"], ["ama", "ic"], [" Hol", "y"], [" defe", "at"], ["h", "is"], [" N", "ASA"], [" O", "s"], ["ph", "rod"], [" capt", "ured"], ["b", "ur"], ["c", "a"], ["u", "an"], ["v", "ement"], [" M", "el"], [" R", "ock"], [" un", "known"], [" man", "uscript"], [" em", "pire"], [" land", "s"], [" cy", "cl"], ["id", "ge"], [" al", "phab"], [" N", "etherlands"], [" cl", "osed"], [" Ar", "amaic"], [" att", "ention"], [" As", "ian"], [" writ", "e"], [" power", "ful"], [" 202", "3"], [" sugg", "ests"], [" colon", "ies"], [" et", "c"], [" neg", "ative"], [" arr", "ived"], ["an", "th"], [" g", "rew"], [" H", "am"], ["ru", "ce"], [" acc", "ur"], [" dist", "rict"], [" dec", "ades"], [" trib", "es"], [" m", "inister"], [" C", "amp"], ["th", "ur"], [" con", "v"], [" v", "ote"], [" O", "l"], [" art", "icle"], [" cre", "ation"], [" partic", "les"], [" describ", "es"], [" s", "ought"], [" f", "ast"], [" mov", "ing"], [" significant", "ly"], [" determ", "ined"], [" Des", "pite"], [" Bulg", "aria"], [" Chic", "ago"], ["ur", "b"], ["ap", "ed"], [" ro", "ugh"], [" acc", "omp"], [" attempt", "ed"], [" Hol", "ly"], [" subsequ", "ent"], [" ", ";"], ["t", "hen"], ["it", "tle"], [" p", "owers"], [" m", "ind"], [" g", "ained"], [" N", "ic"], [" where", "as"], [" Aust", "rian"], [" princip", "le"], [" Res", "earch"], [" destroy", "ed"], ["i", "ography"], ["ol", "id"], [" ev", "olution"], ["Al", "though"], [" repl", "ace"], ["t", "ra"], [" s", "en"], [" s", "olution"], [" T", "om"], [" C", "E"], ["un", "ct"], [" U", "N"], ["ell", "s"], [" St", "ep"], ["ne", "g"], [" Com", "put"], [" differ", "ence"], ["cul", "es"], [" Aber", "deen"], ["e", "ks"], [" p", "air"], [" A", "z"], [" l", "ingu"], [" ex", "change"], [" r", "ing"], ["ill", "es"], ["ang", "er"], [" Comm", "on"], [" comb", "ination"], [" somet", "hing"], [" clos", "ely"], [" administ", "ration"], [" instit", "utions"], [" s", "ays"], [" D", "i"], ["ap", "ers"], [" pr", "ime"], [" August", "ine"], [" fact", "ors"], [" mathem", "atic"], [" m", "ut"], [" l", "abor"], [" P", "an"], [" comm", "ission"], [" describ", "e"], [" start", "ing"], [" grow", "ing"], [" mag", "azine"], [" Ab", "d"], [" go", "al"], [" kill", "ing"], ["rael", "i"], [" Armen", "ian"], [" Swed", "ish"], [" f", "rag"], [" B", "et"], [" M", "aced"], [" U", "r"], [" Se", "cret"], [" great", "est"], [" vol", "ume"], [" abs", "or"], [" prote", "ction"], [" imm", "ig"], [" Frank", "lin"], ["n", "ce"], ["y", "rian"], [" con", "sequ"], [" F", "er"], ["ab", "ama"], [" exp", "ress"], [" iss", "ued"], [" current", "ly"], [" Alexand", "ria"], [" m", "ixed"], [" B", "ecause"], [" int", "ellig"], ["ok", "a"], [" ins", "pired"], [" tem", "ple"], [" Que", "en"], ["o", "ft"], ["et", "y"], [" M", "ur"], ["ver", "t"], [" ra", "ised"], [" differ", "ences"], [" engine", "er"], [" compet", "ition"], [" veh", "icles"], [" Hung", "arian"], [" cer", "em"], ["9", "5"], ["B", "l"], ["S", "p"], ["it", "age"], [" T", "ime"], ["ul", "ate"], [" pro", "port"], ["ound", "ed"], [" supp", "ly"], [" stud", "ied"], [" hon", "or"], [" c", "le"], [" b", "reed"], [" f", "olk"], [" con", "vent"], [" D", "o"], ["og", "ue"], [" rel", "ative"], [" cap", "acity"], [" recogn", "ized"], [" Kh", "an"], [" T", "ro"], [" opp", "on"], [" Rad", "io"], [" ded", "icated"], [" slight", "ly"], ["g", "et"], [" F", "ilm"], [" V", "iet"], ["ail", "y"], ["ym", "n"], ["7", "6"], ["W", "ith"], ["c", "ar"], [" f", "ish"], [" as", "c"], [" st", "ay"], ["ib", "b"], [" Al", "so"], [" Spe", "ars"], ["S", "ince"], [" sh", "ot"], [" Am", "iga"], [" writ", "ings"], [" 194", "4"], [" territ", "ories"], ["3", "3"], ["B", "rit"], ["at", "i"], ["om", "ew"], [" e", "ag"], ["ib", "l"], [" qu", "ality"], [" serv", "e"], [" gl", "ass"], [" anal", "y"], [" caus", "ing"], [" |", "|"], [" Jes", "us"], ["4", "8"], [" un", "ique"], ["P", "l"], ["e", "en"], ["ion", "e"], [" R", "od"], [" 7", "0"], [" she", "ll"], ["ruct", "ure"], [" Albert", "a"], [" Egypt", "ian"], [" screen", "writer"], ["n", "on"], ["ent", "y"], [" L", "ad"], ["igh", "ter"], [" res", "ources"], [" art", "illery"], [" ", "#"], ["E", "C"], [" C", "P"], [" G", "o"], [" Br", "ussels"], ["=", "\""], ["S", "h"], ["l", "ife"], ["re", "land"], [" p", "ra"], [" he", "re"], [" se", "ek"], [" rel", "ation"], ["cript", "ion"], [" weap", "ons"], [" Aristot", "le"], ["A", "P"], [" S", "ultan"], [" g", "reen"], [" F", "ort"], ["ant", "ic"], [" want", "ed"], ["4", "5"], [" W", "al"], [" In", "c"], [" def", "ense"], [" el", "se"], [" caus", "es"], ["3", "00"], ["st", "ruction"], [" B", "re"], ["ord", "in"], [" Al", "ger"], [" 3", "5"], [" ass", "ault"], [" Phil", "ip"], [" meet", "ing"], ["z", "eg"], ["|", "-"], [" t", "ried"], [" a", "er"], [" L", "M"], [" L", "eg"], ["te", "en"], [" we", "ak"], [" prov", "ed"], ["inist", "ry"], [" leaders", "hip"], ["or", "ter"], ["ol", "ute"], [" M", "at"], [" G", "reen"], [" D", "NA"], [" U", "l"], ["ob", "s"], [" rece", "ive"], [" algor", "ithm"], ["%", ","], [" b", "ow"], [" p", "oll"], [" l", "iqu"], ["du", "c"], [" j", "oint"], [" Aust", "ria"], [" ge", "omet"], [" entire", "ly"], [" gun", "s"], ["C", "om"], ["ir", "med"], ["ast", "s"], [" we", "eks"], [" 196", "5"], ["oph", "ical"], [" opp", "ort"], [" dr", "ive"], ["ify", "ing"], [" say", "ing"], ["i", "y"], [" m", "ill"], [" re", "in"], ["ut", "s"], [" ang", "le"], [" ord", "ers"], ["igen", "ous"], ["ela", "ide"], ["F", "rom"], ["l", "ies"], ["p", "resent"], [" F", "urther"], [" Ch", "arl"], [" rec", "ently"], [" Or", "gan"], [" attempt", "s"], [" achie", "ved"], [" instr", "uments"], [" sequ", "ence"], [" Mex", "ico"], [" A", "phrod"], ["oun", "der"], ["ant", "ry"], [" settle", "ment"], [" phen", "omen"], ["ro", "ad"], [" H", "ow"], [" at", "mosp"], ["ish", "ops"], [" cont", "ent"], [" cont", "ext"], [" Russ", "ell"], [" inh", "abit"], ["it", "ness"], [" an", "x"], [" b", "ranch"], [" ab", "and"], [" med", "ieval"], ["ris", "on"], [" situ", "ation"], [" ", "\n "], ["h", "at"], [" the", "rap"], [" s", "ons"], [" B", "ob"], ["ot", "ion"], [" M", "odern"], ["ian", "a"], [" F", "ollowing"], [" sh", "ape"], ["por", "ation"], [" adv", "antage"], ["r", "in"], ["u", "a"], ["ing", "er"], [" A", "ge"], [" N", "az"], ["ran", "ean"], ["ib", "li"], ["d", "is"], [" I", "reland"], [" R", "h"], [" s", "ister"], ["or", "ing"], [" m", "el"], ["am", "ic"], [" M", "ir"], ["op", "les"], [" rec", "omm"], [" 15", "0"], [" introdu", "ction"], [" view", "s"], [" ke", "pt"], [" Atlant", "ic"], ["b", "ury"], ["i", "ar"], [" c", "at"], [" d", "og"], [" L", "os"], [" sh", "ared"], [" under", "standing"], [" exp", "anded"], [" ext", "ensive"], [" eas", "ily"], ["uis", "ine"], ["in", "th"], [" is", "ol"], ["and", "y"], [" L", "uc"], [" W", "ales"], [" qu", "al"], [" comb", "at"], ["zer", "o"], [" redu", "ce"], [" surround", "ing"], ["i", "ate"], ["ed", "ia"], [" B", "AS"], [" ar", "sen"], [" spec", "ifically"], [" 196", "2"], [" business", "man"], [" scient", "ists"], [" guitar", "ist"], ["uild", "ing"], ["c", "ock"], [" al", "one"], [" he", "at"], [" r", "ival"], ["ip", "h"], ["ov", "en"], [" 196", "4"], [" dep", "art"], [" Comm", "ission"], [" open", "ing"], [" resp", "ond"], [" a", "ctions"], ["ad", "ing"], [" M", "em"], [" I", "V"], ["res", "h"], ["au", "x"], [" Ark", "ansas"], [" Nob", "el"], ["p", "oint"], ["at", "form"], [" c", "rop"], [" re", "ven"], [" comm", "ander"], ["com", "m"], [" dev", "ice"], [" Bah", "\u00e1"], [" Aj", "ax"], [" C", "ard"], [" be", "er"], [" U", "p"], [" pl", "ans"], [" ar", "ts"], [" ph", "ase"], [" Ag", "es"], [" increasing", "ly"], [" Turk", "ish"], [" enem", "y"], ["6", "6"], [" st", "op"], [" J", "im"], [" influ", "ential"], [" phys", "ic"], [" port", "ray"], [" bapt", "ism"], ["r", "ator"], ["he", "im"], ["al", "so"], [" c", "overed"], ["st", "ra"], ["pl", "ace"], ["In", "d"], [" en", "j"], [" we", "bs"], [" second", "ary"], [" manag", "ement"], ["d", "s"], ["is", "f"], [" C", "ro"], ["op", "t"], ["ag", "an"], ["ov", "ina"], [" not", "ably"], ["out", "heast"], [" am", "mon"], [" met", "als"], [" inc", "ome"], [" Wall", "ace"], [" streng", "th"], [" Arg", "ent"], [" Treat", "y"], ["m", "as"], ["al", "ism"], [" B", "av"], ["un", "der"], ["ut", "y"], [" Sp", "ace"], ["rodu", "ction"], [" vis", "ited"], [" sett", "led"], ["A", "ust"], ["re", "c"], [" F", "our"], [" v", "el"], [" ch", "ain"], [" le", "ave"], ["ff", "ic"], [" St", "and"], ["olog", "ies"], ["ob", "e"], [" ent", "er"], [" world", "wide"], [" trad", "itions"], [" ax", "i"], ["G", "erman"], ["k", "o"], ["\u00f3", "n"], [" b", "ridge"], [" d", "ra"], [" th", "rone"], [" N", "ot"], [" use", "ful"], [" fe", "ed"], [" 194", "7"], [" adv", "anced"], [" popular", "ity"], [" conn", "ect"], [" heav", "ily"], [" obt", "ained"], [" compon", "ents"], ["7", "9"], ["d", "a"], [" t", "ank"], [" Se", "ver"], [" Ad", "rian"], ["iter", "ranean"], [" condu", "cted"], [" Belg", "ium"], [" Pac", "ific"], ["f", "all"], [" b", "one"], [" st", "aff"], [" sc", "ale"], ["ug", "by"], [" pract", "ices"], [" sec", "urity"], [" Camb", "ridge"], [" equival", "ent"], ["3", "9"], ["5", "00"], ["a", "it"], [" b", "ass"], [" S", "up"], ["em", "ic"], [" J", "on"], [" un", "ion"], ["oot", "ball"], [" bod", "ies"], [" Christian", "ity"], [" liter", "ary"], [" Prot", "est"], ["zeg", "ovina"], ["g", "om"], ["in", "cluding"], [" w", "ild"], ["ur", "ation"], ["ra", "cted"], [" K", "e"], ["iss", "ance"], [" sub", "stant"], [" pe", "ak"], [" line", "ar"], ["l", "ades"], [" p", "ian"], [" l", "ic"], ["ist", "ed"], [" P", "enn"], [" P", "ublic"], [" 194", "3"], [" adv", "ance"], [" ", "ion"], ["3", "8"], ["i", "enced"], ["ar", "p"], ["ig", "er"], [" st", "ru"], ["eg", "et"], [" po", "em"], [" dam", "age"], [" vill", "age"], ["I", "D"], ["N", "ew"], ["g", "reg"], ["k", "in"], ["an", "cy"], [" p", "urs"], [" h", "us"], [" L", "ake"], [" se", "ems"], [" car", "ry"], [" back", "ground"], [" techn", "ique"], [" lim", "it"], [" Ang", "eles"], [" theore", "m"], ["N", "P"], ["e", "ed"], ["s", "et"], [" t", "aught"], [" s", "ides"], [" w", "alk"], ["el", "er"], ["el", "ve"], ["um", "ber"], [" K", "enn"], [" dep", "ending"], [" ident", "ity"], [" Bulg", "arian"], ["M", "us"], [" b", "rand"], ["le", "vel"], ["un", "k"], [" M", "o"], [" Al", "abama"], [" prote", "in"], [" dial", "ects"], ["5", "4"], [" t", "iss"], [" p", "arliament"], ["el", "lect"], [" W", "ay"], [" sh", "oot"], [" we", "alth"], [" co", "al"], [" bi", "ological"], [" spl", "it"], ["%", "."], ["A", "A"], ["S", "T"], ["a", "very"], [" A", "inu"], ["ad", "ian"], [" ex", "clus"], [" program", "ming"], [" Base", "ball"], [" ", "\u2014"], ["p", "read"], ["in", "er"], ["ar", "c"], [" p", "aren"], [" ch", "ampions"], ["ov", "ers"], [" typ", "ical"], [" rul", "ed"], [" Bal", "tic"], [" s", "omew"], ["ent", "ions"], [" E", "st"], [" O", "ut"], ["ition", "ally"], ["I", "V"], ["w", "ing"], ["he", "tic"], [" p", "erman"], [" S", "at"], [" P", "en"], [" out", "put"], [" pol", "ice"], [" bu", "zz"], [" stud", "ent"], [" occ", "asion"], ["ides", "pread"], [" Her", "zegovina"], [" sk", "in"], [" experim", "ent"], [" manufact", "ur"], [" conver", "ted"], ["8", "8"], ["C", "on"], ["S", "A"], [" A", "al"], ["us", "es"], [" H", "ell"], ["ub", "a"], [" new", "ly"], [" 196", "3"], ["\n \n ", "\n"], [" Pl", "ay"], ["7", "7"], [" d", "ensity"], [" M", "od"], [" P", "C"], [" G", "h"], [" us", "ers"], [" Ar", "thur"], ["ach", "us"], [" polit", "ics"], [" process", "es"], [" fail", "ure"], [" Angl", "o"], ["Wh", "ile"], [" Amaz", "on"], ["e", "qu"], ["r", "ust"], [" s", "ales"], ["or", "age"], [" b", "r"], [" p", "itch"], ["ess", "ion"], [" Med", "iterranean"], [" Ser", "b"], [" pric", "e"], ["5", "5"], [" f", "elt"], [" h", "ockey"], ["st", "ood"], [" rev", "olution"], [" temper", "atures"], [" Dan", "iel"], ["M", "ost"], ["f", "rom"], ["v", "ation"], [" f", "uel"], ["ad", "el"], [" pl", "ate"], [" ch", "osen"], [" An", "at"], [" Christ", "ians"], [" speak", "ers"], ["M", "any"], [" S", "ing"], [" se", "at"], [" att", "end"], [" Ab", "ra"], ["iam", "ond"], [" agricult", "ural"], ["b", "i"], ["d", "own"], [" w", "ave"], [" p", "ure"], ["un", "ction"], [" D", "ar"], [" F", "eder"], ["se", "ud"], [" y", "ield"], [" des", "cent"], ["ict", "ions"], [" sl", "aves"], [" gen", "etic"], [" AM", "D"], [" controll", "ed"], [" t", "un"], [" s", "an"], ["ra", "v"], [" cont", "ained"], [" Y", "an"], [" Mar", "c"], [" val", "id"], [" Pe", "ople"], [" Alban", "ian"], [" paralle", "l"], ["w", "orks"], [" the", "rm"], ["ed", "ition"], ["as", "i"], [" S", "il"], [" M", "icro"], [" N", "ative"], ["oun", "ger"], [" 5", "00"], [" develop", "ing"], [" set", "ting"], [" sign", "al"], [" corre", "ct"], ["3", "1"], ["h", "arm"], ["k", "es"], [" in", "hib"], [" f", "er"], [" f", "iction"], ["et", "ary"], ["ak", "a"], [" te", "ach"], [" bl", "ues"], [" ext", "reme"], [" Cl", "ub"], [" report", "s"], [" exist", "ing"], [" Ear", "ly"], ["II", "I"], [" Democr", "atic"], [" behav", "ior"], [" Step", "hen"], ["A", "f"], [" p", "ict"], ["ra", "q"], [" v", "oice"], ["ren", "ce"], [" ro", "ll"], ["olog", "ists"], [" col", "umn"], [" prov", "iding"], [" head", "qu"], [" space", "craft"], [" field", "s"], [" dev", "ices"], [" hard", "ware"], [" Brazil", "ian"], [" grant", "ed"], ["gom", "ery"], ["3", "4"], ["k", "h"], [" T", "ele"], [" as", "pir"], [" F", "estival"], [" pro", "ced"], ["ri", "pp"], [" 3", "2"], ["uro", "s"], ["ograph", "ical"], [" Athen", "a"], [" applic", "ation"], [" creat", "ing"], [" Aphrod", "ite"], ["3", "2"], ["p", "an"], ["ian", "ts"], [" F", "ound"], ["oc", "ks"], ["ell", "ow"], [" j", "ur"], [" const", "ructed"], [" vis", "it"], [" Fl", "ight"], [" dom", "estic"], [" acqu", "ired"], [" reject", "ed"], ["m", "at"], [" a", "id"], [" s", "we"], ["ic", "i"], ["iv", "als"], [" R", "og"], [" E", "ach"], [" he", "ight"], [" ch", "art"], [" fe", "at"], [" ant", "im"], [" rese", "ar"], [" Ash", "oka"], [" hous", "es"], [" astronaut", "s"], ["9", "8"], ["I", "f"], [" b", "ad"], [" h", "op"], [" T", "imes"], [" B", "erm"], ["ur", "rent"], [" E", "le"], [" O", "ver"], ["ov", "a"], [" def", "end"], ["ty", "m"], ["une", "i"], [" Fore", "st"], ["b", "es"], ["n", "o"], [" s", "now"], [" w", "idespread"], [" c", "as"], [" re", "asons"], ["ra", "cy"], [" D", "r"], ["od", "ay"], [" 196", "1"], [" 194", "2"], [" med", "ium"], [" rev", "ol"], [" abs", "olute"], [" Tur", "key"], ["A", "g"], ["w", "ater"], [" att", "ributed"], ["ae", "us"], [" bro", "wn"], [" success", "ion"], ["ze", "ch"], [" sol", "id"], [" suff", "icient"], [" regard", "ing"], ["u", "ate"], [" c", "a"], [" m", "ort"], [" st", "ations"], [" F", "orm"], [" U", "k"], ["ec", "k"], [" .", ".."], [" oper", "ated"], ["au", "er"], [" fact", "or"], [" Bo", "ys"], [" dial", "ect"], ["en", "cies"], [" p", "aid"], [" A", "ri"], [" S", "qu"], [" St", "reet"], [" ab", "st"], [" fe", "el"], ["rop", "ri"], [" Pro", "ject"], [" own", "ers"], [" Comm", "ittee"], [" str", "ateg"], [" Air", "lines"], ["Un", "ited"], [" agricult", "ure"], [" B", "uff"], ["ad", "o"], ["ce", "ived"], [" is", "ot"], [" O", "f"], [" St", "ar"], [" qu", "ite"], [" Fl", "or"], [" compos", "ition"], [" bir", "ths"], [" ox", "id"], [" Virgin", "ia"], [" alphab", "et"], ["G", "e"], [" H", "indu"], [" pe", "oples"], [" trans", "fer"], ["io", "x"], ["uss", "ian"], [" Ad", "elaide"], [" requ", "ires"], [" Serv", "ice"], [" suc", "ceeded"], [" Nap", "ole"], [" enj", "oy"], ["D", "es"], [" A", "e"], ["ph", "one"], [" list", "ed"], [" god", "s"], [" ste", "el"], [" inhabit", "ants"], ["b", "ell"], ["v", "is"], ["an", "cing"], [" E", "instein"], [" pl", "ane"], [" per", "haps"], ["ris", "is"], [" adv", "oc"], [" sold", "ier"], [" Rep", "ublican"], [" prote", "ins"], [" ult", "imately"], [" f", "air"], [" R", "el"], [" G", "re"], [" E", "ven"], ["ud", "es"], ["ok", "e"], [" sp", "ring"], [" sc", "ore"], [" stat", "ement"], [" port", "ion"], [" town", "s"], [" employ", "ed"], [" rail", "way"], [" Bah\u00e1", "\u02bc"], ["c", "op"], [" s", "oul"], [" c", "uisine"], [" A", "L"], ["am", "ental"], ["un", "s"], [" can", "cer"], [" Le", "e"], [" cap", "able"], [" aff", "ected"], [" Soc", "ial"], [" princip", "al"], [" neg", "ot"], [" Govern", "or"], [" chall", "eng"], [" Sup", "reme"], [" A", "th"], ["om", "ical"], [" M", "att"], [" st", "one"], [" ar", "rest"], [" pre", "par"], [" sub", "m"], [" work", "ers"], ["the", "less"], [" sim", "pl"], [" exper", "ienced"], ["ham", "mad"], [" tradition", "ally"], ["ibb", "ean"], ["j", "amin"], ["y", "les"], ["ter", "y"], [" ex", "ists"], [" ch", "ron"], [" Am", "ong"], [" near", "by"], [" project", "s"], [" domin", "ant"], ["P", "S"], ["b", "a"], ["g", "u"], ["i", "ac"], ["o", "que"], ["r", "ade"], ["t", "ure"], ["v", "ant"], ["ed", "e"], ["ic", "on"], [" G", "al"], [" r", "ich"], [" r", "ates"], ["act", "ive"], [" produ", "cing"], [" organ", "ized"], [" dem", "and"], [" sym", "pt"], ["rel", "ated"], [" Cons", "erv"], [" fif", "th"], ["3", "6"], ["ro", "ph"], ["um", "en"], [" ex", "ternal"], [" U", "s"], [" St", "an"], [" im", "ages"], [" ro", "ute"], [" fin", "ished"], [" go", "ing"], [" miss", "ile"], [" continu", "ous"], [" concent", "ration"], [" wall", "s"], [" extrem", "ely"], [" hus", "band"], ["C", "O"], ["E", "urope"], ["v", "i"], ["w", "an"], ["re", "es"], [" C", "row"], ["ut", "ation"], [" D", "ig"], [" k", "ings"], [" Ar", "ts"], [" ph", "r"], [" 194", "8"], ["ash", "ion"], ["An", "t"], [" organ", "izations"], [" beg", "in"], [" consist", "ing"], ["olit", "an"], [" conclud", "ed"], [" Bang", "lades"], [" Yan", "ke"], [" s", "n"], ["or", "us"], [" f", "estival"], [" A", "ld"], [" d", "ates"], ["et", "ts"], [" for", "ward"], [" G", "erm"], ["ain", "ts"], [" se", "ats"], [" ch", "o"], [" design", "s"], [" success", "or"], [" Alban", "ia"], [" rank", "ed"], ["el", "ess"], [" G", "en"], [" W", "ind"], [" te", "aching"], [" mod", "ified"], [" pop", "ulations"], [" inv", "asion"], [" sever", "e"], [" desc", "end"], [" August", "us"], [" impro", "ved"], [" Sen", "ate"], [" ", "zero"], ["n", "y"], [" st", "ress"], [" G", "DP"], [" J", "ournal"], [" le", "ar"], [" res", "emb"], [" public", "ation"], [" histor", "ians"], [" interp", "re"], ["ibl", "ical"], [" ", "\u00a3"], [" c", "rown"], [" B", "ir"], [" B", "ruce"], [" G", "all"], [" In", "st"], [" En", "g"], [" acc", "ounts"], [" War", "hol"], [" stand", "ards"], [" beg", "ins"], [" suff", "ered"], ["A", "c"], ["er", "g"], ["or", "gan"], [" p", "an"], [" B", "urg"], [" H", "uman"], [" us", "er"], [" pl", "atform"], [" ar", "med"], [" call", "s"], [" co", "ol"], [" Pro", "v"], [" atom", "ic"], [" Liber", "al"], [" reve", "aled"], [" maxim", "um"], [" liqu", "id"], ["is", "er"], [" h", "abit"], [" R", "ay"], [" v", "ess"], [" He", "alth"], ["rib", "ed"], ["ail", "ed"], [" gener", "ation"], ["hem", "ical"], ["ann", "el"], [" Bl", "ue"], [" disc", "overy"], [" mathemat", "ics"], ["neg", "ie"], ["Brit", "ish"], ["f", "in"], ["on", "om"], [" st", "ock"], [" E", "s"], [" L", "ong"], [" su", "p"], ["ard", "en"], [" ar", "ms"], [" pol", "ar"], [" col", "our"], [" De", "velopment"], [" Con", "stitution"], [" Ind", "epend"], [" Bar", "cel"], [" offic", "er"], [" neigh", "bor"], [" thous", "ands"], ["8", "6"], [" s", "le"], ["st", "an"], [" st", "able"], ["pp", "er"], [" O", "ri"], ["ric", "s"], [" under", "stood"], [" 9", "0"], [" vis", "ual"], [" Pol", "and"], [" test", "ing"], [" colon", "ial"], [" maint", "ained"], [" dyn", "asty"], [" conne", "ction"], ["ibli", "ography"], ["A", "ll"], ["S", "c"], [" m", "aster"], [" n", "ations"], [" C", "at"], [" own", "ed"], [" Mu", "hammad"], [" Dist", "rict"], ["r", "\u00e9"], [" f", "ought"], [" p", "et"], [" l", "y"], ["ter", "m"], [" de", "ploy"], [" le", "aves"], ["ik", "a"], ["ind", "ing"], [" Ant", "ar"], [" hold", "ing"], ["7", "2"], ["he", "w"], [" c", "ars"], ["ic", "ism"], [" f", "ear"], ["av", "ia"], ["qu", "es"], ["ran", "ce"], ["hes", "s"], [" For", "ces"], [" prop", "os"], [" anx", "iety"], ["g", "al"], [" f", "reedom"], ["el", "d"], ["ur", "a"], ["ir", "a"], [" com", "ing"], [" res", "idents"], ["yl", "van"], ["199", "0"], [" dr", "iver"], [" Bel", "gian"], [" occup", "ied"], [" Val", "ley"], [" sem", "i"], [" webs", "ite"], ["u", "ing"], ["in", "ian"], ["is", "ers"], [" c", "orn"], [" c", "atal"], [" th", "ink"], ["op", "enh"], [" dis", "m"], [" separ", "ated"], [" maint", "ain"], ["c", "alled"], ["h", "ouse"], [" b", "ul"], [" al", "ter"], ["os", "a"], [" un", "able"], [" pre", "y"], [" fl", "ag"], [" schol", "ar"], ["m", "m"], ["um", "es"], [" G", "er"], [" G", "reg"], ["ab", "eth"], ["ult", "ure"], [" act", "s"], [" Constant", "in"], [" bott", "om"], [" paren", "ts"], ["P", "re"], ["S", "I"], [" B", "i"], [" B", "an"], ["ron", "s"], [" sl", "avery"], [" tre", "ated"], [" Off", "ice"], [" Aud", "i"], ["achus", "etts"], ["6", "8"], ["a", "eda"], ["at", "ically"], [" m", "ilit"], ["cl", "ass"], ["hen", "s"], [" qu", "arter"], [" tra", "ffic"], [" disc", "ip"], [" conf", "irmed"], [" Car", "ibbean"], [" nar", "row"], [" ", "ign"], ["F", "C"], ["w", "right"], [" A", "B"], [" C", "ross"], [" g", "ram"], [" L", "yn"], [" int", "ellect"], [" 195", "8"], [" 193", "9"], [" along", "side"], ["wh", "ile"], ["Ch", "rist"], [" hold", "s"], [" miss", "ions"], [" experim", "ents"], [" circ", "um"], [" Sam", "uel"], [" mathematic", "ian"], ["o", "ys"], ["y", "ah"], ["in", "ction"], ["ri", "ff"], ["ill", "ing"], ["ree", "k"], [" act", "ual"], [" min", "im"], [" Bapt", "ist"], [" vel", "oc"], ["ylvan", "ia"], ["or", "f"], ["st", "ate"], [" B", "eng"], ["im", "s"], [" I", "raq"], ["if", "ul"], [" un", "p"], [" im", "perial"], ["hed", "ral"], [" sp", "aces"], ["amb", "igu"], ["ino", "za"], [" except", "ion"], [" coll", "abor"], [" mole", "cules"], [" descript", "ion"], [" c", "osm"], [" S", "k"], ["ut", "en"], [" M", "es"], [" se", "lected"], [" r", "ivers"], [" col", "ony"], [" stud", "io"], [" Bab", "yl"], [" drug", "s"], [" Dis", "raeli"], [" Mill", "er"], ["A", "pp"], [" I", "ll"], [" v", "ast"], [" v", "eget"], ["res", "nel"], [" part", "ners"], [" rec", "ording"], [" author", "ities"], [" leg", "end"], [" manag", "ed"], [" pri", "est"], [" tw", "ice"], [" Georg", "ia"], ["his", "att"], ["duc", "ation"], [" lear", "ning"], ["k", "ing"], [" c", "inem"], ["ic", "ians"], [" S", "und"], [" C", "zech"], [" on", "to"], [" r", "ugby"], [" can", "on"], [" Mar", "ia"], [" consider", "able"], ["v", "ard"], [" H", "or"], [" F", "ootball"], [" L", "uther"], [" Al", "i"], [" ide", "al"], [" Portug", "al"], [" Mont", "gomery"], [" repe", "ated"], ["7", "4"], ["e", "z"], ["o", "en"], ["an", "o"], [" b", "ran"], ["om", "orph"], ["ol", "ia"], [" F", "le"], [" O", "cean"], [" us", "age"], ["ib", "n"], [" ev", "olved"], [" Pro", "gram"], [" aud", "ience"], [" mathemat", "ical"], [" mor", "al"], [" moment", "um"], [" pil", "ot"], [" aspect", "s"], [" c", "am"], ["ot", "a"], [" The", "atre"], ["ri", "x"], [" N", "et"], [" K", "y"], [" ext", "ent"], ["els", "h"], [" anal", "og"], [" mot", "or"], [" Ben", "jamin"], [" club", "s"], [" condu", "ct"], [" beaut", "y"], [" rough", "ly"], ["5", "8"], ["k", "now"], [" t", "act"], ["op", "l"], ["ag", "h"], [" ar", "c"], ["az", "z"], [" end", "ing"], [" engine", "ering"], [" impro", "ve"], [" Cor", "poration"], ["6", "3"], [" c", "e"], ["ro", "gen"], ["ul", "es"], [" pro", "s"], [" W", "ars"], ["ate", "gy"], [" cons", "on"], [" mod", "ule"], [" str", "ategy"], [" great", "ly"], [" capt", "ure"], [" Pat", "ri"], [" bacter", "ia"], [" Constantin", "ople"], ["l", "ers"], ["o", "es"], [" t", "ennis"], [" the", "ories"], [" p", "ray"], [" T", "w"], ["ain", "e"], [" Ar", "ian"], [" Ab", "u"], [" Book", "s"], [" emer", "ged"], [" vari", "able"], [" alle", "ged"], [" thous", "and"], [" Sever", "al"], ["f", "are"], ["r", "ating"], ["or", "g"], [" c", "ab"], [" to", "m"], [" to", "x"], ["st", "ream"], [" l", "ives"], [" dis", "put"], [" exp", "ression"], [" partic", "le"], [" class", "es"], [" cy", "cle"], [" exec", "utive"], [" dig", "ital"], [" somew", "hat"], ["g", "rad"], [" C", "y"], [" con", "sec"], [" 19", "18"], ["and", "om"], [" cont", "ributed"], [" te", "acher"], [" form", "ing"], [" Br", "unei"], [" Ass", "yrian"], [" che", "ck"], [" offic", "ers"], ["A", "lex"], ["l", "on"], ["s", "ky"], [" b", "right"], ["il", "a"], [" B", "I"], ["am", "an"], ["im", "b"], [" I", "BM"], ["ag", "u"], [" O", "d"], ["ific", "ations"], ["enn", "ess"], [" 195", "9"], [" prog", "ress"], [" arg", "ument"], [" Mass", "achusetts"], [" sus", "p"], [" Abra", "ham"], ["0", "1"], ["G", "eneral"], [" b", "ishops"], [" d", "u"], [" S", "ox"], [" th", "row"], [" C", "as"], [" M", "ilitary"], ["os", "ite"], [" F", "ar"], [" L", "ittle"], [" incre", "ases"], [" ast", "rol"], [" correspond", "ing"], [" philosopher", "s"], ["6", "2"], [" t", "ail"], [" an", "ch"], [" B", "ad"], ["et", "ime"], ["ra", "ge"], [" st", "ring"], [" E", "th"], [" D", "anish"], [" L", "es"], ["ag", "ues"], ["gl", "es"], [" sur", "vey"], [" contin", "ues"], ["conom", "ic"], [" Ben", "ed"], [" enc", "oura"], [" accomp", "an"], [" c", "ore"], [" f", "irm"], [" A", "cc"], ["am", "ily"], [" J", "eff"], [" ro", "om"], [" Ph", "ilos"], [" Comm", "un"], [" William", "s"], [" Swed", "en"], [" Fre", "der"], [" epis", "ode"], [" c", "ards"], [" d", "ie"], [" T", "op"], [" T", "ri"], ["ac", "he"], [" v", "ector"], ["ab", "il"], ["ath", "an"], [" new", "s"], ["ins", "ula"], [" bas", "es"], [" appro", "ved"], [" Test", "ament"], ["e", "ctions"], [" p", "ark"], [" d", "anger"], ["os", "ph"], [" r", "an"], ["du", "st"], [" Al", "g"], [" other", "wise"], [" support", "ing"], [" attack", "ed"], [" Buddh", "ism"], [" celeb", "rated"], [" sac", "rif"], [" inn", "ov"], [" candid", "ate"], [" Protest", "ant"], ["1", "00"], ["W", "e"], ["g", "n"], [" s", "ort"], [" c", "ensus"], [" l", "at"], [" l", "ie"], ["ist", "ical"], [" 195", "6"], [" show", "ing"], [" strong", "ly"], [" arm", "ies"], [" successful", "ly"], [" adapt", "ed"], [" municip", "al"], ["4", "9"], [" 19", "00"], [" Y", "oung"], ["ful", "ly"], [" bro", "ke"], [" person", "nel"], [" histor", "ic"], ["d", "i"], [" A", "OL"], [" d", "ance"], [" G", "ulf"], [" L", "y"], [" not", "hing"], [" Br", "ian"], [" El", "iz"], [" bur", "ied"], [" Viet", "nam"], ["adel", "ph"], ["2", "000"], ["b", "ar"], ["ic", "ks"], [" f", "ru"], [" st", "yles"], ["av", "ig"], [" form", "at"], [" ph", "on"], [" Br", "and"], [" character", "istics"], [" Ach", "illes"], [" rat", "io"], [" paint", "ings"], [" sympt", "oms"], [" f", "ranch"], [" A", "wards"], [" T", "re"], [" g", "ain"], [" P", "ost"], ["os", "ure"], ["ens", "es"], [" form", "ula"], [" 3", "8"], [" am", "ino"], [" 192", "9"], [" foc", "used"], [" algebra", "ic"], [" Rec", "ords"], [" pie", "ces"], ["'", "."], ["R", "el"], ["g", "est"], ["s", "ylvania"], ["ith", "ms"], [" st", "re"], ["oc", "racy"], [" ar", "ray"], ["up", "unct"], ["ie", "ge"], ["cre", "te"], [" sur", "ren"], [" mov", "ie"], [" And", "alus"], [" Be", "ach"], [" sol", "ar"], [" need", "s"], [" official", "s"], [" ey", "es"], ["iot", "ics"], [" provin", "ces"], ["bur", "gh"], [" Berm", "uda"], ["T", "o"], ["b", "illion"], ["g", "ment"], [" n", "aval"], ["un", "c"], [" 19", "14"], [" G", "ame"], [" ex", "erc"], ["ate", "ur"], ["ak", "ers"], ["ect", "ive"], [" sc", "ene"], [" mov", "ements"], ["cy", "cl"], [" 195", "2"], [" deb", "ate"], [" rapid", "ly"], ["9", "6"], [" in", "ner"], [" m", "ap"], ["em", "en"], [" N", "orm"], [" In", "ternet"], [" tra", "in"], [" mon", "aster"], [" crit", "ics"], [" tw", "enty"], [" Bern", "ard"], [" interpret", "ation"], [" Secret", "ary"], ["w", "estern"], [" t", "im"], ["is", "emit"], [" (", ","], [" M", "arg"], [" H", "on"], [" W", "ood"], ["res", "ents"], ["ant", "ly"], [" se", "lect"], [" K", "abul"], [" An", "th"], [" Am", "b"], [" 195", "7"], [" tit", "les"], [" determ", "ine"], [" norm", "ally"], [" environment", "al"], [" hun", "ting"], [" feat", "uring"], [" ", "\u0100"], ["4", "4"], ["a", "fter"], ["t", "ers"], [" f", "oss"], ["ab", "ilities"], ["ish", "ment"], [" Ch", "ief"], [" An", "cient"], [" reg", "ist"], [" 194", "6"], ["clus", "ion"], [" bor", "on"], [" compon", "ent"], ["l", "arg"], ["u", "z"], [" B", "ow"], [" An", "ne"], [" ro", "ot"], ["uch", "y"], [" Comm", "unity"], [" class", "ified"], [" dest", "ruction"], [" z", "one"], [" Hung", "ary"], [" Ter", "rit"], [" newsp", "aper"], [" BAS", "IC"], ["\"", ";"], ["%", ")"], ["f", "ort"], [" f", "ashion"], [" B", "od"], [" The", "od"], [" H", "op"], ["  ", " "], [" play", "wright"], [" act", "ing"], [" pol", "ic"], [" ap", "ost"], [" 195", "5"], [" effect", "ively"], [" Ass", "embly"], [" sil", "ver"], [" saf", "ety"], [" synt", "hesis"], [" charg", "ed"], [" cry", "st"], ["f", "ess"], [" S", "ong"], [" B", "NP"], ["ass", "i"], [" y", "ounger"], [" 7", "5"], [" sl", "ave"], [" 192", "6"], [" er", "ror"], [" invol", "ves"], ["war", "zen"], [" Penn", "sylvania"], ["Q", "aeda"], ["T", "V"], ["it", "ual"], [" B", "all"], [" C", "he"], [" D", "am"], [" or", "b"], [" W", "omen"], [" se", "lection"], ["ap", "es"], [" 4", "5"], ["ather", "s"], [" design", "ated"], [" 192", "8"], ["ris", "ing"], [" indic", "ate"], [" prep", "ared"], ["3", "7"], ["b", "n"], ["ic", "ular"], [" pre", "ced"], [" lead", "s"], [" Car", "negie"], [" good", "s"], [" reb", "ell"], [" ammon", "ia"], [" Napole", "on"], ["C", "an"], ["R", "oman"], ["o", "ic"], ["s", "k"], [" in", "put"], [" m", "ic"], [" V", "i"], [" dis", "k"], [" ro", "b"], [" Y", "ou"], [" mod", "e"], [" At", "t"], [" New", "ton"], [" miss", "iles"], ["itch", "cock"], [" administ", "rative"], ["d", "on"], [" c", "ited"], [" F", "ree"], [" F", "ederal"], [" L", "ew"], ["ron", "ze"], [" sc", "hem"], [" dep", "icted"], [" 194", "1"], [" techn", "ical"], [" rad", "iation"], [" ident", "ify"], [" rul", "er"], [" invol", "ving"], [" viol", "ence"], [" Op", "en"], [" Germ", "ans"], ["E", "R"], ["I", "A"], [" m", "ist"], [" A", "G"], [" d", "aily"], [" h", "all"], ["iv", "ation"], [" them", "e"], [" rep", "resents"], [" 194", "9"], [" term", "in"], [" educ", "ator"], [" Wil", "son"], [" Barcel", "ona"], [" ", "ibn"], ["9", "2"], ["9", "4"], ["F", "rench"], ["j", "a"], ["u", "ation"], ["al", "ty"], [" c", "old"], ["am", "ber"], [" F", "resnel"], ["ag", "ement"], ["rop", "olitan"], [" aff", "ect"], [" treat", "y"], [" tri", "al"], [" adop", "t"], [" alk", "ali"], [" aband", "oned"], [" veloc", "ity"], ["l", "ation"], ["n", "anda"], ["o", "oth"], ["s", "im"], ["x", "ual"], ["y", "st"], [" in", "se"], [" B", "alk"], [" M", "ic"], ["ra", "c"], [" G", "oth"], ["our", "ce"], [" comp", "ound"], [" cl", "in"], [" expl", "an"], [" low", "est"], [" associ", "ation"], [" Phil", "ipp"], ["spe", "aking"], [" withd", "raw"], ["S", "ch"], ["at", "us"], ["as", "o"], [" A", "qu"], ["am", "ing"], [" st", "orage"], [" 19", "19"], [" Th", "ree"], [" ra", "cing"], [" dec", "or"], [" Christ", "ie"], ["vent", "h"], [" la", "ure"], ["het", "amine"], [" categ", "ory"], ["adelph", "ia"], ["in", "ations"], [" f", "ram"], [" f", "ounder"], [" to", "urn"], [" h", "al"], [" g", "ot"], ["ip", "el"], [" ind", "igenous"], [" inv", "ented"], ["200", "7"], [" cour", "ts"], [" tit", "led"], [" meas", "ured"], [" fac", "ilities"], [" cop", "per"], [" compar", "ison"], [" therap", "y"], [" s", "ample"], ["is", "d"], [" d", "ry"], [" e", "gg"], [" n", "ick"], [" C", "oll"], [" F", "ield"], [" ag", "o"], [" 6", "4"], [" stat", "istics"], ["As", "s"], [" ver", "b"], [" stra", "ight"], [" Flor", "ida"], ["C", "omp"], ["i", "able"], ["m", "inist"], ["r", "un"], ["r", "ame"], [" w", "ars"], ["us", "hed"], ["im", "a"], [" M", "it"], [" W", "elsh"], [" pre", "f"], [" so", "il"], [" var", "ieties"], ["rid", "ges"], [" arg", "ues"], [" fund", "amental"], [" assum", "ed"], ["Europe", "an"], ["ambigu", "ation"], [" bran", "ches"], [" c", "ra"], [" an", "s"], [" f", "resh"], [" A", "ff"], ["ou", "st"], [" th", "ir"], ["ur", "d"], [" P", "ier"], ["ay", "a"], ["av", "a"], ["rib", "ute"], [" inf", "antry"], ["An", "other"], [" Ro", "ad"], [" colle", "ge"], [" arm", "our"], [" quant", "um"], [" cust", "om"], [" Banglades", "h"], ["O", "r"], ["R", "I"], ["s", "al"], [" m", "ir"], [" h", "ospital"], [" H", "a"], [" v", "oc"], [" J", "an"], [" In", "f"], ["so", "ft"], [" ab", "b"], [" ag", "ents"], [" German", "ic"], [" Sc", "iences"], [" dec", "ade"], [" 192", "5"], [" expl", "o"], [" opp", "osite"], [" pred", "omin"], [" sum", "m"], [" mount", "ains"], ["rast", "ructure"], [" doc", "uments"], [" Alf", "onso"], [" detail", "s"], [" Found", "ation"], ["c", "ome"], [" c", "risis"], [" wh", "y"], [" E", "arl"], [" fl", "at"], [" ap", "art"], [" art", "icles"], [" Sp", "ider"], [" run", "ner"], ["de", "f"], [" Sw", "iss"], [" decl", "ine"], [" Mex", "ican"], [" communic", "ation"], [" Rom", "ans"], [" hypot", "hesis"], ["er", "ted"], [" d", "iverse"], [" T", "it"], ["ial", "s"], [" ab", "ol"], [" wor", "ship"], [" En", "d"], ["uth", "or"], [" pat", "ients"], [" Bo", "ard"], [" ren", "amed"], [" surv", "ived"], [" grad", "ually"], [" Vict", "oria"], ["b", "ut"], ["b", "ishop"], ["v", "ements"], ["w", "orth"], [" B", "alt"], [" ex", "pect"], ["ang", "el"], ["over", "ty"], [" att", "ract"], [" so", "le"], ["198", "0"], [" pract", "ical"], [" Ang", "ola"], [" Just", "ice"], [" convent", "ional"], [" headqu", "arters"], [" Rog", "er"], [" Bened", "ict"], [" Eliz", "abeth"], ["i", "otic"], [" f", "ly"], [" R", "av"], [" G", "ames"], ["igh", "th"], ["ap", "se"], ["amp", "ion"], ["eg", "ger"], [" orig", "ins"], [" dep", "os"], [" cult", "ures"], [" short", "ly"], [" ang", "ular"], [" domin", "ated"], [" Buff", "alo"], ["upunct", "ure"], ["warzen", "egger"], ["A", "N"], ["l", "an"], ["in", "ental"], ["ro", "up"], [" S", "el"], [" l", "ies"], ["ir", "l"], [" al", "pha"], [" H", "y"], [" G", "ar"], ["oc", "c"], ["pp", "ing"], [" V", "an"], [" add", "ing"], [" Sp", "inoza"], [" op", "in"], ["imens", "ional"], [" doct", "rine"], [" dro", "pped"], [" atmosp", "here"], [" perman", "ent"], ["D", "SM"], ["t", "ar"], ["um", "s"], ["ab", "led"], [" ex", "am"], [" r", "h"], ["ap", "ital"], ["orm", "on"], [" ac", "know"], [" expl", "ained"], [" del", "iver"], [" sat", "isf"], [" Gold", "en"], [" Wal", "ter"], ["5", "2"], ["f", "oot"], [" t", "or"], [" s", "ke"], [" b", "oot"], [" re", "aching"], ["am", "ics"], ["ur", "ance"], ["ad", "os"], ["ers", "ion"], [" P", "ubl"], ["ow", "ered"], ["od", "ies"], [" su", "st"], ["ud", "get"], ["ub", "le"], ["ph", "al"], ["ik", "h"], [" ne", "uro"], [" att", "ended"], [" found", "ing"], [" ob", "l"], [" do", "ing"], [" writ", "es"], [" Ap", "ost"], [" Roman", "ian"], [" class", "ification"], [" concern", "s"], [" Muslim", "s"], ["dis", "ambiguation"], ["6", "1"], ["C", "S"], ["g", "ers"], [" t", "ask"], ["en", "burg"], [" S", "on"], [" (", ")."], [" F", "ried"], [" J", "r"], ["our", "se"], [" man", "ner"], [" 3", "00"], [" app", "ropri"], [" Is", "a"], [" 193", "3"], [" refer", "ences"], [" character", "ized"], [" redu", "ction"], [" Ze", "us"], [" pie", "ce"], [" Yanke", "es"], [" surren", "der"], [" \u0100", "nanda"], ["9", "7"], ["A", "F"], ["t", "own"], [" f", "ans"], [" A", "re"], [" F", "ame"], [" 3", "4"], [" am", "p"], [" att", "ached"], [" Se", "c"], [" tra", "v"], [" organ", "isms"], [" redu", "cing"], [" Co", "ast"], [" super", "ior"], [" achie", "ve"], [" winn", "ers"], [" crick", "eter"], ["claim", "ed"], [" Bah\u00e1\u02bc", "\u00ed"], [" h", "air"], [" C", "app"], ["ad", "er"], [" L", "ove"], [" J", "ones"], ["ran", "e"], ["ph", "ib"], [" V", "er"], ["own", "ed"], ["ric", "ts"], [" produ", "ces"], [" over", "l"], [" ass", "igned"], [" var", "iant"], [" serv", "ing"], [" ed", "itor"], [" period", "s"], [" rest", "rict"], [" phys", "ics"], [" el", "imin"], ["isc", "op"], [" recogn", "ition"], [" frequ", "ency"], [" surv", "iving"], [" critic", "ism"], [" purp", "oses"], [" hor", "se"], [" arsen", "ic"], [" physic", "ist"], ["tym", "ology"], [" Crow", "ley"], [" intellect", "ual"], ["o", "a"], [" s", "ulf"], ["ar", "hus"], [" b", "ones"], ["ro", "c"], [" m", "il"], [" to", "ols"], [" re", "actions"], [" M", "inistry"], [" g", "ar"], ["um", "er"], ["ant", "e"], [" comp", "at"], ["ap", "pe"], [" Al", "an"], ["ific", "ial"], [" inf", "in"], [" Gree", "ks"], [" view", "ed"], [" pain", "ting"], [" nov", "els"], [" cop", "y"], [" link", "ed"], ["or", "al"], ["el", "ian"], [" S", "a"], ["iv", "ia"], [" W", "ater"], [" pl", "ot"], [" ad", "vert"], [" 192", "1"], [" activ", "ist"], [" observ", "ations"], [" del", "iv"], [" Phil", "adelphia"], [" establish", "ment"], [" incorpor", "ated"], [" intellig", "ence"], [" resear", "chers"], [" b", "ill"], ["ic", "ation"], [" p", "ione"], [" T", "our"], [" l", "osing"], [" C", "re"], [" g", "ene"], [" F", "al"], [" L", "u"], ["ri", "ka"], [" St", "at"], [" sub", "t"], [" ass", "ass"], [" phys", "ician"], [" decl", "ined"], [" Pal", "ace"], [" Confeder", "ate"], ["7", "1"], ["v", "est"], ["en", "ge"], [" s", "ter"], ["es", "h"], ["it", "ations"], [" c", "ave"], [" p", "ig"], [" n", "om"], [" M", "r"], [" 19", "10"], [" K", "ent"], [" sh", "all"], [" pre", "ferred"], ["ict", "ional"], [" 6", "5"], [" loc", "ations"], [" Ad", "am"], ["ee", "k"], [" vis", "ible"], ["aur", "i"], [" mult", "i"], [" meas", "ures"], ["aval", "ry"], [" Sim", "ilar"], [" unc", "ertain"], [" Francis", "co"], [" Comput", "er"], [" ", "ille"], ["S", "O"], ["b", "us"], [" B", "us"], [" C", "orn"], [" M", "ot"], [" M", "ike"], [" P", "ass"], ["ag", "en"], [" en", "h"], [" acc", "eler"], [" fl", "ed"], [" Joh", "ann"], ["200", "5"], [" former", "ly"], [" mass", "ive"], [" esc", "ape"], [" Stand", "ard"], [" BI", "OS"], ["7", "3"], ["H", "istor"], ["T", "rans"], ["e", "ast"], [" t", "anks"], [" w", "ing"], ["ic", "ide"], ["as", "y"], [" m", "ales"], [" S", "o"], [" C", "el"], [" st", "orm"], ["ath", "s"], ["ins", "on"], [" 192", "2"], [" expl", "ain"], [" process", "ing"], [" Bel", "ize"], [" princip", "les"], [" stri", "ke"], [" conqu", "est"], [" Stud", "ies"], [" Techn", "ology"], ["in", "y"], [" o", "ri"], ["it", "udes"], [" b", "an"], ["se", "y"], [" Al", "pha"], [" form", "ally"], [" oper", "a"], [" cal", "c"], ["go", "ing"], [" Champions", "hip"], [" convers", "ion"], [" accompan", "ied"], ["g", "ement"], ["t", "i"], ["z", "ym"], [" m", "orph"], [" A", "A"], [" d", "ating"], [" B", "ach"], [" C", "atal"], ["im", "ore"], [" G", "riff"], [" pro", "of"], [" pro", "hib"], [" O", "b"], [" per", "fect"], [" ro", "ots"], [" ne", "ither"], [" supp", "osed"], [" fe", "et"], [" 193", "8"], [" histor", "ically"], [" 192", "3"], [" cop", "ies"], [" cred", "ited"], ["U", "s"], [" a", "est"], ["ed", "o"], [" b", "rew"], [" A", "N"], ["od", "ium"], [" F", "a"], [" N", "FL"], ["iz", "on"], [" am", "ounts"], ["here", "d"], [" trans", "ition"], [" we", "ather"], ["enn", "y"], [" Or", "ig"], [" organ", "ic"], ["ris", "es"], [" stat", "ue"], ["Ad", "rian"], [" coast", "al"], [" rare", "ly"], ["enness", "ee"], ["k", "ina"], [" B", "art"], ["ra", "ine"], [" r", "andom"], [" trans", "ferred"], [" ret", "ired"], [" 195", "3"], [" 193", "7"], [" chem", "istry"], [" lab", "el"], [" Def", "ense"], [" nob", "le"], ["uros", "awa"], [" jur", "isd"], ["uten", "ant"], ["M", "odern"], ["v", "ious"], ["es", "p"], [" w", "rest"], [" in", "form"], [" f", "ine"], ["if", "ies"], [" part", "ly"], [" mod", "er"], [" tr", "uth"], [" exp", "edition"], ["ros", "by"], [" end", "s"], [" On", "ly"], [" Br", "ig"], ["200", "8"], [" 192", "7"], ["oss", "ible"], [" origin", "ated"], [" exist", "ed"], [" philos", "ophical"], [" tw", "elve"], [" univers", "al"], [" house", "hold"], [" pers", "ons"], ["ici", "ency"], [" Freder", "ick"], ["E", "T"], [" b", "ronze"], [" B", "on"], ["ad", "or"], ["os", "l"], ["av", "ian"], [" y", "outh"], [" dis", "pl"], [" ag", "ent"], [" Ag", "ripp"], [" rest", "aur"], [" anim", "ation"], [" my", "st"], [" enc", "ounter"], [" forest", "s"], [" pit", "cher"], [" Feder", "ation"], ["N", "e"], ["e", "ing"], [" o", "d"], [" A", "ur"], [" S", "uch"], [" th", "ick"], [" M", "ormon"], [" Ch", "ild"], [" Ar", "c"], [" inter", "face"], [" De", "v"], [" consist", "ed"], [" univers", "ities"], [" brother", "s"], [" deg", "rees"], [" Bas", "que"], [" Ca", "es"], ["oper", "ation"], [" Kore", "an"], ["5", "9"], ["H", "is"], ["a", "ug"], [" A", "ster"], [" d", "iet"], [" n", "ort"], [" H", "itchcock"], [" N", "ever"], [" sign", "s"], [" expl", "icit"], [" prom", "oted"], [" Im", "perial"], [" aud", "io"], [" Bah", "am"], [" algor", "ithms"], [" preserv", "ed"], [" rot", "ation"], [" graph", "ics"], [" prison", "ers"], ["5", "3"], ["5", "6"], [" t", "al"], [" l", "aid"], [" n", "erv"], ["un", "a"], ["ist", "ant"], [" H", "ot"], [" D", "et"], [" se", "asons"], [" un", "us"], [" rem", "ark"], [" air", "line"], [" appe", "al"], [" 195", "4"], [" poss", "ibility"], [" host", "ed"], [" Pe", "ace"], ["ocr", "atic"], [" vari", "ations"], [" Carol", "ina"], [" Organ", "ization"], ["l", "aw"], ["\u00e9", "e"], [" t", "ons"], [" m", "amm"], [" B", "a"], ["ot", "ing"], [" M", "en"], [" M", "ov"], [" st", "im"], ["ag", "er"], ["ater", "n"], [" Th", "ird"], [" j", "ump"], [" inter", "ior"], [" off", "ers"], [" And", "re"], [" Pl", "an"], ["197", "0"], [" prot", "ected"], [" phr", "ase"], ["openh", "auer"], ["cycl", "op"], ["p", "ass"], [" w", "aters"], [" f", "ert"], ["as", "ure"], [" S", "ax"], [" B", "u"], [" P", "rop"], [" v", "ocal"], [" W", "eb"], [" ch", "lor"], [" im", "ag"], [" comm", "em"], [" sur", "f"], [" serv", "es"], [" ent", "ry"], ["rop", "ical"], [" Ad", "a"], [" ref", "uge"], [" mat", "ches"], [" 192", "4"], [" div", "isions"], ["199", "9"], [" mer", "ch"], [" Arch", "ae"], [" Count", "ry"], ["ij", "ack"], ["ena", "issance"], [" Tem", "ple"], ["4", "2"], [" a", "ware"], ["al", "y"], [" c", "ogn"], ["ing", "ly"], [" re", "ar"], [" pro", "ceed"], [" v", "ent"], [" it", "ems"], [" comm", "itted"], ["ys", "ics"], [" under", "stand"], ["ll", "ium"], ["ock", "ed"], [" exp", "and"], [" On", "line"], [" Br", "idge"], ["ym", "ph"], [" Comm", "and"], ["200", "1"], [" manufact", "uring"], [" weap", "on"], [" ey", "e"], [" bal", "ance"], [" Alger", "ia"], [" geomet", "ry"], [" dra", "wn"], ["%", "),"], ["g", "ence"], ["t", "rans"], [" re", "cept"], [" P", "op"], [" st", "opp"], [" R", "OM"], [" G", "rant"], [" E", "ll"], ["rom", "e"], [" J", "oe"], [" comp", "l"], [" ab", "bre"], [" V", "is"], ["iss", "ions"], [" act", "ors"], ["ins", "berg"], ["uss", "ia"], [" car", "rying"], [" oper", "ate"], [" del", "ay"], [" tour", "ism"], [" subst", "ance"], [" learn", "ed"], [" crop", "s"], [" polic", "ies"], [" ", "\u00c6"], [" ", "\u00d7"], ["L", "ist"], ["e", "ign"], ["n", "i"], ["r", "ary"], ["ed", "es"], [" m", "outh"], [" T", "own"], [" st", "rict"], [" L", "ov"], [" K", "en"], ["ide", "press"], [" ag", "g"], [" Be", "fore"], [" conc", "ert"], [" bip", "olar"], [" opport", "unity"], [" Bav", "aria"], ["z", "ona"], [" d", "ual"], [" R", "AM"], [" W", "ork"], [" r", "ural"], [" St", "adium"], [" Th", "ough"], [" col", "ors"], [" elect", "rical"], [" stand", "ing"], [" music", "ians"], [" inc", "ident"], [" ver", "te"], [" electron", "s"], [" Bak", "u"], [" pric", "es"], ["iro", "t"], ["i", "at"], ["i", "ations"], ["n", "es"], [" p", "overty"], [" S", "T"], [" H", "ou"], [" F", "aso"], [" r", "ub"], ["20", "10"], [" var", "iation"], [" rep", "utation"], [" ident", "ical"], [" percent", "age"], [" antib", "iotics"], ["6", "9"], ["H", "ung"], ["l", "og"], ["u", "ccess"], [" t", "ests"], ["on", "omy"], [" c", "ook"], ["ic", "ts"], [" d", "rop"], [" re", "ality"], [" B", "att"], [" B", "DSM"], ["un", "ch"], ["ot", "al"], [" r", "itual"], [" O", "t"], [" ch", "apter"], [" sh", "ut"], [" var", "ies"], [" const", "itu"], [" represent", "ing"], [" cr", "ime"], [" abs", "ence"], [" clos", "er"], ["bro", "se"], [" Balt", "imore"], ["d", "ie"], ["n", "ost"], ["u", "v"], ["u", "per"], ["re", "hens"], [" s", "ell"], [" re", "ct"], [" l", "ibrary"], [" st", "ret"], [" v", "ac"], [" ar", "row"], [" Th", "rough"], [" acc", "ident"], ["apt", "ers"], [" Cent", "re"], [" sw", "im"], [" poet", "ry"], [" cost", "s"], [" lay", "er"], [" sat", "ell"], [" Er", "n"], [" Elect", "ron"], [" deliv", "ered"], ["c", "ers"], [" c", "od"], [" b", "at"], [" f", "aced"], [" m", "art"], [" T", "ennessee"], ["ad", "ic"], [" P", "ash"], [" R", "am"], [" E", "uro"], [" D", "ue"], ["ag", "ram"], [" he", "ard"], [" K", "arl"], ["19", "00"], [" le", "ct"], [" Con", "c"], [" design", "er"], [" Ph", "ill"], [" gu", "ard"], [" Ste", "ve"], [" symbol", "s"], [" Lew", "is"], ["B", "ibliography"], ["L", "eg"], ["c", "ribed"], ["w", "ick"], [" t", "ur"], [" b", "anj"], ["our", "ney"], ["we", "alth"], [" cons", "c"], ["18", "0"], [" Con", "vention"], ["inist", "ers"], [" Christ", "mas"], [" 193", "6"], ["che", "ll"], [" Ex", "p"], [" complex", "ity"], [" den", "omin"], [" Mc", "C"], [" exec", "uted"], [" mach", "ines"], ["r", "ors"], [" w", "a"], [" c", "avalry"], [" m", "as"], [" d", "oll"], ["om", "pl"], ["ol", "as"], [" C", "O"], [" (", ";"], [" M", "id"], [" P", "ot"], [" st", "ating"], [" st", "ream"], [" H", "ind"], [" v", "ision"], ["ant", "a"], [" ch", "ips"], [" not", "e"], ["iz", "z"], ["ivers", "ary"], [" found", "ation"], [" pass", "ing"], [" Bra", "ves"], [" consum", "ption"], [" cerem", "ony"], ["4", "3"], ["b", "ach"], ["p", "ine"], [" t", "ren"], ["ic", "as"], [" H", "it"], [" 19", "17"], [" R", "em"], [" F", "ull"], [" gener", "ated"], ["ctor", "al"], [" Bro", "ok"], [" neigh", "bour"], [" Mount", "ains"], [" contribut", "ions"], [" b", "ik"], ["ol", "i"], [" R", "and"], [" R", "ights"], [" G", "ood"], [" Ar", "sen"], [" ro", "utes"], [" sc", "ored"], [" act", "in"], [" publ", "isher"], [" co", "ordin"], [" dec", "ay"], [" 193", "4"], [" bod", "hisatt"], [" mark", "ets"], [" represent", "ation"], [" camp", "us"], [" Add", "itionally"], ["9", "3"], ["h", "ire"], ["l", "ong"], ["in", "ch"], ["ar", "ant"], [" b", "es"], [" b", "anks"], [" S", "S"], [" n", "oun"], ["ch", "ang"], ["ot", "ton"], ["th", "at"], [" R", "un"], [" E", "ston"], ["od", "yn"], [" J", "os"], ["ult", "ane"], [" Ind", "ones"], [" Br", "ad"], ["199", "2"], [" concept", "s"], ["ithm", "etic"], [" Olymp", "ic"], [" Cro", "at"], [" axi", "om"], [" tiss", "ue"], ["9", "1"], ["F", "ran"], ["it", "ic"], [" p", "ick"], ["le", "ts"], [" M", "ars"], [" con", "j"], [" W", "ell"], ["ak", "ed"], ["so", "le"], ["oh", "n"], ["the", "tic"], [" Sh", "ow"], [" Ph", "oen"], ["ery", "llium"], [" requ", "est"], [" Bar", "oque"], [" expl", "os"], [" album", "s"], [" behav", "i"], [" vow", "el"], [" passeng", "er"], [" Dig", "ital"], ["8", "3"], ["S", "ources"], ["g", "am"], [" t", "ens"], ["ct", "u"], [" n", "ut"], ["ak", "s"], ["ru", "ctions"], [" Un", "ivers"], [" 3", "3"], ["20", "12"], [" acc", "used"], [" acc", "ompl"], ["ec", "ess"], [" exp", "ensive"], [" ed", "ge"], [" 193", "1"], [" Col", "on"], [" Har", "vard"], [" invest", "ment"], [" instit", "ution"], [" Fore", "ign"], [" benef", "it"], [" demonst", "rated"], [" substant", "ial"], [" Ky", "i"], ["B", "ah"], ["n", "s"], [" s", "ail"], ["it", "arian"], ["ro", "ke"], [" n", "avig"], ["ers", "e"], [" P", "ower"], [" D", "ie"], ["are", "t"], [" part", "ner"], [" en", "zym"], ["vel", "ation"], ["ener", "ation"], [" dist", "inction"], [" div", "ine"], ["13", "0"], ["sc", "ale"], [" electron", "ic"], [" pattern", "s"], [" proport", "ion"], [" ", "*"], ["8", "5"], ["z", "eb"], ["he", "astern"], [" s", "alt"], ["it", "led"], ["or", "ian"], [" M", "oh"], [" com", "ic"], ["if", "ican"], [" su", "it"], ["ell", "ation"], [" K", "urosawa"], ["over", "eign"], [" sy", "ll"], [" po", "ison"], ["200", "6"], ["iven", "ess"], [" conf", "ig"], [" pass", "age"], [" Arab", "s"], [" gen", "us"], [" colle", "cted"], [" critic", "ized"], [" regular", "ly"], [" gra", "v"], [" bond", "s"], [" AI", "M"], [" nit", "rogen"], [" Class", "ical"], [" Ae", "ge"], [" Inst", "ead"], [" Eng", "ine"], ["ifican", "ce"], ["B", "ar"], ["d", "imensional"], ["v", "as"], [" f", "ired"], [" h", "uge"], ["ig", "ious"], [" I", "bn"], [" F", "air"], [" ex", "cess"], [" y", "our"], [" met", "ab"], [" any", "thing"], [" disc", "over"], ["199", "7"], [" prom", "ote"], [" sol", "utions"], [" ball", "s"], [" ill", "ness"], [" indic", "ated"], [" Mass", "oud"], [" mix", "ture"], ["J", "ew"], ["g", "a"], ["p", "rodu"], [" b", "udget"], [" T", "oday"], ["iv", "ated"], [" The", "n"], [" st", "ored"], [" L", "i"], [" 4", "00"], ["199", "6"], ["gen", "cy"], [" six", "th"], [" relations", "hips"], [" Su", "u"], [" Atl", "as"], [" plan", "et"], [" concern", "ed"], [" controvers", "ial"], [" Lab", "our"], [" Bet", "ween"], ["s", "m"], ["at", "ics"], [" c", "attle"], [" M", "arsh"], ["em", "an"], [" 19", "12"], [" un", "f"], [" ch", "ose"], [" St", "ock"], ["ie", "ce"], ["ric", "ks"], [" ret", "ained"], [" ext", "ens"], [" war", "fare"], [" eng", "aged"], [" rad", "ar"], [" members", "hip"], [" dom", "ain"], [" s", "ed"], [" s", "ight"], [" f", "est"], [" h", "ijack"], [" S", "pecial"], ["us", "ch"], [" H", "ay"], [" 19", "16"], ["av", "el"], [" W", "rit"], [" O", "range"], [" ch", "air"], [" rec", "ip"], [" Sp", "irit"], ["An", "cient"], ["200", "4"], [" return", "ing"], [" function", "al"], [" experim", "ental"], [" log", "ic"], [" ", "),"], [" s", "and"], [" 19", "13"], [" R", "enaissance"], [" D", "omin"], [" he", "nce"], ["so", "on"], ["to", "le"], [" 193", "2"], [" bus", "es"], ["sc", "ape"], [" Cor", "ps"], [" ess", "ay"], [" candid", "ates"], [" sen", "ior"], ["c", "en"], ["l", "ik"], [" f", "aster"], [" h", "its"], [" S", "and"], [" st", "reet"], ["ag", "a"], [" pl", "us"], [" comp", "il"], [" ag", "ree"], [" ass", "istance"], [" inv", "ent"], [" inf", "rastructure"], [" And", "or"], ["idd", "en"], [" 190", "8"], [" clear", "ly"], [" ens", "ure"], ["p", "et"], ["an", "ia"], [" f", "il"], [" m", "ental"], [" B", "ast"], [" B", "eg"], [" M", "ax"], ["ra", "it"], [" G", "ord"], [" D", "ur"], [" F", "ront"], [" ex", "port"], [" sh", "if"], [" V", "ar"], [" ear", "ned"], [" New", "s"], [" ext", "ension"], [" ant", "isemit"], [" contin", "ent"], ["200", "3"], ["pect", "ive"], [" character", "istic"], [" ren", "ew"], [" consist", "ent"], [" Pers", "e"], ["emit", "ic"], [" winn", "er"], [" Den", "mark"], [" Common", "wealth"], [" Naz", "i"], [" occasion", "ally"], [" Anth", "ony"], [" ", "ions"], [" s", "amples"], [" T", "ony"], [" F", "e"], ["if", "er"], [" In", "dust"], ["ov", "sky"], ["ys", "ical"], ["yp", "es"], [" refer", "ring"], [" influ", "ences"], [" Cent", "auri"], ["cript", "ions"], [" implement", "ed"], [" Po", "irot"], [" dism", "iss"], [" acknow", "led"], ["C", "ont"], ["c", "ru"], ["e", "enth"], ["f", "ather"], ["i", "\u0107"], [" t", "ru"], [" b", "orders"], [" f", "al"], [" p", "arent"], [" d", "raft"], [" al", "ign"], [" L", "anguage"], [" r", "ational"], [" them", "es"], [" Aust", "ro"], [" occ", "as"], ["iqu", "ity"], [" cor", "por"], [" Pol", "it"], [" sw", "itch"], ["        ", "        "], [" Bro", "ad"], ["atur", "ally"], [" w", "ings"], [" p", "airs"], [" m", "entions"], ["ct", "ors"], [" l", "oyal"], [" M", "P"], [" sp", "ons"], [" am", "ateur"], [" 17", "0"], [" 7", "67"], ["ty", "pe"], [" const", "ruct"], [" 195", "1"], ["199", "5"], [" cur", "ren"], [" All", "en"], [" aff", "airs"], [" lim", "its"], [" cr", "im"], ["unic", "ations"], [" concent", "rated"], [" mole", "cular"], [" isol", "ated"], [" AB", "BA"], [" Sund", "ay"], ["F", "A"], ["i", "op"], ["j", "ection"], ["u", "ilt"], ["\u00ed", "a"], ["or", "ic"], [" b", "in"], [" A", "ston"], ["ra", "ys"], ["ers", "ey"], [" H", "al"], [" L", "et"], [" com", "ed"], [" ad", "vent"], [" ro", "les"], [" De", "ath"], [" Le", "on"], [" Ad", "mir"], [" sim", "ultane"], [" mus", "ician"], ["199", "8"], [" par", "am"], ["wh", "o"], [" quest", "ions"], [" jud", "ge"], [" mechan", "ism"], [" fell", "ow"], [" belief", "s"], [" oppon", "ent"], [" stru", "ck"], [" tox", "ic"], ["W", "orld"], [" a", "th"], [" b", "icy"], [" p", "seud"], [" m", "and"], [" m", "obile"], [" d", "ated"], [" S", "abb"], [" e", "at"], [" th", "in"], [" n", "one"], [" st", "ages"], [" E", "c"], [" D", "a"], [" L", "ith"], ["ri", "k"], ["ult", "ural"], [" Ch", "ron"], [" dist", "ricts"], [" equ", "ation"], [" Ag", "assi"], [" appro", "val"], [" rad", "ical"], [" appear", "ances"], [" di", "agn"], [" ", "rom"], ["y", "g"], ["st", "ances"], [" T", "y"], [" M", "and"], [" M", "ach"], ["ul", "ed"], [" D", "ire"], ["est", "abl"], [" v", "en"], ["ab", "s"], ["ast", "ers"], [" ab", "und"], [" res", "id"], [" ro", "ads"], [" ac", "upuncture"], [" am", "pl"], [" ant", "idepress"], [" prop", "ag"], [" beg", "un"], [" bre", "ast"], [" president", "ial"], [" dise", "ases"], [" conqu", "ered"], [" lab", "our"], ["4", "1"], ["w", "itz"], [" t", "ry"], [" in", "her"], [" A", "arhus"], [" 1", "20"], ["us", "ing"], [" C", "rosby"], ["ot", "er"], [" P", "el"], [" J", "ord"], [" pl", "ague"], [" int", "ention"], [" cl", "oth"], ["20", "11"], [" eff", "icient"], ["ros", "cop"], [" arm", "oured"], [" Reg", "ion"], [" transport", "ation"], [" Cont", "rol"], [" document", "ary"], [" Def", "ence"], [" passeng", "ers"], ["Aust", "ral"], [" Vi", "enna"], [" Sec", "urity"], ["5", "7"], ["F", "ilm"], ["M", "ar"], ["s", "is"], [" t", "rying"], [" T", "ay"], ["et", "he"], [" M", "as"], [" P", "tole"], [" H", "an"], [" G", "insberg"], [" L", "at"], ["ac", "les"], [" v", "otes"], ["ell", "er"], [" K", "ash"], ["ast", "e"], ["ub", "s"], ["ric", "ted"], [" own", "er"], [" ins", "pir"], [" Sch", "warzenegger"], [" prom", "pt"], ["app", "ing"], [" Gu", "ard"], [" arr", "ival"], ["190", "1"], [" detail", "ed"], [" conne", "ctions"], ["itzer", "land"], ["d", "es"], ["i", "pe"], ["\u00e3", "o"], [" the", "olog"], ["it", "ter"], [" in", "tern"], ["il", "ly"], ["ch", "t"], [" be", "at"], [" con", "vention"], [" L", "ine"], ["ac", "hen"], [" se", "ctions"], ["ang", "zeb"], [" Con", "ference"], [" support", "ers"], ["lic", "ation"], [" pat", "ron"], [" go", "es"], [" vol", "can"], [" educ", "ational"], [" offer", "ing"], [" nar", "rative"], [" obt", "ain"], [" Barb", "ados"], [" Abb", "ey"], [" Min", "or"], [" neut", "ral"], [" Jac", "ob"], [" interpre", "ted"], [" nick", "n"], ["s", "ch"], ["u", "in"], ["w", "ed"], [" a", "phas"], [" an", "ts"], [" re", "vers"], ["ol", "io"], [" (", "'"], ["ut", "er"], [" st", "ack"], [" N", "a"], [" he", "m"], ["ment", "ary"], [" Al", "m"], [" res", "olution"], ["ep", "ing"], [" tr", "ig"], [" fl", "oor"], ["orn", "ing"], [" min", "eral"], ["199", "1"], [" perform", "ances"], [" ast", "er"], [" draw", "ing"], [" portray", "ed"], [" Ari", "zona"], [" crim", "inal"], ["F", "ollowing"], ["L", "B"], ["u", "pt"], [" t", "ells"], ["at", "ab"], [" b", "ird"], [" f", "ile"], [" C", "rit"], ["et", "ics"], ["im", "ents"], [" P", "ent"], [" G", "a"], [" des", "ire"], [" sub", "stit"], [" pr", "int"], [" Sp", "art"], [" sign", "ificance"], [" establ", "ishing"], ["200", "9"], [" ann", "oun"], ["ipp", "ing"], [" subject", "s"], [" find", "ing"], [" Fin", "land"], [" exact", "ly"], [" Further", "more"], [" Anat", "olia"], [" Mit", "chell"], [" Never", "theless"], ["N", "ot"], ["P", "olit"], ["ar", "th"], ["as", "an"], [" M", "agn"], [" 19", "15"], [" F", "red"], ["ost", "er"], [" k", "il"], ["ib", "an"], [" Ar", "n"], [" rec", "ru"], [" bu", "ff"], [" air", "port"], ["yn", "t"], [" ann", "ually"], ["197", "2"], ["197", "5"], [" stri", "p"], [" Met", "hod"], [" ax", "is"], ["onym", "ous"], [" immig", "rants"], ["Christ", "ian"], ["D", "S"], [" t", "alk"], [" an", "ime"], [" A", "ung"], ["ly", "wood"], ["et", "ers"], ["ig", "an"], ["ac", "ent"], ["og", "ether"], [" fl", "ood"], [" exp", "osed"], [" car", "rier"], [" bro", "ken"], [" aut", "ob"], ["ali", "yah"], [" mechan", "ical"], [" spok", "e"], [" Sant", "a"], [" mess", "age"], [" pian", "ist"], [" teach", "ings"], [" franch", "ise"], [" ", "id"], ["8", "7"], ["C", "ol"], ["S", "C"], ["c", "ule"], ["k", "ara"], ["p", "ath"], ["he", "ts"], ["re", "ll"], ["ad", "ow"], ["ut", "ies"], ["ul", "ating"], [" st", "ability"], ["ri", "or"], ["ell", "ar"], [" K", "er"], [" K", "al"], [" 3", "7"], [" gro", "wn"], [" under", "t"], [" Am", "brose"], ["ier", "i"], ["ann", "a"], [" 16", "0"], [" perform", "ing"], [" last", "ed"], [" ter", "ror"], [" aff", "il"], [" chang", "ing"], [" pred", "ecess"], [" indic", "ates"], ["umn", "i"], [" eas", "y"], [" cle", "an"], [" descend", "ants"], [" Sabb", "ath"], ["y", "stem"], [" the", "or"], [" w", "aves"], [" c", "row"], ["ar", "ic"], [" p", "ed"], [" p", "ul"], [" H", "u"], [" H", "ans"], [" D", "ick"], [" O", "h"], ["ren", "e"], [" ass", "emb"], [" det", "ect"], [" exper", "iences"], [" dr", "inking"], [" rece", "iving"], [" Rep", "resent"], [" controvers", "y"], [" hundred", "s"], ["onom", "ous"], [" ", "\u2212"], [" ", "ere"], ["A", "ugust"], ["f", "lu"], ["l", "anguage"], ["in", "ally"], [" f", "urn"], ["ro", "om"], [" A", "eg"], [" R", "en"], ["ace", "ae"], [" me", "at"], ["20", "13"], ["omet", "imes"], [" val", "ley"], [" eng", "ines"], [" Su", "pp"], [" fem", "ales"], [" pers", "u"], [" circ", "uit"], [" adapt", "ation"], ["5", "1"], ["B", "el"], ["c", "ope"], ["t", "d"], ["t", "op"], [" S", "ic"], [" S", "af"], [" B", "ede"], [" g", "al"], [" 19", "11"], [" L", "ike"], ["av", "en"], [" W", "ild"], [" part", "ially"], [" all", "iance"], [" met", "h"], [" 193", "5"], [" class", "ic"], ["198", "9"], [" There", "fore"], [" struct", "ural"], [" indust", "ries"], ["196", "0"], [" disp", "ute"], [" encoura", "ged"], [" Territ", "ory"], ["8", "9"], ["S", "P"], ["or", "ous"], ["ar", "ry"], [" b", "ought"], [" C", "rown"], [" H", "un"], [" L", "ie"], ["av", "id"], [" v", "ice"], [" ch", "ampion"], ["ru", "ption"], [" 3", "6"], [" Y", "ah"], [" 4", "4"], [" met", "aph"], [" inst", "alled"], ["rop", "olis"], [" dep", "ends"], ["197", "6"], [" sk", "y"], [" represent", "ative"], [" init", "i"], ["iction", "ary"], [" net", "works"], [" Bur", "kina"], [" Trans", "port"], [" brief", "ly"], [" Holly", "wood"], [" abst", "ract"], ["k", "er"], [" s", "end"], ["ar", "an"], [" in", "g"], [" f", "at"], ["st", "rong"], ["el", "ly"], [" B", "ald"], [" C", "yp"], [" M", "un"], [" G", "r"], ["oc", "ol"], [" St", "aff"], [" wor", "th"], [" Ar", "tic"], [" dis", "orders"], [" var", "iants"], [" ed", "ited"], [" describ", "ing"], [" Har", "ry"], [" myth", "ology"], [" buzz", "ards"], [" Aal", "en"], [" rebell", "ion"], [".", "),"], ["R", "A"], ["b", "ox"], ["r", "ide"], [" s", "iege"], [" c", "ul"], [" b", "oy"], [" S", "I"], ["em", "ale"], [" st", "ore"], [" W", "eek"], ["ust", "ed"], [" dis", "ag"], [" En", "cyclop"], [" acc", "um"], [" ass", "embly"], ["ix", "es"], [" exp", "osure"], [" ant", "ip"], [" war", "m"], [" Sch", "openhauer"], ["198", "1"], [" Sw", "itzerland"], [" prem", "i"], [" Lad", "y"], ["H", "owever"], ["L", "A"], ["u", "able"], [" t", "all"], [" the", "ology"], [" s", "overeign"], ["ro", "se"], ["ot", "am"], [" M", "oses"], ["ell", "o"], ["ear", "s"], ["In", "ternational"], ["oy", "d"], [" def", "ence"], [" imp", "ossible"], [" scient", "ist"], [" profess", "or"], [" mount", "ed"], [" difficult", "y"], [" particip", "ated"], [" vary", "ing"], [" charg", "es"], [" purch", "ased"], ["usch", "witz"], ["h", "aus"], ["w", "a"], ["\u28ff", "\u28ff"], [" a", "wards"], ["al", "ysis"], [" an", "at"], [" p", "age"], [" A", "FL"], [" h", "orn"], [" I", "l"], [" H", "ipp"], [" R", "ud"], [" D", "un"], [" D", "ark"], ["ac", "le"], ["ab", "apt"], [" un", "less"], ["ip", "her"], ["te", "xt"], [" j", "ob"], [" out", "er"], [" inter", "medi"], [" dist", "ributed"], ["enn", "ium"], [" ref", "lected"], [" Ag", "ain"], [" leg", "acy"], ["Al", "f"], [" vis", "itors"], ["198", "8"], [" 190", "1"], [" Arch", "im"], [" den", "ied"], [" loss", "es"], [" prec", "ip"], [" establish", "ments"], [" Rail", "way"], [" emphas", "is"], [" Kenn", "edy"], ["rika", "ans"], [" commem", "or"], ["O", "C"], [" the", "atre"], [" c", "overs"], [" d", "iam"], [" d", "iox"], ["ad", "ron"], ["ab", "y"], [" K", "ar"], [" St", "one"], [" cons", "ent"], [" inter", "ests"], ["hem", "istry"], [" trad", "ing"], [" appro", "aches"], [" gu", "id"], [" ren", "der"], [" Sl", "av"], [" subs", "id"], [" Micro", "soft"], [" cinem", "a"], ["C", "itations"], ["c", "apital"], ["t", "z"], [" o", "cean"], ["an", "ium"], [" w", "itness"], [" c", "able"], [" N", "ik"], [" part", "ial"], [" ev", "al"], [" rel", "ief"], [" art", "istic"], [" follow", "ers"], [" Ad", "vent"], [" long", "est"], ["200", "2"], ["199", "4"], [" dr", "iven"], [" comput", "ing"], [" port", "s"], [" band", "y"], ["Ar", "t"], [" 189", "0"], [" approx", "im"], [" step", "s"], [" pal", "ace"], [" Gord", "on"], ["c", "or"], ["d", "in"], ["u", "ber"], [" a", "ber"], [" h", "ors"], ["om", "a"], ["il", "ian"], [" T", "un"], [" S", "outheast"], [" n", "est"], [" as", "ym"], [" N", "on"], [" K", "ir"], [" ar", "ithmetic"], ["ord", "e"], ["gl", "as"], ["20", "15"], [" sign", "als"], [" mon", "ks"], [" second", "s"], [" suff", "ering"], [" surround", "ed"], [" hous", "ing"], [" prin", "ted"], [" adult", "s"], [" Hit", "ler"], ["8", "00"], ["c", "m"], ["f", "ree"], [" t", "et"], [" m", "ang"], [" d", "rew"], [" n", "aturally"], ["id", "o"], [" M", "erc"], [" L", "ind"], [" v", "ul"], [" comm", "ittee"], [" art", "ificial"], ["ple", "te"], ["Ar", "ch"], [" Sy", "ria"], [" ground", "s"], [" surv", "ive"], [" respons", "ibility"], [" categ", "ories"], [" aim", "ed"], [" arran", "ged"], [" distingu", "ish"], [" depend", "ent"], ["harm", "a"], ["G", "B"], ["in", "ated"], ["at", "ine"], [" s", "odium"], [" m", "al"], [" m", "ob"], [" A", "ragon"], [" S", "ign"], [" C", "r"], [" C", "ape"], ["ot", "he"], ["ian", "g"], [" or", "che"], [" comp", "lic"], [" dis", "cont"], [" pre", "fer"], [" sc", "hed"], [" ra", "cial"], [" govern", "ments"], [" sym", "met"], [" rul", "ing"], [" Tal", "iban"], [" Sat", "urn"], [" ", "\u00c9"], ["H", "z"], ["p", "at"], [" o", "m"], [" f", "illed"], [" A", "BC"], [" P", "u"], [" H", "ad"], [" E", "ducation"], ["ag", "le"], [" v", "oted"], [" ne", "ck"], [" spe", "aking"], [" off", "ices"], [" sing", "les"], [" Pro", "du"], [" And", "erson"], [" public", "ly"], [" Ag", "ency"], ["ips", "ych"], ["omm", "od"], [" concern", "ing"], [" slow", "ly"], [" rang", "ing"], [" Independ", "ence"], [" clin", "ical"], [" explan", "ation"], ["C", "II"], ["N", "ational"], ["at", "ivity"], ["as", "m"], ["ou", "ts"], ["ch", "ing"], [" H", "ospital"], ["op", "otam"], ["ment", "ation"], ["ass", "ium"], ["att", "ers"], ["ock", "et"], [" inst", "all"], [" Sc", "ient"], ["inn", "er"], [" Wh", "it"], [" ann", "iversary"], [" Bo", "hem"], [" targ", "ets"], [" require", "ments"], [" discuss", "ed"], [" sculpt", "or"], [" bra", "ille"], [" legisl", "ation"], [" distingu", "ished"], [" reven", "ue"], [" exclus", "ively"], [" opin", "ion"], ["iscop", "al"], [" Kash", "mir"], ["J", "ohn"], ["V", "A"], ["ar", "ation"], [" b", "ridges"], ["ol", "ve"], ["od", "s"], [" F", "inn"], ["ri", "ers"], [" v", "s"], [" sc", "enes"], [" off", "ensive"], [" dep", "artment"], ["ipp", "i"], [" pred", "icted"], [" deb", "ut"], [" fav", "our"], [" estim", "ates"], [" inj", "ury"], [" implement", "ation"], [" saf", "e"], [" battles", "hips"], [" Rod", "in"], ["asi", "atic"], [" aspir", "in"], [" Net", "work"], [" Hou", "ston"], ["h", "ard"], ["i", "est"], ["in", "der"], [" c", "ere"], ["le", "ys"], [" n", "ode"], ["id", "ae"], [" P", "it"], [" D", "iamond"], [" man", "if"], [" kn", "ew"], [" Sh", "aron"], [" And", "ers"], [" mar", "ine"], [" Pr", "in"], ["199", "3"], [" stand", "s"], [" gen", "es"], [" ep", "it"], [" wid", "er"], [" prob", "ability"], [" fund", "ing"], [" opt", "ical"], [" apparent", "ly"], [" else", "where"], [" minim", "um"], [" Caes", "ar"], [" unus", "ual"], ["4", "6"], ["d", "iv"], ["u", "ated"], ["\u00e8", "re"], ["re", "al"], [" l", "ists"], [" C", "D"], ["ot", "ype"], [" M", "ugh"], [" was", "te"], [" P", "rem"], [" H", "ug"], [" su", "itable"], [" un", "like"], ["ens", "ed"], [" per", "ceived"], [" cons", "ult"], [" ret", "reat"], [" ent", "itled"], [" Bar", "n"], [" cond", "em"], [" arg", "ue"], [" plan", "ets"], [" Spe", "er"], [" campaign", "s"], [" coll", "apse"], [" immedi", "ate"], [" dram", "a"], [" Histor", "ical"], [" decre", "ase"], [" Oper", "ation"], [" Prov", "ince"], [" Pier", "re"], [" Aege", "an"], ["P", "op"], ["T", "C"], ["b", "ody"], ["c", "ow"], ["ar", "ks"], ["st", "ad"], [" th", "or"], [" th", "ing"], [" H", "ard"], [" H", "ome"], [" pro", "ve"], [" N", "ight"], [" cont", "est"], [" att", "racted"], [" ph", "osph"], ["20", "14"], [" her", "itage"], ["ten", "ance"], [" em", "ot"], ["ean", "while"], [" few", "er"], [" deb", "t"], [" trib", "e"], [" discuss", "ion"], [" sculpt", "ure"], [" conserv", "ation"], [" Dou", "glas"], [" hy", "per"], [" Greg", "ory"], [" tourn", "ament"], [" appropri", "ate"], ["4", "00"], ["?", "\""], ["B", "ra"], ["es", "ch"], ["it", "ure"], ["ic", "enna"], [" S", "ab"], [" C", "ab"], ["ad", "der"], ["ot", "an"], [" st", "ood"], [" R", "oy"], [" F", "all"], [" N", "iger"], ["se", "ason"], [" ch", "rom"], ["te", "g"], [" ele", "v"], [" app", "ly"], [" some", "one"], [" call", "ing"], [" dep", "ict"], [" min", "ing"], [" rest", "ricted"], [" mer", "ely"], [" Rev", "iew"], ["enes", "is"], [" hor", "izon"], [" beaut", "iful"], [" Year", "s"], [" uns", "uccess"], [" AP", "L"], [" Wind", "ows"], [" Perse", "us"], [" Lith", "uan"], ["s", "es"], ["u", "h"], ["v", "ol"], ["z", "o"], [" B", "h"], [" sh", "ift"], [" V", "I"], [" reg", "ime"], [" fl", "o"], [" supp", "lies"], [" ret", "ire"], ["197", "9"], [" sk", "ull"], [" claim", "ing"], [" tele", "phone"], [" transl", "ations"], [" tri", "als"], [" Gl", "obal"], [" communic", "ations"], [" lif", "etime"], [" circum", "stances"], [" Agripp", "ina"], ["A", "L"], ["W", "rit"], ["re", "p"], [" c", "ert"], [" m", "emb"], [" A", "uschwitz"], ["id", "al"], ["id", "ers"], [" E", "xt"], [" W", "at"], ["ew", "ork"], [" ro", "w"], [" ro", "ut"], [" des", "ert"], ["overn", "ment"], ["\n \n ", "\n \n"], [" ent", "ertain"], [" dep", "ression"], ["yl", "ene"], ["ograph", "s"], ["ring", "ton"], ["com", "ing"], [" leg", "it"], [" bi", "oc"], [" separ", "ation"], [" der", "iv"], [" 188", "0"], [" sac", "red"], [" Kore", "a"], [" respond", "ed"], [" Way", "ne"], ["larg", "est"], [" ", "\u03b1"], [" b", "ag"], [" h", "our"], [" C", "SM"], [" H", "omer"], ["um", "ed"], [" R", "ous"], [" com", "edy"], [" In", "n"], [" St", "ation"], [" rec", "overy"], [" ra", "b"], [" fl", "ights"], [" 4", "8"], ["uc", "as"], [" inf", "ection"], [" oper", "ational"], [" anim", "ated"], [" Her", "itage"], [" 190", "3"], [" Bak", "r"], [" mig", "ration"], [" ut", "il"], [" nucle", "us"], [" Sum", "mer"], [" vess", "els"], [" ly", "rics"], ["C", "C"], ["b", "ial"], ["m", "es"], ["\u00f6", "r"], ["er", "als"], ["ed", "ed"], [" c", "raft"], [" in", "aug"], [" re", "ally"], ["ad", "ers"], [" H", "erm"], [" v", "eter"], ["ph", "y"], ["ok", "ed"], ["amp", "s"], ["iss", "ippi"], ["20", "20"], [" def", "ensive"], [" tra", "ined"], [" Pro", "fess"], [" On", "ce"], [" Pr", "im"], [" All", "ied"], ["198", "4"], [" 190", "5"], [" rul", "ers"], ["for", "mer"], [" altern", "ate"], [" bor", "row"], [" Democr", "ats"], [" exhib", "ition"], [" amb", "igu"], ["roll", "ed"], [" rang", "es"], [" oppon", "ents"], [" aphas", "ia"], [" ", ")."], ["D", "A"], ["it", "als"], [" A", "achen"], [" B", "ishop"], ["ad", "ia"], ["oc", "ated"], ["The", "se"], ["ult", "y"], [" wor", "n"], [" sp", "ot"], [" j", "ourney"], [" ass", "ess"], [" ind", "ex"], [" sur", "g"], [" Sh", "ort"], [" leg", "s"], [" Air", "ways"], ["198", "6"], ["198", "7"], [" vol", "umes"], ["sh", "ire"], [" song", "writer"], [" astron", "omer"], [" employ", "ees"], [" continu", "ing"], [" review", "s"], [" essential", "ly"], [" eag", "le"], [" Pen", "insula"], [" manufactur", "er"], [" Hell", "en"], [" therm", "al"], [" enjoy", "ed"], [" Mes", "opotam"], [" banj", "o"], ["a", "ired"], ["o", "ids"], ["it", "is"], [" w", "ine"], ["el", "ine"], [" M", "ission"], [" con", "ference"], [" F", "und"], [" L", "ow"], [" L", "ight"], [" Al", "ps"], [" ag", "ed"], ["20", "17"], [" we", "b"], [" Le", "v"], [" Con", "n"], [" Pro", "to"], ["198", "5"], [" just", "ice"], [" battle", "cru"], [" special", "ized"], [" Tr", "ade"], [" sec", "ure"], [" alc", "hem"], [" pen", "et"], [" cover", "ing"], [" situ", "ated"], [" display", "ed"], [" Ast", "ron"], [" transm", "ission"], [" recomm", "ended"], [" strateg", "ic"], [" astrol", "ogy"], [" laure", "ate"], [" consc", "ious"], ["\n", "\n \n"], ["I", "T"], ["b", "al"], ["u", "cl"], [" o", "vers"], ["ic", "ill"], ["ro", "us"], [" A", "aliyah"], [" d", "im"], ["ol", "ics"], [" be", "ings"], [" R", "on"], [" R", "oss"], [" G", "i"], [" D", "irect"], [" N", "ear"], [" not", "ion"], [" te", "a"], ["ik", "os"], [" ac", "et"], [" 5", "5"], ["angu", "ages"], [" Af", "rikaans"], [" Alex", "ios"], ["Al", "bert"], [" direct", "ors"], ["wh", "ite"], [" Med", "al"], [" accept", "ance"], [" Sim", "on"], [" pron", "ounced"], [" Mem", "orial"], [" fal", "se"], ["!", "\""], ["h", "and"], ["m", "ud"], ["u", "cc"], [" f", "rame"], [" d", "ub"], [" T", "an"], [" S", "ix"], [" M", "ess"], [" M", "aur"], ["ov", "o"], [" sh", "orter"], [" def", "ine"], [" qu", "een"], [" ins", "criptions"], [" rest", "ored"], [" Dav", "is"], ["ino", "is"], [" command", "ed"], [" tour", "ist"], [" ord", "inary"], ["back", "s"], [" minor", "ity"], [" reform", "s"], [" adj", "acent"], [" stre", "ets"], ["Jew", "ish"], [" Tay", "lor"], [" ", "\u201c"], ["E", "M"], ["M", "ed"], [" w", "rong"], [" A", "aron"], [" C", "le"], [" M", "axim"], ["ith", "ium"], [" D", "er"], [" su", "icide"], [" r", "ig"], ["se", "cond"], [" pl", "ural"], ["ust", "er"], [" y", "ellow"], ["act", "s"], [" mon", "itor"], ["sequ", "ently"], [" Fl", "ore"], [" pred", "ict"], [" capt", "ain"], [" reserv", "es"], [" Aur", "angzeb"], [" ", "ri"], ["E", "E"], ["L", "e"], [" o", "ption"], [" b", "iblical"], [" h", "olid"], [" l", "iv"], ["ir", "ls"], ["um", "mer"], [" F", "ood"], [" N", "ich"], [" N", "aval"], [" he", "ir"], ["oc", "a"], [" 4", "9"], [" Am", "mon"], [" inv", "ited"], [" rep", "rodu"], [" dr", "ink"], ["197", "3"], [" ver", "tical"], [" fac", "ilit"], [" condu", "ctor"], [" quant", "ities"], [" big", "gest"], [" vot", "ing"], [" Uk", "raine"], [" egg", "s"], ["A", "ir"], ["B", "ur"], ["a", "ic"], ["d", "ers"], ["f", "ts"], ["h", "id"], ["y", "e"], [" b", "eryllium"], ["ro", "t"], [" m", "arg"], [" d", "ress"], [" d", "iver"], [" C", "ru"], ["am", "ents"], ["ig", "ion"], [" M", "aster"], ["ir", "t"], [" P", "ra"], [" H", "o"], [" R", "oll"], [" G", "ib"], [" F", "ather"], [" J", "ersey"], [" pl", "anning"], ["\n ", "    "], [" cl", "ock"], ["we", "gian"], ["aw", "s"], ["20", "16"], [" trans", "form"], [" De", "co"], [" Ad", "minist"], [" Wh", "at"], [" host", "s"], [" recogn", "ize"], [" frequ", "ent"], [" spect", "rum"], [" cou", "p"], [" Haw", "ke"], [" frag", "ments"], [" cas", "ual"], [" Luther", "an"], ["Bah", "\u00e1"], ["b", "el"], ["f", "eld"], ["ar", "anth"], [" b", "its"], ["as", "hes"], ["st", "yle"], [" T", "ar"], [" l", "ose"], [" B", "ry"], ["em", "ed"], [" R", "os"], [" L", "am"], ["ac", "us"], ["ew", "ise"], [" An", "abapt"], [" dis", "appe"], [" acc", "ommod"], [" tem", "por"], [" integ", "rated"], [" meet", "ings"], [" measure", "ments"], [" epis", "odes"], [" purch", "ase"], [" hy", "b"], [" diplom", "atic"], [" accur", "ate"], [" replace", "ment"], [" Fried", "rich"], [" Baham", "as"], ["U", "S"], ["n", "ian"], ["o", "i"], ["el", "and"], [" C", "ir"], [" C", "apt"], [" M", "ain"], [" R", "aj"], [" ch", "ance"], [" res", "ident"], [" cl", "ergy"], [" sub", "ur"], [" var", "ied"], ["erson", "al"], [" John", "ston"], [" Christ", "opher"], [" stat", "ements"], [" relig", "ions"], ["osp", "el"], [" Act", "s"], [" tri", "p"], [" novel", "ist"], [" synt", "hes"], [" anthrop", "ology"], [" vow", "els"], ["Des", "pite"], [" consec", "utive"], [" monaster", "y"], [" aster", "oid"], [" diam", "eter"], ["R", "S"], ["g", "i"], ["ar", "ians"], [" S", "her"], [" B", "ush"], [" M", "anu"], ["ir", "al"], [" ra", "ise"], [" Af", "onso"], [" Ad", "ri"], [" fin", "ite"], ["196", "9"], [" astron", "omy"], [" Pal", "est"], [" vill", "ages"], ["comp", "ass"], [" commission", "ed"], [" phenomen", "on"], [" pict", "ure"], [" deploy", "ed"], ["is", "dom"], [" b", "er"], [" p", "H"], [" m", "it"], [" T", "s"], ["id", "ency"], [" D", "C"], [" F", "ord"], [" L", "iter"], [" v", "acc"], [" W", "olf"], ["ov", "ak"], [" cl", "oud"], [" en", "force"], [" sc", "atter"], ["ors", "hip"], [" she", "l"], [" Cl", "ark"], [" fact", "ory"], ["197", "8"], [" pri", "ze"], [" necess", "arily"], [" vari", "ables"], [" dam", "aged"], [" liber", "al"], [" breed", "ing"], [" revol", "t"], [" Antar", "ctic"], [" infin", "ite"], [" Similar", "ly"], [" Dire", "ctor"], [" ", "\u02bb"], ["he", "rent"], [" s", "ounds"], [" c", "ous"], [" b", "rig"], [" m", "o"], ["ra", "ce"], [" st", "adium"], [" E", "conomic"], [" L", "ast"], ["\n ", "  "], [" Amer", "icas"], [" ro", "se"], [" am", "phib"], [" est", "imate"], [" mat", "rix"], [" Q", "ur"], [" read", "y"], ["197", "4"], [" pat", "ri"], [" antib", "iotic"], [" sett", "lers"], ["yth", "m"], [" Mos", "cow"], [" anch", "or"], ["atern", "al"], [" stopp", "ed"], [" Jord", "an"], ["+", "+"], ["A", "rab"], ["B", "I"], ["a", "is"], ["d", "ah"], ["er", "ts"], [" s", "elling"], ["or", "ious"], ["as", "ks"], [" m", "os"], [" m", "ac"], ["il", "i"], [" S", "id"], [" B", "onn"], [" B", "uck"], ["ow", "der"], [" st", "ead"], [" E", "ug"], [" L", "ud"], [" r", "ising"], [" cl", "im"], [" Un", "like"], [" sp", "r"], ["ae", "an"], [" oper", "ator"], [" return", "s"], [" rev", "ival"], ["lic", "ts"], [" sol", "o"], [" 190", "4"], [" 190", "6"], ["ploy", "ment"], [" cir", "cle"], [" astron", "omical"], [" Louis", "iana"], [" shoot", "ing"], [" Arsen", "al"], [";", "\""], ["c", "hen"], ["u", "ct"], [" m", "atters"], [" st", "abil"], [" R", "et"], [" F", "ox"], ["ac", "on"], [" O", "m"], ["ah", "man"], [" ph", "il"], [" up", "d"], [" ind", "irect"], [" met", "ropolitan"], [" Cent", "ury"], [" similar", "ly"], [" bi", "ology"], [" head", "ed"], ["che", "ster"], [" go", "als"], [" arg", "uments"], ["for", "ced"], ["spe", "c"], ["uda", "ism"], [" cred", "it"], ["pr", "ise"], [" bit", "umen"], ["Ap", "ollo"], [" phenomen", "a"], [" Jon", "athan"], [" Ori", "oles"], ["z", "hen"], ["er", "ia"], [" s", "ale"], ["ic", "ium"], [" f", "ictional"], [" p", "ush"], ["as", "hed"], [" T", "rad"], [" S", "av"], ["ot", "ics"], [" be", "ads"], [" L", "td"], ["pt", "ic"], [" all", "ies"], [" rec", "re"], ["old", "s"], [" her", "self"], [" ass", "ign"], [" loc", "ally"], [" main", "stream"], [" Ab", "out"], [" oper", "ators"], [" Bar", "ry"], [" expl", "or"], ["197", "7"], [" 190", "2"], [" mass", "ac"], [" occur", "ring"], [" architect", "ural"], ["hel", "m"], [" tax", "es"], [" Dan", "ube"], [" occup", "ation"], ["bour", "ne"], [" earth", "qu"], [" cerem", "on"], [" coal", "ition"], [" cho", "ose"], [" pros", "per"], [" Andalus", "ia"], ["unc", "iation"], [" explicit", "ly"], ["B", "r"], ["S", "ever"], ["u", "its"], ["z", "y"], ["it", "ative"], [" b", "inding"], [" A", "res"], [" A", "uthor"], [" B", "ack"], [" g", "all"], [" L", "im"], ["ant", "on"], [" ch", "annel"], [" not", "ation"], ["ap", "or"], [" Al", "tern"], [" est", "ate"], [" 6", "8"], [" air", "lines"], ["198", "3"], [" fem", "in"], [" Miss", "issippi"], [" perm", "itted"], ["Cl", "ass"], [" Iran", "ian"], [" bring", "ing"], [" champions", "hip"], [" Ill", "inois"], ["F", "irst"], ["c", "ell"], ["f", "e"], ["i", "ology"], ["z", "ed"], ["in", "als"], [" c", "otton"], [" b", "om"], [" S", "et"], [" C", "ur"], [" C", "op"], ["if", "fer"], ["rit", "e"], ["ens", "is"], [" am", "ber"], [" app", "oint"], [" em", "pt"], [" Bar", "on"], [" elect", "ro"], ["epend", "ent"], [" Ex", "per"], [" 186", "0"], [" mem", "oir"], [" viol", "ent"], [" potential", "ly"], [" AS", "CII"], [" benef", "its"], [" dram", "atic"], [" archae", "ological"], ["Bl", "ack"], [" manufactur", "ers"], ["K", "B"], ["O", "R"], ["R", "es"], ["b", "ow"], ["b", "uilding"], [" a", "qu"], [" c", "ort"], [" an", "ne"], [" f", "lying"], [" to", "uch"], [" 1", "000"], ["ur", "as"], [" g", "iant"], [" F", "arm"], [" L", "o"], ["ort", "s"], ["end", "ar"], [" V", "ill"], [" comm", "it"], ["ark", "ovsky"], ["20", "18"], [" there", "by"], [" 4", "2"], [" dist", "ant"], [" term", "ed"], [" And", "y"], [" gu", "arant"], [" techn", "ologies"], [" stat", "istical"], ["196", "2"], [" Ex", "amples"], [" observ", "ation"], [" sw", "it"], [" tour", "ists"], [" pers", "ec"], [" magn", "etic"], [" cross", "ed"], [" Bol", "ivia"], [" Bill", "board"], [" Cap", "one"], [" streng", "then"], [" electric", "ity"], [" manuscript", "s"], [" absor", "ption"], [" seek", "ing"], [" Philipp", "ines"], [" amp", "hetamine"], [" surf", "aces"], [" satell", "ite"], [" Full", "er"], [" Eston", "ian"], [" Ptole", "my"], [" inspir", "ation"], [" o", "verse"], ["ar", "is"], ["ic", "ate"], [" p", "up"], [" h", "ip"], ["il", "bert"], [" S", "us"], [" S", "em"], ["ly", "n"], ["ot", "te"], [" g", "rain"], [" con", "greg"], [" G", "ran"], [" E", "ric"], [" D", "om"], ["od", "ed"], [" F", "olio"], ["ort", "ed"], ["oc", "ene"], [" K", "ong"], [" sh", "ares"], [" under", "w"], [" em", "ig"], [" sing", "ing"], [" dec", "imal"], [" bas", "in"], [" mar", "ks"], [" gen", "re"], [" Ne", "o"], [" concent", "rations"], [" document", "ed"], [" wood", "en"], [" bound", "ary"], [" cou", "ple"], [" kind", "s"], [" chall", "enge"], [" Beng", "al"], [" tom", "b"], [" Philos", "ophy"], [" Isa", "ac"], ["l", "ow"], ["p", "ower"], ["v", "o"], ["w", "ig"], ["y", "ram"], ["is", "ot"], [" w", "atch"], ["om", "ial"], [" W", "oman"], [" N", "atural"], [" ex", "ports"], ["ub", "ble"], [" ad", "hes"], [" im", "per"], [" en", "compass"], [" j", "obs"], [" Re", "con"], [" Ab", "ner"], ["gg", "le"], [" tem", "porary"], [" el", "abor"], [" object", "ive"], [" pot", "assium"], [" employ", "ment"], [" log", "o"], [" Revolution", "ary"], [" conserv", "ative"], ["uls", "ion"], [" arrest", "ed"], [" fru", "it"], [" vul", "ner"], ["B", "ook"], ["M", "S"], ["d", "ed"], ["al", "ion"], ["ic", "ine"], [" f", "ox"], [" to", "ol"], [" n", "am"], ["ir", "th"], ["ul", "us"], [" F", "reedom"], [" Ch", "ile"], [" ag", "ar"], [" main", "tenance"], [" Re", "port"], [" mus", "cle"], ["ane", "ous"], [" Bo", "eing"], [" Ant", "igu"], [" Cath", "olics"], [" fund", "s"], ["van", "ced"], [" La", "ure"], [" rock", "et"], ["anc", "ell"], [" gold", "en"], [" look", "ing"], [" System", "s"], [" farm", "ing"], ["ero", "ids"], [" comment", "ary"], [" investig", "ation"], [" vot", "ers"], [" proced", "ure"], ["sim", "off"], [" ori", "ent"], [" mamm", "als"], ["E", "tymology"], ["O", "ver"], ["b", "ic"], ["m", "odern"], ["s", "he"], ["es", "ium"], [" to", "ler"], ["om", "ic"], ["am", "i"], ["ad", "i"], ["ut", "ing"], [" g", "el"], [" E", "qu"], [" D", "u"], [" ex", "ile"], [" he", "aring"], ["ess", "ions"], [" le", "agues"], [" man", "ip"], [" sy", "nd"], [" 4", "1"], [" bu", "y"], [" ant", "ipsych"], [" mon", "ument"], [" vers", "e"], [" expl", "ains"], [" program", "me"], [" every", "thing"], [" independ", "ently"], ["194", "5"], [" mer", "ged"], [" fac", "ility"], [" exec", "ution"], [" distinct", "ive"], [" Nor", "wegian"], ["Ph", "ilos"], [" Rav", "ens"], [" Andor", "ra"], ["orde", "aux"], ["'", ")"], ["b", "ase"], ["f", "ire"], [" t", "ied"], ["er", "ver"], [" b", "ald"], [" S", "yd"], [" al", "mond"], [" D", "or"], [" D", "own"], [" D", "isc"], [" L", "ib"], [" ex", "ceed"], ["ment", "ed"], [" U", "m"], [" comp", "act"], [" Ch", "ris"], [" An", "s"], [" V", "ik"], ["ater", "al"], [" ph", "arm"], [" 5", "2"], [" rem", "ove"], [" tra", "cks"], [" po", "ems"], [" territ", "orial"], [" lo", "an"], [" Israel", "i"], [" difficult", "ies"], [" pun", "ishment"], [" suc", "ceed"], [" illust", "rator"], [" danger", "ous"], [" sacrif", "ice"], ["S", "pe"], ["b", "ul"], ["i", "ast"], ["m", "us"], ["m", "aking"], ["o", "ard"], ["\u00e9", "n"], ["\u00e9", "t"], [" s", "in"], [" c", "hess"], [" b", "anned"], [" p", "ool"], [" p", "apers"], [" h", "ired"], ["ay", "er"], [" E", "very"], [" de", "leg"], ["ab", "ited"], [" se", "ed"], [" pr", "ince"], [" supp", "lement"], [" met", "all"], [" count", "y"], [" dec", "isions"], [" oper", "ates"], ["ven", "ue"], [" min", "erals"], [" among", "st"], [" adm", "itted"], [" attempt", "ing"], [" Med", "ical"], [" food", "s"], [" key", "board"], [" threat", "ened"], [" lingu", "istic"], [" Mur", "ray"], [" proced", "ures"], [" regist", "ered"], [" antisemit", "ism"], ["8", "2"], ["R", "ussian"], ["c", "ut"], ["r", "h"], ["r", "ity"], ["re", "ement"], [" m", "ood"], [" A", "y"], ["le", "ton"], [" h", "ub"], ["om", "es"], [" C", "ave"], [" P", "ict"], ["ow", "ed"], [" H", "and"], [" W", "alk"], [" J", "ay"], [" ch", "apters"], [" An", "im"], [" int", "ent"], [" cent", "ers"], ["ne", "o"], ["uc", "ky"], [" bas", "soon"], [" cap", "abilities"], [" prop", "het"], [" All", "iance"], ["198", "2"], ["197", "1"], ["196", "6"], [" Ang", "el"], [" chem", "ist"], [" particip", "ate"], [" parliament", "ary"], ["icill", "in"], ["8", "1"], ["I", "tal"], ["a", "o"], ["g", "on"], ["l", "ad"], ["p", "ent"], ["at", "ched"], ["or", "ig"], ["ic", "us"], [" h", "ier"], [" S", "ac"], ["ol", "ly"], [" C", "art"], ["am", "ation"], ["im", "m"], [" g", "ender"], ["em", "porary"], [" comp", "rehens"], [" ac", "oust"], [" produ", "cers"], [" Se", "ven"], [" contin", "ental"], [" ins", "cription"], [" prom", "in"], [" pain", "ted"], [" colle", "ctions"], [" 190", "7"], [" 190", "9"], [" prev", "al"], ["196", "3"], ["196", "4"], [" sent", "ence"], [" hydro", "x"], [" Cont", "inental"], [" Av", "icenna"], [" Abb", "as"], [" Ah", "mad"], [" chron", "ic"], [" propos", "al"], [" Brand", "enburg"], [" obl", "ig"], [" mil", "k"], ["f", "irst"], ["r", "ise"], ["z", "ing"], ["is", "p"], [" f", "it"], [" re", "aches"], ["un", "te"], [" M", "ong"], ["ist", "ent"], ["ul", "ates"], [" L", "ank"], [" J", "ane"], ["ia", "e"], ["ip", "ation"], [" K", "az"], [" comp", "ens"], [" res", "ign"], [" rec", "overed"], [" inter", "action"], [" rem", "ember"], [" publ", "ishing"], [" mov", "es"], [" Cl", "aud"], [" Pl", "ato"], [" business", "es"], [" whe", "el"], [" vict", "ims"], ["ricult", "ure"], [" alg", "ae"], [" counter", "part"], [" anarch", "ism"], [" arran", "gement"], [" subst", "ances"], [" constitution", "al"], [" Argent", "ina"], [" Cel", "tic"], [" abbre", "v"], [" fest", "ivals"], [" simultane", "ously"], ["Sever", "al"], ["'", "m"], ["O", "rig"], ["R", "eg"], ["d", "ing"], ["g", "roup"], ["in", "osaur"], [" w", "ore"], [" f", "lex"], [" A", "er"], [" d", "uties"], [" h", "ymn"], [" S", "yn"], [" S", "emitic"], [" l", "ot"], ["im", "en"], [" P", "ed"], [" pl", "astic"], [" K", "ansas"], [" Ch", "ap"], [" cont", "ribution"], [" 3", "9"], ["arg", "o"], [" spec", "ified"], [" inst", "ruction"], ["its", "yn"], [" ext", "inct"], [" ent", "rance"], [" sing", "ular"], ["rain", "ian"], [" profess", "ion"], ["rel", "ation"], [" consider", "ably"], [" Bro", "ther"], [" inj", "uries"], [" Mil", "an"], [" coin", "c"], [" bip", "ed"], [" Up", "on"], [" neighbor", "hood"], [" disput", "ed"], ["Alex", "ander"], [" Hop", "kins"], [" Archim", "edes"], ["'", "ll"], ["E", "P"], ["N", "o"], ["S", "ax"], [" t", "asks"], [" w", "ins"], [" b", "ed"], [" b", "rick"], [" p", "and"], [" g", "ather"], ["um", "a"], [" L", "ate"], ["ob", "a"], ["ert", "o"], [" dist", "ribut"], ["ae", "a"], [" land", "scape"], [" Be", "at"], [" invol", "ve"], [" north", "west"], [" mem", "orial"], [" reported", "ly"], [" With", "in"], ["Un", "der"], [" Sal", "ieri"], [" Nor", "way"], ["Ab", "du"], [" decre", "ased"], [" enem", "ies"], [" Ak", "k"], [" Serb", "ia"], [" cam", "era"], [" foss", "il"], ["Can", "adian"], ["C", "ar"], ["D", "ef"], ["G", "reek"], ["L", "a"], ["P", "r"], ["h", "r"], ["an", "throp"], [" S", "ri"], [" l", "ov"], ["ol", "ith"], ["am", "il"], [" st", "rug"], ["os", "ity"], [" G", "aul"], [" v", "ic"], [" su", "gar"], ["ant", "asy"], [" r", "anks"], [" K", "a"], [" res", "igned"], [" cl", "ar"], [" En", "ter"], [" inter", "actions"], [" dep", "th"], [" support", "s"], [" process", "ors"], [" ast", "eroids"], [" Arab", "ia"], [" bi", "ography"], [" init", "iated"], [" Ex", "press"], [" band", "s"], [" trib", "ute"], [" monarch", "y"], ["oft", "ware"], [" conson", "ants"], [" depos", "its"], [" Publ", "ishing"], [" bik", "ini"], [" ing", "red"], ["g", "ress"], ["l", "ived"], ["p", "a"], [" t", "ends"], [" b", "id"], [" b", "rass"], [" f", "ishing"], [" S", "ports"], [" C", "ass"], ["ig", "ible"], [" al", "umni"], ["ay", "an"], ["op", "tery"], [" D", "ictionary"], [" F", "act"], [" In", "formation"], ["se", "x"], [" ad", "verse"], [" 18", "30"], [" att", "ribut"], [" inter", "cept"], ["ock", "ing"], [" po", "ets"], ["16", "00"], [" val", "uable"], [" requ", "iring"], ["let", "ic"], [" adv", "ice"], [" sk", "ills"], [" dev", "oted"], ["rest", "rial"], [" indic", "ating"], [" happ", "ened"], [" Anton", "io"], [" murder", "ed"], [" eag", "les"], [" owners", "hip"], [" Ban", "ach"], [" discip", "line"], ["ipel", "ago"], [" bodhisatt", "va"], [" behavi", "our"], ["I", "m"], ["P", "er"], [" t", "ropical"], ["at", "ra"], [" m", "orning"], [" re", "un"], ["il", "ty"], [" B", "and"], [" C", "all"], [" P", "rom"], [" al", "umin"], [" H", "art"], [" con", "clusion"], [" G", "ram"], [" L", "l"], [" L", "unar"], [" us", "ual"], [" ch", "amber"], [" en", "abled"], [" sp", "in"], [" play", "off"], [" ra", "c"], ["20", "21"], ["iet", "h"], [" inv", "ention"], [" Ind", "ex"], [" Ab", "sal"], [" prom", "ised"], [" Arab", "ian"], [" el", "der"], ["het", "ics"], [" daugh", "ters"], ["min", "ster"], [" hom", "es"], [" remain", "der"], [" Off", "icial"], [" settle", "ments"], [" Big", "foot"], [" syn", "thetic"], [" Jul", "ius"], ["ogen", "ic"], ["\u00fcr", "er"], [" CP", "U"], [" diox", "ide"], [" sched", "uled"], [" Prem", "ier"], ["zhen", "itsyn"], [" anne", "x"], ["B", "as"], ["P", "P"], ["p", "o"], [" a", "w"], ["en", "os"], ["or", "ney"], [" an", "gles"], [" f", "ib"], [" f", "ulf"], [" d", "iversity"], ["ur", "re"], ["un", "y"], ["ot", "o"], [" g", "ate"], ["ow", "ulf"], [" E", "ld"], ["ab", "ad"], [" su", "d"], ["ell", "i"], [" res", "c"], [" can", "c"], [" sc", "iences"], [" under", "go"], [" pop", "ul"], [" Sc", "he"], [" Sch", "we"], [" process", "or"], [" rad", "ius"], [" Pol", "y"], ["ux", "ley"], [" hon", "our"], [" mechan", "isms"], [" flu", "id"], [" exc", "av"], [" seem", "ed"], [" Maced", "onia"], [" dog", "s"], [" isot", "opes"], [" withdraw", "al"], [" fram", "ework"], [" compat", "ible"], ["k", "el"], ["u", "ction"], [" t", "y"], ["on", "ium"], [" b", "ay"], [" b", "read"], [" S", "ud"], [" C", "rus"], ["ation", "ally"], [" H", "ugh"], ["est", "ock"], [" N", "ag"], ["pl", "ed"], [" Ar", "uba"], [" des", "ired"], [" Se", "e"], [" tr", "ust"], ["arch", "y"], ["the", "m"], [" main", "land"], [" read", "ers"], [" repl", "acing"], [" lo", "op"], [" sal", "ts"], [" mechan", "ics"], [" antib", "odies"], [" Bol", "lywood"], [" exhib", "it"], [" Belarus", "ian"], [" monarch", "s"], [" prepar", "ation"], [" Hon", "or"], [" ille", "gal"], [" wrest", "ler"], [" Aster", "ix"], [" nam", "ely"], ["e", "per"], ["h", "yd"], ["l", "ater"], ["r", "up"], [" t", "eles"], [" s", "aved"], [" f", "ab"], [" p", "ages"], ["ro", "x"], [" m", "arch"], [" d", "a"], ["il", "der"], ["il", "ton"], [" B", "ure"], [" P", "a"], [" E", "U"], [" L", "og"], [" K", "it"], [" Ar", "med"], [" Ar", "min"], ["olog", "ically"], ["oth", "y"], [" inter", "ested"], ["cent", "er"], [" Col", "or"], ["15", "0"], ["augh", "ter"], [" see", "ing"], [" Mor", "oc"], [" Cast", "le"], [" crick", "et"], [" swe", "et"], [" sle", "ep"], [" comed", "ian"], [" Prin", "cess"], [" Mugh", "al"], [" sud", "den"], ["S", "outh"], ["T", "e"], ["g", "raph"], ["u", "ous"], ["it", "ely"], [" c", "atch"], ["om", "on"], [" T", "roy"], [" B", "BS"], [" M", "uch"], [" G", "ab"], [" F", "ire"], [" pro", "l"], ["og", "ene"], ["iz", "ers"], [" cont", "rad"], [" An", "imal"], [" j", "azz"], [" ph", "yl"], [" fl", "av"], [" ap", "opt"], [" Ind", "o"], [" cap", "ability"], [" less", "er"], [" Gu", "ide"], ["sc", "ript"], [" del", "iber"], [" High", "way"], [" Vol", "ume"], [" eas", "ier"], [" famil", "iar"], [" municip", "ality"], [" wealth", "y"], [" orb", "ital"], [" predomin", "antly"], [" Bus", "iness"], [" Child", "ren"], [" metab", "ol"], [" hors", "es"], ["A", "ct"], ["m", "outh"], ["\u00e9", "s"], [" s", "aint"], ["it", "us"], [" in", "fer"], [" f", "raction"], [" h", "yd"], [" C", "M"], [" M", "LB"], [" con", "ven"], [" L", "omb"], ["qu", "et"], ["ill", "er"], [" ch", "ains"], ["pl", "ane"], [" pre", "gn"], [" acc", "ord"], [" fl", "our"], [" dec", "is"], [" land", "ed"], [" Pr", "ussia"], ["196", "8"], [" turn", "ing"], [" compet", "itions"], [" ox", "ide"], [" Alban", "ians"], [" acqu", "is"], [" AS", "U"], [" Ah", "med"], [" arbit", "ration"], [" municipal", "ities"], [" schem", "e"], [" Mot", "or"], [" cous", "in"], [" ", "rif"], ["d", "are"], ["o", "il"], [" s", "outheast"], ["or", "um"], ["as", "er"], [" d", "ict"], [" h", "unt"], [" C", "ook"], [" st", "em"], [" H", "ere"], ["ay", "y"], ["and", "o"], [" D", "yn"], [" F", "il"], [" F", "ra"], [" W", "orks"], [" J", "osh"], [" ch", "ip"], [" wor", "st"], [" He", "in"], [" ev", "il"], ["aw", "n"], [" gener", "ate"], [" ant", "iquity"], [" term", "inal"], [" educ", "ated"], [" pri", "ests"], ["reg", "ular"], [" mer", "ger"], ["bor", "ough"], [" integ", "ration"], ["pro", "f"], [" conver", "t"], [" quant", "ity"], [" alle", "g"], [" mole", "cule"], [" farm", "ers"], [" wear", "ing"], [" pra", "ised"], [" Serb", "ian"], [" apost", "olic"], [" adopt", "ion"], ["Hung", "arian"], [" Finn", "ish"], [" entertain", "ment"], ["6", "00"], ["L", "ater"], ["T", "wo"], ["b", "urn"], ["p", "us"], [" s", "ave"], [" c", "el"], [" f", "ran"], [" T", "ok"], [" S", "aul"], [" g", "ang"], [" H", "ur"], [" con", "vin"], [" con", "crete"], ["ri", "um"], [" v", "e"], [" N", "ar"], [" In", "it"], ["ear", "ing"], [" int", "ers"], ["ron", "ikos"], [" He", "ad"], [" fl", "ows"], [" ob", "vious"], [" equ", "ations"], [" Pr", "incip"], [" child", "hood"], [" strong", "er"], [" 186", "1"], [" Other", "s"], [" star", "ring"], ["viron", "ments"], [" sec", "ular"], [" Mich", "igan"], [" complet", "ion"], [" Int", "el"], [" calcul", "ated"], [" ancest", "ry"], [" shell", "s"], [" oxid", "ation"], ["I", "P"], ["u", "j"], ["v", "ised"], ["w", "ald"], [" t", "one"], [" w", "ounded"], [" A", "round"], [" B", "it"], [" P", "ap"], [" L", "av"], [" N", "ature"], ["19", "50"], ["ren", "al"], [" ro", "of"], ["ath", "a"], [" ext", "end"], [" rep", "ublic"], ["eng", "er"], [" pass", "es"], [" cur", "ve"], [" gu", "ilty"], [" 189", "8"], [" south", "west"], [" battle", "field"], [" 186", "2"], [" market", "ing"], [" eth", "n"], [" circ", "ular"], [" Ca", "ucas"], ["ellig", "ence"], [" coin", "ed"], [" Law", "rence"], [" Olymp", "ics"], [" assist", "ant"], [" unc", "lear"], [" Bapt", "ists"], [" Arm", "strong"], [" Camp", "bell"], ["Mus", "ic"], [" Dar", "win"], [" restaur", "ants"], [" nort", "heast"], ["atab", "ase"], [" Rous", "simoff"], ["8", "4"], ["I", "M"], ["S", "im"], ["a", "ver"], ["h", "an"], ["p", "res"], ["y", "t"], [" t", "ested"], [" t", "urb"], [" o", "ct"], ["it", "o"], [" d", "ies"], [" d", "ens"], [" d", "imin"], [" h", "ill"], ["ou", "rag"], ["om", "ed"], ["ct", "ica"], [" B", "ard"], [" C", "er"], [" C", "ra"], ["am", "em"], ["et", "on"], [" for", "cing"], [" g", "rass"], ["ist", "a"], [" D", "ra"], [" de", "emed"], [" he", "ter"], ["qu", "er"], [" sh", "ield"], [" Th", "ose"], [" En", "vironment"], [" 4", "3"], ["eg", "ro"], [" 6", "00"], [" Ad", "ams"], [" study", "ing"], [" find", "s"], [" integ", "ral"], ["fl", "ow"], [" bor", "ough"], [" AT", "P"], [" Cap", "ital"], [" Squ", "are"], [" Od", "ys"], [" Marg", "aret"], [" Aff", "airs"], [" Griff", "in"], [" extens", "ively"], [" intermedi", "ate"], [" Syd", "ney"], [" pand", "emic"], [":", "#"], ["D", "em"], ["R", "ec"], ["T", "A"], ["b", "ec"], ["b", "olic"], ["m", "itt"], ["n", "ight"], ["s", "l"], [" T", "arkovsky"], ["ch", "o"], [" on", "going"], [" D", "al"], [" v", "oy"], [" N", "ow"], [" k", "id"], ["iz", "er"], ["te", "enth"], ["oin", "ting"], [" ra", "ys"], [" ass", "ert"], [" ind", "eed"], [" qu", "ad"], [" Re", "velation"], [" Pro", "te"], [" str", "ings"], [" lit", "urg"], [" dr", "ives"], ["put", "er"], [" Pat", "rick"], [" particip", "ation"], [" prec", "ise"], [" keep", "ing"], [" Bor", "neo"], [" anarch", "o"], [" Serv", "ices"], [" reserv", "e"], [" batter", "y"], ["ES", "CO"], [" newsp", "apers"], [" rival", "ry"], [" Ot", "to"], [" Oh", "io"], [" aber", "ration"], ["I", "S"], ["n", "atural"], [" the", "ological"], ["an", "as"], [" c", "aves"], ["ro", "le"], [" A", "ene"], [" T", "urn"], [" B", "our"], [" C", "old"], [" P", "ir"], ["ag", "g"], ["oc", "ent"], [" se", "es"], ["art", "ing"], [" un", "cle"], [" U", "pper"], [" en", "vironments"], [" j", "u"], [" cons", "ensus"], [" after", "wards"], ["ug", "osl"], [" eng", "age"], [" rest", "oration"], [" par", "ad"], ["writ", "ten"], ["ibr", "aries"], ["bor", "ne"], ["bre", "ak"], [" More", "over"], [" instrument", "al"], [" Ven", "us"], [" opport", "un"], [" Burg", "und"], [" pray", "er"], [" moder", "ate"], [" antidepress", "ants"], ["C", "ons"], ["h", "y"], ["n", "ik"], [" t", "ell"], [" s", "av"], [" c", "oun"], [" c", "aught"], [" f", "an"], [" p", "ill"], [" A", "K"], ["ch", "a"], [" M", "inn"], [" I", "C"], [" H", "erman"], [" J", "udaism"], ["oc", "ry"], [" O", "sc"], ["ast", "ron"], ["cl", "amation"], [" res", "idence"], [" dis", "hes"], ["ach", "ment"], [" pol", "yn"], [" trans", "formed"], [" tra", "ins"], [" develop", "ments"], [" inf", "ections"], [" govern", "ed"], [" Re", "al"], [" sm", "ooth"], [" const", "ellation"], [" det", "er"], [" cap", "ita"], [" person", "ality"], [" conf", "licts"], [" kill", "s"], [" Ber", "g"], [" er", "rors"], [" turn", "s"], [" Ben", "in"], [" recogn", "ised"], [" Mc", "G"], [" Pers", "ia"], [" Bos", "nian"], [" nomin", "ated"], [" rein", "force"], [" stru", "ggle"], [" Stan", "ley"], [" Cat", "hedral"], [" Babyl", "onian"], ["izz", "ard"], [" Indones", "ia"], [" memb", "rane"], [" casual", "ties"], ["E", "d"], ["M", "et"], ["h", "um"], ["r", "ins"], ["z", "es"], [" a", "mer"], ["en", "ess"], [" h", "ope"], ["el", "le"], ["ist", "ing"], [" al", "ive"], [" E", "ss"], [" D", "ragon"], [" W", "he"], ["oc", "ation"], ["oc", "ial"], [" un", "con"], [" V", "in"], [" te", "eth"], [" ro", "cks"], [" att", "ested"], ["20", "19"], [" acc", "us"], [" 4", "7"], ["ix", "on"], [" Am", "al"], [" Mar", "ine"], [" val", "leys"], [" dr", "iving"], [" real", "m"], [" 189", "9"], [" compet", "e"], [" poin", "ted"], [" cross", "ing"], [" reason", "ing"], [" fle", "w"], [" Wil", "helm"], [" recon", "struction"], [" Don", "ald"], [" possess", "ion"], [" provin", "cial"], [" How", "ard"], [" buzz", "ard"], [" Bow", "l"], [" trav", "elled"], [" Phill", "ip"], [" acknowled", "ged"], ["Austral", "ian"], [" Mesopotam", "ia"], ["u", "ag"], ["en", "cing"], [" b", "are"], [" to", "t"], [" d", "iamond"], [" h", "ang"], [" l", "ithium"], ["im", "ony"], [" M", "ult"], [" P", "ur"], [" se", "ctors"], ["rit", "is"], [" sp", "ending"], [" out", "d"], ["ail", "s"], [" up", "grad"], [" bl", "ind"], [" inv", "aded"], [" any", "one"], [" Ad", "obe"], ["yl", "an"], ["16", "01"], [" Be", "owulf"], ["aur", "us"], [" Ju", "an"], [" colle", "ges"], [" dev", "ast"], ["194", "4"], [" heav", "en"], ["lo", "ad"], [" bacter", "ial"], ["light", "en"], [" Rh", "ine"], [" Bach", "chan"], [" displ", "ays"], [" Encyclop", "edia"], ["B", "i"], ["E", "v"], ["P", "C"], ["c", "us"], ["m", "i"], ["r", "ines"], ["u", "er"], ["it", "ime"], [" d", "uty"], ["ou", "ri"], [" T", "ai"], [" B", "ordeaux"], ["ra", "ctions"], [" or", "al"], [" le", "af"], [" An", "axim"], [" gro", "ss"], ["att", "y"], [" Y", "ugosl"], [" do", "or"], [" char", "ter"], ["ann", "er"], [" And", "r\u00e9"], [" ins", "ert"], ["eng", "ths"], [" equ", "ipped"], [" mar", "ble"], [" cour", "ses"], [" human", "ity"], ["rain", "ing"], [" astron", "omers"], [" impro", "vements"], [" lay", "ers"], [" constit", "ute"], ["oz", "o"], [" heav", "ier"], [" get", "ting"], [" diss", "olved"], [" consequ", "ences"], [" connect", "ing"], [" conson", "ant"], [" exerc", "ise"], [" Amb", "ros"], [" config", "uration"], [" hyb", "rid"], ["amem", "non"], ["T", "ele"], ["m", "od"], [" o", "ste"], [" w", "et"], [" p", "ushed"], [" d", "rag"], [" B", "ert"], [" B", "uilding"], ["ch", "s"], ["et", "ween"], ["em", "et"], [" v", "o"], [" W", "in"], [" St", "ory"], ["ok", "er"], [" rec", "over"], [" ra", "ces"], [" inst", "ructions"], [" polit", "icians"], [" record", "ings"], [" conf", "usion"], [" pat", "ent"], [" cond", "ens"], [" Med", "ia"], [" bre", "aking"], ["Ch", "ar"], ["omer", "ang"], [" Jer", "em"], [" sac", "ram"], [" wind", "s"], [" theore", "tical"], [" alt", "itude"], [" Rob", "inson"], [" Uk", "rainian"], [" negot", "iations"], [" Alg", "iers"], [" restrict", "ions"], [" Brig", "ade"], [" doll", "ars"], [" earthqu", "ake"], [" Antigu", "a"], ["lighten", "ment"], ["g", "rim"], ["s", "ki"], [" t", "ick"], ["at", "osaurus"], [" in", "formed"], [" f", "aces"], [" h", "am"], ["il", "is"], [" S", "ut"], [" S", "ound"], [" M", "eanwhile"], [" H", "ong"], [" F", "amily"], ["ac", "hel"], ["og", "l"], [" K", "l"], [" V", "ideo"], ["ric", "e"], [" per", "f"], ["io", "ch"], [" Com", "ics"], [" Sp", "ring"], [" ret", "ain"], ["chn", "ology"], [" Mar", "ie"], [" Wh", "orf"], ["com", "es"], [" econom", "ist"], [" rev", "ised"], ["196", "5"], [" cr", "ash"], [" Med", "icine"], [" eth", "ics"], ["Is", "lam"], [" bound", "aries"], [" suggest", "ing"], [" virt", "ually"], [" mort", "ality"], [" sust", "ain"], ["hid", "harma"], ["M", "ilitary"], ["T", "alk"], ["t", "wo"], ["in", "ued"], [" s", "ick"], ["is", "a"], [" m", "oon"], ["ol", "en"], [" th", "rown"], [" B", "oy"], [" for", "b"], ["her", "ic"], [" G", "ene"], ["ian", "us"], [" F", "ern"], ["ag", "ne"], ["ri", "ors"], ["ant", "ed"], [" O", "k"], [" K", "im"], [" over", "t"], [" do", "ctor"], [" co", "at"], [" Af", "ro"], [" div", "or"], [" prot", "est"], ["icro", "bial"], [" Atlant", "is"], [" Reg", "ional"], [" ur", "anium"], [" phot", "ographs"], [" situ", "ations"], [" cust", "oms"], [" Rob", "in"], [" doub", "t"], [" accur", "acy"], [" challeng", "ed"], [" ans", "wer"], [" aest", "hetic"], [" jurisd", "iction"], [" ere", "cted"], [" Mun", "ich"], [" convin", "ced"], [".", "'"], ["M", "embers"], ["a", "an"], ["m", "aker"], ["t", "r"], ["v", "ens"], [" t", "ape"], [" a", "rose"], ["es", "ter"], [" m", "iles"], [" m", "inisters"], ["il", "st"], [" B", "ug"], [" g", "ri"], [" P", "ont"], [" G", "ard"], ["rom", "atic"], [" K", "at"], ["ph", "an"], [" per", "ception"], ["ose", "xual"], [" De", "ad"], [" supp", "lied"], [" fe", "ast"], ["ex", "p"], [" ed", "itions"], ["An", "g"], [" Roman", "ia"], [" par", "ks"], ["196", "7"], [" Gu", "y"], [" 186", "7"], ["195", "4"], [" civil", "ian"], [" administ", "ered"], [" maint", "ains"], ["AT", "O"], [" burn", "ing"], [" battles", "hip"], [" cru", "cial"], [" Sol", "zhenitsyn"], [" museum", "s"], [" Maced", "onian"], ["urrent", "ly"], [" Antar", "ctica"], ["Trans", "port"], [" neighbour", "ing"], ["1", "20"], ["\u00e1", "l"], ["or", "i"], [" f", "reed"], [" A", "V"], [" h", "az"], [" th", "inking"], [" M", "ack"], [" M", "ans"], ["ter", "bury"], [" H", "uxley"], ["oc", "ese"], [" Am", "way"], [" ent", "ering"], [" mon", "k"], [" Ad", "vanced"], [" Fran", "z"], ["arm", "al"], [" Pl", "us"], [" par", "as"], [" sk", "ill"], [" surv", "ival"], ["opp", "ing"], [" dyn", "amic"], [" Azerbaijan", "i"], [" box", "er"], [" recomm", "end"], [" pian", "o"], [" column", "s"], [" subm", "itted"], [" Babyl", "on"], [" partners", "hip"], [" repeated", "ly"], ["e", "u"], ["p", "ur"], [" a", "head"], ["is", "ations"], ["al", "though"], ["ar", "ov"], [" b", "en"], [" g", "am"], ["od", "ia"], ["od", "ore"], [" ex", "clud"], ["ill", "o"], ["ak", "i"], ["ip", "es"], [" not", "ice"], [" An", "kara"], [" all", "oys"], ["ile", "y"], ["erv", "e"], ["we", "ight"], ["oin", "ts"], [" fl", "ower"], [" trans", "p"], [" De", "c"], [" pos", "it"], [" add", "ressed"], [" Ind", "ies"], ["els", "on"], ["yl", "us"], ["conom", "y"], [" Can", "terbury"], [" Ag", "ent"], [" requ", "ested"], [" soc", "ieties"], [" Pol", "ice"], ["196", "1"], [" invol", "vement"], [" aut", "onomous"], ["194", "2"], [" Mc", "D"], [" pers", "pective"], ["opp", "y"], [" sport", "sc"], [" Confeder", "ation"], [" deep", "ly"], [" exc", "ell"], [" Squ", "adron"], [" Norm", "an"], [" inse", "cts"], [" thir", "ty"], ["lik", "ely"], [" asym", "pt"], [" Barn", "ard"], ["W", "ar"], ["r", "ish"], [" t", "ip"], ["at", "hered"], [" f", "rog"], [" S", "aints"], [" C", "reed"], ["ch", "ron"], ["ut", "t"], [" g", "one"], [" P", "oint"], [" st", "roke"], [" R", "est"], [" W", "inter"], [" \"", "["], ["ab", "out"], [" ex", "ha"], ["qu", "ir"], [" pl", "ain"], ["per", "ors"], ["out", "heastern"], [" en", "orm"], ["rib", "e"], ["att", "an"], [" tr", "iang"], [" def", "ended"], [" co", "operation"], [" ant", "ic"], [" Bl", "ues"], [" back", "up"], [" import", "ed"], [" mar", "ry"], [" His", "pan"], [" Ed", "in"], [" sol", "ve"], [" ep", "id"], [" der", "ives"], ["eth", "yl"], [" 187", "0"], ["195", "8"], [" Israel", "ites"], [" Colle", "ction"], [" cover", "age"], [" antib", "ody"], [" Stud", "y"], [" Aut", "o"], [" Jud", "ah"], ["ois", "ier"], [" UN", "ESCO"], [" stay", "ed"], ["angel", "ical"], [" Fal", "cons"], [" Mov", "ement"], ["establ", "ished"], [" kil", "omet"], [" sportsc", "aster"], ["B", "ecause"], ["R", "ep"], ["S", "ub"], ["v", "et"], ["y", "cl"], [" t", "ub"], [" t", "ribut"], ["on", "i"], ["re", "le"], ["re", "ct"], [" f", "ix"], [" f", "iring"], [" m", "ild"], [" S", "in"], [" for", "th"], [" g", "ases"], [" P", "il"], [" N", "ATO"], ["qu", "is"], [" un", "em"], [" K", "os"], ["\n ", "        "], [" Al", "t"], [" Ar", "ctic"], ["ans", "k"], ["eg", "a"], [" pop", "ulated"], [" spec", "imen"], [" imp", "osed"], [" sing", "ers"], [" public", "ations"], ["ator", "ies"], [" Comm", "ander"], [" opp", "osing"], [" adv", "ances"], [" ter", "rain"], [" ident", "ification"], [" prot", "ests"], [" vol", "unte"], [" 189", "5"], [" z", "inc"], [" Des", "ign"], [" trib", "al"], [" integ", "er"], [" manufact", "ured"], [" jud", "gment"], [" opt", "im"], [" Ca", "uchy"], [" correspond", "ence"], [" spect", "ral"], [" psych", "ological"], [" box", "ing"], [" ancest", "or"], [" pron", "unciation"], [" Jac", "ques"], [" Card", "inals"], [" vess", "el"], [" bicy", "cle"], ["role", "um"], ["f", "ast"], ["m", "ates"], [" a", "f"], ["on", "to"], [" s", "oph"], [" w", "ire"], [" b", "le"], [" b", "ricks"], [" f", "ur"], [" p", "owered"], [" m", "a"], [" to", "wer"], [" T", "ower"], [" B", "ey"], [" n", "odes"], ["et", "ry"], ["ist", "ers"], [" H", "oll"], [" F", "el"], [" r", "ice"], ["ell", "ows"], [" K", "am"], ["19", "14"], ["In", "ter"], [" en", "cl"], ["rough", "s"], [" 5", "1"], ["the", "l"], [" ret", "ail"], [" ext", "ant"], [" ent", "ity"], [" bel", "t"], [" Fran", "\u00e7"], [" rele", "vant"], [" regard", "less"], [" Arch", "bishop"], ["omp", "son"], [" fall", "s"], [" maint", "aining"], [" particip", "ants"], [" jud", "ges"], [" travel", "ed"], [" Mount", "ain"], [" subs", "et"], [" Ven", "ice"], [" Mat", "hem"], [" Matt", "hew"], [" Conserv", "ative"], [" od", "d"], [" Pot", "ter"], [" curren", "cy"], [" unsuccess", "ful"], [" alchem", "y"], [" liv", "estock"], ["optery", "x"], [" amer", "icium"], [" ", ">"], ["c", "ourse"], ["g", "ments"], ["h", "az"], ["n", "umber"], ["ic", "ity"], [" p", "ap"], ["le", "ctions"], [" B", "ud"], [" B", "ali"], ["th", "al"], [" R", "ose"], [" D", "\u00fcrer"], ["od", "ing"], [" F", "at"], [" pro", "claimed"], [" se", "venth"], [" un", "ity"], [" K", "ant"], [" K", "elly"], [" ob", "st"], [" prov", "en"], [" eff", "iciency"], [" rep", "roduction"], [" 7", "00"], ["ene", "z"], [" small", "est"], [" det", "ected"], [" US", "A"], [" bo", "at"], [" 189", "6"], ["itect", "ure"], [" clos", "est"], [" Mary", "land"], [" legisl", "ature"], [" Haw", "ai"], ["Be", "fore"], [" labor", "atory"], [" fair", "ly"], [" challeng", "es"], [" bul", "k"], [" Eth", "iop"], [" advert", "ising"], [" Fa", "ith"], ["Leg", "acy"], [" Hind", "i"], [" tren", "d"], [" volcan", "ic"], [" Cyp", "rus"], [" surg", "ery"], [" Flore", "nce"], ["C", "omm"], ["c", "are"], ["m", "un"], ["t", "ain"], ["al", "in"], [" c", "odes"], [" h", "at"], [" S", "ym"], [" B", "ou"], [" C", "ulture"], ["iv", "ate"], ["ot", "on"], ["ot", "us"], ["ul", "ator"], [" The", "ory"], [" pro", "x"], ["av", "is"], [" O", "bs"], [" K", "on"], [" ar", "ist"], [" An", "na"], ["ue", "z"], [" j", "un"], [" ext", "ends"], [" ent", "ities"], ["lect", "ric"], [" vis", "iting"], [" dem", "ocratic"], [" top", "ic"], [" mot", "if"], [" coll", "aps"], [" gra", "ce"], [" speed", "s"], [" agre", "ements"], [" bomb", "ing"], [" Est", "her"], [" termin", "ology"], [" Mic", "hel"], [" denomin", "ations"], [" Moh", "am"], [" cloth", "ing"], [" Nich", "olas"], ["iffer", "ent"], [" opportun", "ities"], ["B", "er"], ["B", "ack"], ["E", "astern"], ["S", "R"], [" o", "ra"], ["ar", "row"], [" f", "iles"], [" p", "agan"], [" A", "x"], ["le", "te"], [" h", "oney"], [" e", "ighth"], [" g", "ly"], [" con", "sole"], [" F", "ri"], [" L", "amb"], ["all", "as"], [" r", "u"], [" pl", "ates"], ["ust", "ion"], ["ack", "er"], ["ob", "by"], [" reg", "ulation"], ["att", "i"], [" under", "lying"], [" gener", "ations"], [" prov", "ision"], [" ent", "hus"], ["ann", "els"], [" On", "tar"], ["arm", "s"], [" equ", "ally"], [" person", "ally"], [" All", "osaurus"], [" rece", "ives"], ["sp", "an"], [" Sm", "all"], ["ta", "ic"], [" ste", "am"], [" AS", "L"], [" measure", "ment"], [" kingdom", "s"], [" rain", "fall"], [" axi", "oms"], [" tun", "nel"], [" nerv", "ous"], [" predecess", "or"], [" guid", "ance"], [" Ontar", "io"], ["I", "N"], ["J", "apan"], ["Q", "u"], ["a", "ire"], ["m", "und"], ["w", "ers"], ["er", "b"], ["at", "on"], [" l", "i"], [" B", "enn"], [" I", "v"], [" G", "arden"], [" 2", "50"], [" F", "rid"], [" or", "g"], [" K", "om"], ["19", "20"], ["ib", "et"], ["hen", "tic"], [" Th", "or"], [" Th", "ompson"], [" sp", "elling"], [" ele", "vation"], ["ah", "n"], [" there", "after"], [" co", "eff"], [" Le", "ban"], ["ann", "i"], [" consid", "ering"], [" Ag", "amemnon"], [" organ", "isation"], ["ove", "let"], [" ast", "atine"], [" North", "west"], [" dem", "ands"], [" treat", "ments"], [" vol", "unt"], ["eth", "oven"], [" compet", "itive"], [" enc", "ourag"], [" 187", "4"], [" emer", "gency"], [" sequ", "ences"], [" Fin", "ally"], ["ographer", "s"], [" diplom", "at"], [" pict", "ures"], [" corn", "er"], [" encounter", "ed"], [" Well", "ington"], [" occas", "ions"], [" rom", "antic"], [" autob", "iography"], [" cul", "min"], [" Edin", "burgh"], [" ", "\u03b2"], ["B", "N"], ["S", "m"], ["T", "O"], ["h", "im"], ["u", "um"], ["an", "cer"], ["is", "k"], ["it", "an"], ["it", "ary"], [" b", "enz"], [" p", "ale"], [" d", "ense"], [" h", "arsh"], ["st", "ar"], [" n", "inet"], ["us", "ually"], [" C", "u"], [" M", "ig"], [" I", "g"], [" se", "eds"], [" un", "likely"], [" K", "ings"], [" comp", "rom"], [" Ch", "urches"], ["und", "i"], [" app", "rec"], [" under", "ground"], [" fl", "owers"], [" fe", "athers"], [" Sc", "and"], [" appro", "ached"], ["udd", "y"], [" May", "or"], [" real", "ized"], ["off", "icial"], [" 189", "1"], [" consist", "ently"], ["asc", "a"], [" remov", "al"], [" burn", "ed"], [" impl", "ies"], [" Arian", "e"], [" nickn", "ame"], ["uber", "cul"], [" Pit", "ts"], [" manif", "est"], [" retire", "ment"], ["L", "ife"], ["M", "e"], ["P", "ort"], ["h", "op"], ["h", "ydro"], ["o", "om"], ["p", "re"], [" c", "ash"], ["ar", "o"], [" A", "venue"], ["om", "ot"], [" l", "ung"], ["ch", "ar"], ["ig", "e"], [" I", "an"], [" I", "ron"], [" by", "tes"], ["um", "ph"], [" D", "ylan"], [" F", "M"], [" L", "ocal"], [" le", "x"], ["up", "iter"], [" sc", "ope"], [" ele", "ctoral"], [" col", "ours"], [" def", "ines"], ["uro", "chs"], [" det", "ection"], [" Col", "omb"], [" Pr", "ussian"], [" read", "ily"], [" head", "s"], [" top", "ics"], ["194", "6"], [" liter", "ally"], ["part", "y"], [" look", "ed"], [" cart", "oon"], ["level", "and"], [" yield", "s"], ["ez", "id"], [" mart", "ial"], [" Sic", "ily"], [" \u02bb", "Abdu"], [" Josh", "ua"], [" ", "\u2192"], ["L", "atin"], ["N", "ov"], ["P", "ublic"], ["]", ","], ["f", "ounded"], ["w", "ord"], [" t", "ort"], ["an", "im"], ["es", "ota"], ["or", "ge"], [" m", "arsh"], [" re", "ly"], [" l", "ift"], ["un", "ning"], [" for", "g"], [" I", "ber"], [" H", "orn"], [" R", "ab"], ["est", "ial"], [" v", "ital"], [" V", "el"], ["oll", "a"], ["orm", "al"], [" pre", "st"], [" ag", "ency"], [" over", "th"], [" sub", "mar"], [" 5", "4"], [" system", "atic"], [" Ind", "ians"], ["omet", "ric"], [" med", "ian"], [" Comm", "odore"], ["sh", "aped"], [" beh", "alf"], [" cal", "endar"], [" compet", "ing"], [" tri", "ple"], [" star", "red"], [" respect", "ive"], [" Tr", "inity"], [" phot", "os"], [" Mah", "\u0101"], [" compar", "able"], [" perm", "ission"], [" recon", "st"], [" interpret", "ations"], [" ut", "ility"], [" depend", "ence"], [" mel", "ting"], [" tiss", "ues"], [" Fle", "et"], [" Goth", "ic"], ["die", "ck"], [" Univers", "al"], [" horizon", "tal"], [" Capt", "ain"], ["ancell", "or"], [" ", "rib"], ["G", "od"], ["N", "orth"], ["O", "H"], ["V", "D"], ["b", "at"], ["h", "istor"], ["s", "ince"], [" t", "ube"], ["as", "man"], ["st", "ed"], [" T", "en"], [" th", "r"], ["im", "ir"], [" M", "eh"], ["ist", "ically"], [" P", "olic"], ["um", "ps"], [" R", "hod"], [" G", "ospel"], [" D", "ennis"], ["ong", "ue"], [" Al", "ien"], [" sp", "end"], ["we", "h"], [" He", "art"], [" att", "itude"], [" ear", "n"], [" qu", "oted"], ["yp", "ical"], [" pract", "iced"], [" [", "#"], ["194", "0"], ["194", "7"], [" Tur", "ks"], [" 188", "2"], [" fac", "ulty"], [" access", "ible"], [" sec", "ured"], ["year", "s"], [" defin", "itions"], [" Aber", "dare"], [" sens", "itive"], ["aud", "i"], [" Gra", "ce"], ["imens", "ions"], [" Mos", "que"], ["then", "dieck"], [" Jim", "my"], [" Phoen", "ix"], [" dismiss", "ed"], ["ynt", "hesis"], [" precip", "itation"], [" Bohem", "ia"], [" tempor", "arily"], [" Minn", "esota"], ["M", "on"], ["S", "te"], ["W", "est"], ["f", "ah"], ["j", "ack"], ["m", "ath"], ["m", "atic"], ["p", "it"], ["s", "a"], ["t", "us"], ["\u00f6", "t"], [" t", "ies"], [" s", "izes"], [" s", "aints"], [" w", "isdom"], [" c", "ock"], [" b", "ol"], [" in", "eff"], [" f", "ract"], [" m", "aps"], ["st", "ring"], ["il", "ic"], [" l", "akes"], [" 1", "10"], [" B", "und"], [" C", "reek"], [" st", "ores"], [" H", "ous"], [" v", "it"], ["oc", "l"], [" man", "ual"], [" en", "able"], [" ra", "w"], [" def", "ining"], [" tem", "ples"], [" hand", "le"], [" dem", "ocracy"], [" bo", "iling"], [" arg", "uing"], [" separ", "ately"], [" 189", "7"], ["194", "3"], [" miss", "ing"], [" ser", "ial"], [" Tr", "ust"], [" civil", "ization"], [" Pri", "or"], [" Qu", "arter"], [" emer", "gence"], [" wind", "ow"], ["cles", "iast"], [" card", "inal"], [" inn", "ings"], [" inh", "abited"], [" coin", "s"], [" Champions", "hips"], ["tra", "ck"], [" mut", "ual"], [" revolution", "ary"], [" Gall", "ery"], [" neighbor", "ing"], ["agh", "d"], [" verte", "b"], [" furn", "iture"], [" vulner", "able"], [" ", "\u00c1"], ["N", "T"], ["W", "orks"], ["d", "isc"], ["\u00f3", "k"], [" s", "ending"], [" w", "avel"], [" b", "ore"], [" S", "r"], [" C", "IA"], [" I", "li"], ["if", "ier"], ["ard", "o"], ["og", "le"], ["ord", "ination"], [" St", "aling"], ["ib", "ilities"], [" cont", "ribute"], [" int", "ense"], [" y", "ards"], [" 18", "40"], [" j", "oy"], ["ubl", "ished"], ["ark", "ed"], [" ph", "one"], [" app", "lies"], ["cre", "en"], [" may", "or"], ["uc", "lear"], [" bl", "ocks"], [" Ap", "oll"], [" eff", "ic"], [" car", "riers"], [" desc", "ended"], [" ref", "lection"], [" min", "imal"], [" fun", "eral"], [" conf", "irm"], [" dem", "anded"], [" cr", "imes"], [" Ant", "i"], ["ows", "ki"], [" 186", "8"], [" z", "ones"], [" pen", "alty"], [" Del", "ta"], [" adj", "ust"], [" consequ", "ence"], [" depart", "ure"], [" collabor", "ation"], [" Fle", "ming"], [" Coll", "ins"], [" voc", "als"], [" Represent", "atives"], [" Staling", "rad"], [".", ")."], ["C", "A"], ["E", "instein"], ["P", "art"], ["d", "el"], ["u", "zz"], ["w", "oman"], ["\u00e9", "m"], ["\u00fc", "n"], ["on", "ly"], [" c", "ub"], [" c", "app"], [" an", "th"], ["as", "ury"], [" h", "orm"], ["ent", "ieth"], [" S", "ul"], [" l", "iver"], ["ol", "ph"], [" M", "obile"], [" g", "irls"], [" st", "ones"], ["th", "rough"], [" R", "out"], [" G", "uth"], [" L", "in"], [" ch", "annels"], ["end", "ment"], [" K", "armal"], [" ar", "cher"], [" ab", "road"], ["act", "ic"], [" en", "act"], ["ail", "ing"], [" ra", "y"], ["20", "22"], ["ern", "er"], [" Am", "es"], [" inf", "lation"], [" car", "b"], ["ox", "ide"], [" consid", "ers"], [" cor", "ruption"], ["ollo", "qu"], [" camp", "s"], [" activ", "ists"], [" prof", "it"], [" prof", "ile"], [" Cal", "vin"], [" ep", "ic"], [" 186", "5"], [" impro", "vement"], ["195", "5"], [" fac", "ing"], [" fall", "ing"], [" batt", "ing"], [" Barb", "uda"], [" esc", "aped"], [" legisl", "ative"], [" Mag", "azine"], [" neut", "ron"], [" Kn", "ight"], [" Bir", "th"], [" abol", "ished"], [" fil", "ter"], [" Var", "ious"], [" abund", "ant"], ["Polit", "ical"], [" buff", "er"], [" Supp", "ort"], ["ucc", "i"], [" holid", "ay"], ["0", "5"], ["B", "est"], ["P", "A"], ["e", "ous"], ["f", "act"], ["h", "ar"], ["i", "ab"], ["p", "iece"], ["y", "ria"], [" f", "iled"], [" A", "F"], ["il", "ateral"], [" S", "pect"], ["ol", "an"], ["et", "a"], ["id", "ium"], [" g", "athered"], [" G", "on"], [" W", "W"], [" W", "right"], [" r", "id"], [" ch", "ap"], [" sh", "ore"], ["ok", "ing"], [" bet", "a"], [" inter", "f"], [" spec", "imens"], ["az", "ines"], [" disc", "rim"], [" will", "ing"], [" Wh", "o"], ["ull", "ah"], [" min", "ute"], [" did", "n"], ["ole", "an"], [" aff", "air"], [" bo", "omerang"], ["writ", "ing"], [" engine", "ers"], [" creat", "ive"], [" celeb", "ration"], [" cust", "omers"], [" categ", "or"], [" Pet", "ers"], [" hypot", "hes"], ["Se", "cond"], [" Ham", "ilton"], [" mill", "ennium"], ["stan", "bul"], [" disput", "es"], [" susp", "ended"], [" Commun", "ion"], [" dub", "bed"], [" Manu", "el"], [" ", "ic"], ["B", "ase"], ["C", "ent"], ["P", "ost"], ["R", "o"], ["p", "os"], [" a", "ort"], [" o", "l"], [" s", "ack"], [" f", "inger"], [" d", "ream"], [" h", "oly"], [" B", "urn"], [" n", "inth"], [" C", "ub"], [" C", "urt"], [" M", "arl"], [" I", "SO"], [" g", "if"], [" E", "vent"], [" pro", "ton"], [" de", "ity"], [" de", "ities"], [" N", "ation"], [" N", "ort"], ["og", "ram"], [" K", "ra"], ["rit", "ion"], ["ap", "ul"], [" sh", "aped"], [" sh", "arp"], [" cons", "olid"], [" rel", "ativity"], [" inter", "vention"], [" pres", "ents"], [" 5", "6"], [" gener", "als"], [" Her", "bert"], [" proper", "ly"], [" vol", "t"], [" dest", "ination"], [" Ant", "ioch"], [" compos", "ers"], ["193", "6"], [" 187", "6"], [" Co", "oper"], [" commercial", "ly"], [" Mal", "ays"], [" transm", "itted"], ["And", "alus"], [" friends", "hip"], [" Aal", "to"], [" lat", "est"], [" lie", "utenant"], [" cryst", "al"], [" Are", "a"], [" Archae", "opteryx"], [" conj", "ug"], [" theolog", "ian"], [" orient", "ation"], ["Sax", "on"], ["enez", "uel"], ["C", "D"], ["C", "al"], ["T", "ur"], ["b", "ound"], ["f", "ish"], ["w", "as"], ["in", "is"], [" the", "ater"], [" s", "a"], [" w", "el"], ["le", "ft"], [" h", "ills"], [" T", "iber"], [" S", "akh"], [" B", "ee"], [" C", "ry"], [" C", "leveland"], [" st", "ops"], ["ian", "o"], [" pro", "sec"], [" L", "ock"], [" L", "oyal"], ["ag", "ger"], [" or", "th"], [" J", "upiter"], [" un", "ex"], ["\n ", " "], ["ph", "alt"], [" ab", "oard"], [" dis", "aster"], [" j", "ack"], [" rel", "atives"], [" reg", "ulations"], [" pres", "idency"], [" design", "ers"], [" 9", "9"], ["let", "ch"], ["yd", "os"], [" Ed", "d"], ["che", "l"], [" redu", "ces"], [" mass", "es"], [" help", "ing"], ["umb", "ers"], [" command", "s"], [" certain", "ly"], ["193", "0"], ["195", "6"], ["195", "9"], [" compan", "ion"], [" except", "ions"], [" ord", "ained"], [" mag", "ic"], [" aud", "iences"], [" disp", "ers"], [" controll", "er"], [" Bron", "ze"], [" Gra", "ham"], [" AT", "A"], [" Int", "elligence"], [" Confeder", "acy"], [" round", "s"], [" Tim", "ur"], [" accomp", "any"], [" evolution", "ary"], [" aer", "odyn"], [" ce", "ased"], [" rh", "ythm"], [" assemb", "led"], [" Scient", "ific"], [" empt", "y"], ["olith", "ic"], [" Color", "ado"], [" Pitts", "burgh"], ["A", "B"], ["H", "er"], ["S", "he"], ["d", "r"], ["e", "or"], ["k", "ar"], ["es", "pecially"], [" b", "ind"], [" p", "in"], ["ro", "id"], ["id", "el"], ["ist", "ence"], [" H", "ut"], ["th", "ood"], [" R", "oth"], [" G", "as"], [" L", "ion"], [" L", "if"], [" L", "atter"], [" J", "ason"], ["ant", "u"], ["ore", "n"], ["og", "an"], [" le", "ather"], [" St", "ra"], ["ub", "b"], ["ub", "ay"], [" rel", "ating"], [" ra", "ising"], [" 4", "6"], [" em", "bra"], ["iel", "der"], ["az", "a"], [" war", "riors"], [" ins", "urance"], [" Be", "ethoven"], [" even", "ing"], [" gu", "ide"], [" dem", "ol"], [" el", "ite"], [" down", "town"], [" 189", "3"], ["194", "8"], [" 186", "3"], [" 188", "9"], [" imm", "un"], [" multip", "lication"], [" integ", "ers"], [" speak", "er"], ["For", "mer"], [" correspond", "s"], [" psych", "iat"], [" preserv", "e"], [" AI", "X"], [" citiz", "en"], [" alt", "ru"], [" cart", "ridge"], [" uniform", "s"], [" lic", "ense"], ["Ge", "ography"], [" foss", "ils"], [" AG", "P"], [" decor", "ated"], [" abb", "ot"], [" prohib", "ited"], [" Spart", "a"], [" Yah", "weh"], [" Pu", "erto"], [" battlecru", "isers"], [" subur", "bs"], ["ubercul", "osis"], [" ", "\u20ac"], ["R", "ahman"], ["d", "est"], ["g", "ame"], ["en", "cer"], [" b", "otan"], [" l", "ighter"], [" B", "ed"], [" M", "am"], [" R", "oc"], [" G", "un"], [" D", "J"], [" \"", "..."], [" se", "vent"], ["ber", "ts"], ["ap", "ing"], ["ap", "ore"], [" per", "pet"], [" Se", "ville"], [" tra", "ce"], [" Ap", "atosaurus"], [" no", "ise"], [" add", "s"], [" dist", "ances"], ["az", "ing"], [" Le", "o"], [" ext", "ending"], ["yp", "ically"], [" Fran", "ces"], ["til", "a"], ["amed", "a"], ["com", "mon"], [" expl", "oration"], [" prom", "ise"], [" represent", "atives"], [" Man", "agement"], [" Man", "chester"], [" Hen", "ri"], [" lack", "ed"], [" stri", "kes"], ["At", "l"], ["onn", "es"], [" Liber", "als"], [" Av", "iation"], ["lo", "o"], [" Vict", "or"], [" ir", "regular"], [" bomb", "ard"], [" assist", "ed"], [" Sar", "ah"], [" belong", "ing"], [" alter", "ed"], [" tact", "ics"], [" delay", "ed"], ["chang", "ed"], [" corpor", "ate"], [" Lie", "utenant"], ["Alf", "onso"], [" Anders", "son"], [" Administ", "ration"], [" Recon", "struction"], [" Ll", "oyd"], [" enorm", "ous"], ["ansk", "rit"], ["g", "ent"], ["l", "av"], ["m", "it"], ["p", "rop"], [" t", "in"], ["er", "on"], [" s", "ession"], ["al", "ign"], [" c", "hest"], [" in", "k"], [" f", "ighter"], ["ing", "ham"], [" A", "ra"], [" d", "op"], [" T", "ob"], [" B", "au"], [" B", "andy"], ["et", "ically"], [" st", "yl"], [" H", "es"], [" D", "od"], [" se", "ized"], [" K", "o"], ["19", "18"], ["cc", "a"], [" Ch", "annel"], [" Al", "aric"], [" int", "ensity"], [" V", "og"], [" all", "oy"], [" te", "en"], [" sp", "here"], ["ath", "ing"], [" pe", "as"], [" 5", "3"], [" rem", "ote"], [" inst", "ances"], [" sur", "pass"], ["az", "ar"], [" mov", "ies"], [" 8", "00"], [" period", "ic"], [" exper", "t"], [" 14", "0"], [" last", "ing"], [" resp", "ir"], [" crit", "eria"], [" obs", "c"], [" pract", "ition"], [" Ex", "change"], [" Oct", "avian"], [" priv", "ile"], [" log", "ical"], [" emer", "ging"], [" prevent", "ing"], [" prec", "urs"], [" sett", "ings"], [" prior", "ity"], [" assum", "ption"], [" comment", "ed"], [" fort", "ress"], [" secret", "ary"], [" Elect", "ric"], [" withd", "rew"], [" Tro", "jan"], [" hop", "ed"], [" Croat", "ia"], [" inher", "ited"], [" Ili", "ad"], ["A", "G"], ["C", "H"], ["O", "per"], ["O", "ff"], ["h", "al"], ["m", "ail"], ["t", "em"], ["w", "hel"], ["z", "b"], [" t", "ar"], ["or", "b"], ["al", "og"], ["ar", "io"], [" b", "ars"], [" f", "action"], [" f", "asc"], ["il", "ia"], [" l", "es"], ["ol", "ars"], ["ad", "y"], ["ot", "ten"], [" M", "i"], [" M", "aj"], [" P", "le"], [" R", "a"], [" R", "io"], [" F", "ab"], ["est", "one"], [" un", "st"], [" comp", "rises"], [" ab", "elian"], [" cons", "pir"], [" ac", "ute"], [" act", "ed"], [" inter", "v"], [" fl", "own"], [" govern", "ing"], [" dire", "ctions"], ["enn", "ial"], [" similar", "ities"], [" prot", "otype"], [" Ac", "ropolis"], [" aut", "hentic"], [" 187", "5"], [" 187", "8"], [" crew", "ed"], [" alk", "anes"], ["asc", "ular"], [" Miss", "ouri"], [" Ann", "ual"], [" Ev", "ans"], [" Lab", "s"], [" immig", "ration"], [" attend", "ance"], [" antim", "ony"], [" cab", "inet"], ["agu", "ar"], [" Acc", "rington"], [" assass", "ination"], [" Jos", "\u00e9"], [" Bast", "arn"], ["ethe", "less"], [" announ", "ce"], ["emet", "ery"], [" soph", "istic"], [" Scand", "in"], ["apul", "co"], [" ", "\u2020"], ["'", "d"], ["M", "Hz"], ["b", "led"], ["o", "ons"], [" t", "ut"], ["it", "ol"], [" c", "argo"], [" re", "verse"], ["il", "ation"], ["ur", "i"], ["ur", "us"], [" g", "ift"], [" P", "sych"], ["ow", "ing"], [" R", "ub"], [" R", "ash"], [" D", "aily"], [" F", "isher"], [" L", "ions"], [" v", "ig"], [" com", "ments"], ["pt", "on"], [" un", "w"], [" K", "\u00f6"], ["are", "st"], [" Th", "om"], ["ject", "ive"], [" gener", "a"], [" art", "if"], [" car", "ved"], [" car", "ries"], [" hum", "id"], [" dr", "ummer"], [" aut", "umn"], [" appear", "ing"], [" Cal", "iph"], ["194", "9"], [" ge", "ographical"], [" 188", "1"], [" Per", "u"], [" vict", "ories"], ["De", "aths"], [" /", "/"], [" proport", "ional"], [" honor", "ary"], [" Do", "ctor"], [" mill", "ions"], [" feed", "ing"], [" exclus", "ive"], [" cogn", "itive"], [" Pash", "a"], [" Run", "ner"], [" accompl", "ished"], [" chair", "man"], [" Method", "ist"], [" gal", "ax"], [" rab", "b"], [" enforce", "ment"], [" Bure", "au"], [" apopt", "osis"], ["\"", ":"], ["'", "'"], ["'", "re"], ["H", "ead"], ["V", "ID"], ["h", "attan"], ["s", "elling"], ["v", "ia"], [" t", "um"], [" t", "ight"], ["in", "f"], [" the", "at"], [" s", "am"], [" m", "ine"], [" d", "oses"], [" d", "inosaur"], [" d", "ancer"], ["ou", "ver"], ["el", "ace"], [" S", "ite"], [" l", "ib"], ["ol", "ving"], [" M", "S"], [" I", "van"], ["ac", "ular"], [" de", "aling"], [" W", "es"], [" com", "fort"], [" J", "un"], [" r", "um"], ["og", "ens"], [" sh", "apes"], [" Th", "ir"], ["ound", "ing"], [" out", "come"], [" co", "ff"], [" high", "way"], [" mon", "uments"], [" war", "ning"], ["ograph", "ies"], [" 9", "5"], ["ival", "di"], [" vers", "es"], [" mark", "ing"], ["ze", "k"], [" every", "one"], ["rican", "e"], ["cul", "ine"], [" strong", "est"], [" Mor", "ris"], [" fall", "en"], [" ser", "ver"], [" Bur", "roughs"], [" stri", "king"], [" squ", "ad"], ["uff", "icient"], ["fl", "ight"], [" dig", "it"], ["iform", "es"], ["De", "ath"], [" Alc", "ott"], [" citizens", "hip"], [" absor", "bed"], [" Mo", "ore"], [" isot", "ope"], [" Kent", "ucky"], [" Engine", "ering"], [" shif", "ted"], [" complic", "ated"], [" Hellen", "istic"], [" Bard", "ot"], ["rins", "ic"], ["A", "ber"], ["L", "anguages"], ["R", "ad"], ["m", "ade"], ["s", "y"], ["u", "y"], ["y", "on"], ["in", "ery"], ["re", "b"], ["il", "er"], [" S", "n"], [" S", "oph"], [" l", "ake"], [" C", "ode"], [" g", "ent"], ["and", "al"], ["and", "ra"], [" L", "ett"], [" or", "n"], ["rom", "agn"], [" J", "am"], [" r", "ings"], [" pl", "acing"], [" dis", "app"], [" Un", "iverse"], [" sc", "oring"], [" em", "ission"], [" tra", "ject"], [" polit", "ically"], [" Bl", "ake"], [" she", "ep"], [" And", "es"], [" prom", "oting"], [" gl", "ob"], [" aff", "ord"], ["writ", "ers"], [" tw", "in"], ["ming", "ham"], ["193", "5"], ["ev", "o"], [" nucle", "i"], [" Sur", "vey"], [" Hel", "en"], [" Alger", "ian"], ["comm", "unications"], [" Marc", "us"], [" Independ", "ent"], [" phon", "em"], [" pref", "ixes"], [" cra", "fts"], [" calc", "ium"], [" Alm", "or"], [" synd", "rome"], [" Absal", "om"], [" Schwe", "itzer"], [" ", "\n \n"], ["0", "7"], ["N", "et"], ["S", "oviet"], ["V", "I"], ["b", "age"], ["b", "oth"], ["d", "o"], ["f", "our"], ["l", "ia"], ["v", "ar"], ["w", "orld"], ["on", "al"], ["or", "ient"], ["ig", "o"], [" be", "ans"], ["ir", "s"], [" H", "om"], [" H", "ob"], [" R", "ick"], [" D", "ream"], [" F", "ive"], [" L", "ive"], [" he", "ar"], [" he", "ating"], ["oc", "ide"], [" O", "ak"], ["ell", "es"], ["ell", "ular"], ["ib", "les"], [" sh", "ipping"], [" Al", "ong"], ["ry", "s"], [" ab", "use"], [" man", "eu"], [" trans", "it"], [" tra", "ced"], ["ec", "utive"], [" War", "ner"], [" Bl", "ade"], [" import", "s"], [" Or", "che"], [" vers", "us"], [" attack", "ing"], [" alb", "edo"], [" gen", "ome"], [" associ", "ate"], [" sw", "ord"], [" fre", "ely"], ["193", "8"], ["193", "9"], ["195", "1"], ["195", "2"], [" continu", "ously"], [" 26", "00"], [" Nor", "se"], [" Rec", "ord"], [" AC", "M"], [" Jul", "ian"], [" arbit", "rary"], ["lem", "ish"], ["\n \n \n \n \n \n \n \n ", "\n \n \n \n \n \n \n \n "], [" Commun", "ist"], [" fert", "il"], [" refuge", "es"], [" CO", "VID"], [" navig", "ation"], ["Not", "able"], [" Artic", "les"], ["esch", "ylus"], [" mos", "que"], [" Author", "ity"], [" comprehens", "ive"], [" fab", "ric"], [" Lav", "oisier"], ["ubay", "dah"], ["N", "on"], ["f", "emale"], ["h", "o"], ["l", "ore"], ["s", "ub"], [" a", "urochs"], ["es", "ides"], [" in", "comp"], [" in", "herent"], [" f", "atal"], ["as", "ma"], [" d", "ish"], [" S", "oftware"], ["ut", "ical"], [" as", "part"], [" g", "arden"], ["ra", "pe"], ["th", "a"], [" G", "ary"], [" D", "ion"], [" L", "ik"], ["ri", "ac"], ["ab", "a"], [" J", "obs"], [" In", "vest"], [" O", "st"], ["oll", "stone"], ["port", "ed"],
[...]
